{
  "vocabulary": {
    " b": 57,
    "ba": 1592,
    "al": 1202,
    "ll": 4011,
    "l ": 3808,
    " ba": 58,
    "bal": 1598,
    "all": 1238,
    "ll ": 4012,
    " bal": 59,
    "ball": 1600,
    "all ": 1239,
    " p": 489,
    "py": 5426,
    "yt": 7070,
    "th": 6315,
    "ho": 3198,
    "on": 4913,
    "n ": 4384,
    " py": 543,
    "pyt": 5432,
    "yth": 7073,
    "tho": 6327,
    "hon": 3209,
    "on ": 4914,
    " pyt": 546,
    "pyth": 5433,
    "ytho": 7074,
    "thon": 6328,
    "hon ": 3210,
    " บ": 811,
    "บอ": 7977,
    "อล": 8846,
    "ลไ": 8568,
    "ไพ": 9748,
    "พธ": 8044,
    "ธอ": 7786,
    "อน": 8787,
    "น ": 7798,
    " บอ": 814,
    "บอล": 7978,
    "อลไ": 8849,
    "ลไพ": 8569,
    "ไพธ": 9749,
    "พธอ": 8045,
    "ธอน": 7787,
    "อน ": 8788,
    " บอล": 815,
    "บอลไ": 7979,
    "อลไพ": 8850,
    "ลไพธ": 8570,
    "ไพธอ": 9750,
    "พธอน": 8046,
    "ธอน ": 7788,
    " r": 551,
    "re": 5569,
    "eg": 2407,
    "gi": 2970,
    "iu": 3684,
    "us": 6736,
    "s ": 5935,
    " re": 559,
    "reg": 5593,
    "egi": 2412,
    "giu": 2985,
    "ius": 3691,
    "us ": 6737,
    " reg": 562,
    "regi": 5594,
    "egiu": 2414,
    "gius": 2986,
    "ius ": 3692,
    "ep": 2579,
    "pt": 5400,
    "ti": 6341,
    "il": 3440,
    "le": 3900,
    "e ": 2264,
    "rep": 5607,
    "ept": 2594,
    "pti": 5407,
    "til": 6357,
    "ile": 3449,
    "le ": 3901,
    " rep": 564,
    "rept": 5609,
    "epti": 2596,
    "ptil": 5408,
    "tile": 6359,
    "ile ": 3450,
    " s": 586,
    "sn": 6093,
    "na": 4395,
    "ak": 1195,
    "ke": 3753,
    " sn": 623,
    "sna": 6094,
    "nak": 4405,
    "ake": 1198,
    "ke ": 3754,
    " sna": 624,
    "snak": 6095,
    "nake": 4406,
    "ake ": 1199,
    " c": 94,
    "ca": 1745,
    "ar": 1385,
    "rn": 5748,
    "ni": 4562,
    "iv": 3693,
    "vo": 6831,
    "or": 5013,
    " ca": 95,
    "car": 1780,
    "arn": 1436,
    "rni": 5753,
    "niv": 4595,
    "ivo": 3703,
    "vor": 6836,
    "ore": 5027,
    "re ": 5570,
    " car": 103,
    "carn": 1787,
    "arni": 1437,
    "rniv": 5758,
    "nivo": 4596,
    "ivor": 3704,
    "vore": 6838,
    "ore ": 5028,
    " t": 653,
    "te": 6266,
    "er": 2600,
    "rr": 5831,
    "es": 2682,
    "st": 6146,
    "tr": 6451,
    "ri": 5651,
    "ia": 3297,
    " te": 658,
    "ter": 6293,
    "err": 2658,
    "rre": 5834,
    "res": 5610,
    "est": 2703,
    "str": 6172,
    "tri": 6462,
    "ria": 5653,
    "ial": 3301,
    "al ": 1203,
    " ter": 663,
    "terr": 6302,
    "erre": 2660,
    "rres": 5837,
    "rest": 5614,
    "estr": 2706,
    "stri": 6174,
    "tria": 6463,
    "rial": 5655,
    "ial ": 3302,
    "lm": 4041,
    "m ": 4159,
    "cal": 1756,
    "alm": 1243,
    "lm ": 4042,
    " cal": 99,
    "calm": 1762,
    "alm ": 1244,
    " e": 188,
    "ea": 2286,
    "as": 1455,
    "sy": 6207,
    "y ": 6935,
    " ea": 189,
    "eas": 2306,
    "asy": 1478,
    "sy ": 6208,
    " eas": 190,
    "easy": 2308,
    "asy ": 1479,
    " l": 360,
    "lo": 4049,
    "ow": 5165,
    "w ": 6850,
    " lo": 381,
    "low": 4087,
    "ow ": 5166,
    " low": 389,
    "low ": 4088,
    " n": 440,
    "no": 4619,
    "o ": 4728,
    " no": 453,
    "no ": 4620,
    " no ": 454,
    " y": 731,
    "ye": 6973,
    " ye": 732,
    "yes": 6981,
    "es ": 2683,
    " yes": 734,
    "yes ": 6982,
    "so": 6097,
    "ol": 4848,
    "li": 3962,
    "it": 3646,
    "ta": 6224,
    "ry": 5913,
    " so": 625,
    "sol": 6105,
    "oli": 4861,
    "lit": 4001,
    "ita": 3650,
    "tar": 6252,
    "ary": 1452,
    "ry ": 5914,
    " sol": 628,
    "soli": 6106,
    "olit": 4866,
    "lita": 4002,
    "itar": 3654,
    "tary": 6256,
    "ary ": 1453,
    " ต": 801,
    "ต้": 7701,
    "้อ": 9873,
    "อง": 8774,
    "งต": 7362,
    "ตร": 7642,
    "รว": 8334,
    "วจ": 8588,
    "จส": 7430,
    "สอ": 8686,
    "อบ": 8807,
    "บร": 7949,
    "รา": 8363,
    "าย": 9094,
    "ยช": 8251,
    "ชน": 7459,
    "นิ": 7890,
    "ิด": 9196,
    "ดเ": 7597,
    "เพ": 9522,
    "พิ": 8077,
    "ิ่": 9256,
    "่ม": 9818,
    "มเ": 8219,
    "เต": 9485,
    "ติ": 7670,
    "ิม": 9226,
    "ม ": 8146,
    " ต้": 804,
    "ต้อ": 7704,
    "้อง": 9874,
    "องต": 8778,
    "งตร": 7363,
    "ตรว": 7643,
    "รวจ": 8335,
    "วจส": 8589,
    "จสอ": 7431,
    "สอบ": 8687,
    "อบร": 8810,
    "บรา": 7954,
    "ราย": 8368,
    "ายช": 9096,
    "ยชน": 8252,
    "ชนิ": 7460,
    "นิด": 7891,
    "ิดเ": 9199,
    "ดเพ": 7604,
    "เพิ": 9525,
    "พิ่": 8082,
    "ิ่ม": 9257,
    "่มเ": 9821,
    "มเต": 8220,
    "เติ": 9488,
    "ติม": 7675,
    "ิม ": 9227,
    " ต้อ": 805,
    "ต้อง": 7705,
    "้องต": 9876,
    "องตร": 8779,
    "งตรว": 7364,
    "ตรวจ": 7644,
    "รวจส": 8336,
    "วจสอ": 8590,
    "จสอบ": 7432,
    "สอบร": 8688,
    "อบรา": 8811,
    "บราย": 7955,
    "รายช": 8369,
    "ายชน": 9097,
    "ยชนิ": 8253,
    "ชนิด": 7461,
    "นิดเ": 7893,
    "ิดเพ": 9200,
    "ดเพิ": 7605,
    "เพิ่": 9527,
    "พิ่ม": 8083,
    "ิ่มเ": 9259,
    "่มเต": 9822,
    "มเติ": 8221,
    "เติม": 9489,
    "ติม ": 7676,
    "บส": 7974,
    "สถ": 8678,
    "ถา": 7714,
    "าน": 9056,
    "นะ": 7878,
    "ะร": 8936,
    "ดจ": 7553,
    "จา": 7439,
    "าก": 9019,
    "กช": 7113,
    "ชื": 7483,
    "ื่": 9333,
    "่อ": 9826,
    "อว": 8851,
    "วิ": 8625,
    "ิท": 9204,
    "ทย": 7734,
    "ยา": 8280,
    "าศ": 9128,
    "ศา": 8645,
    "าส": 9131,
    "สต": 8669,
    "ร์": 8413,
    "์ก": 9904,
    "ก่": 7211,
    "นค": 7809,
    "คร": 7264,
    "รอ": 8344,
    "บค": 7946,
    "ง ": 7350,
    "อบส": 8812,
    "บสถ": 7975,
    "สถา": 8679,
    "ถาน": 7715,
    "านะ": 9057,
    "นะร": 7879,
    "ะรา": 8939,
    "ิดจ": 9197,
    "ดจา": 7554,
    "จาก": 7440,
    "ากช": 9020,
    "กชื": 7114,
    "ชื่": 7484,
    "ื่อ": 9334,
    "่อว": 9829,
    "อวิ": 8852,
    "วิท": 8626,
    "ิทย": 9205,
    "ทยา": 7735,
    "ยาศ": 8284,
    "าศา": 9129,
    "ศาส": 8646,
    "าสต": 9132,
    "สตร": 8670,
    "ตร์": 7647,
    "ร์ก": 8415,
    "์ก่": 9909,
    "ก่อ": 7212,
    "่อน": 9827,
    "อนค": 8789,
    "นคร": 7810,
    "ครอ": 7271,
    "รอบ": 8352,
    "อบค": 8808,
    "บคร": 7947,
    "รอง": 8347,
    "อง ": 8775,
    "สอบส": 8689,
    "อบสถ": 8813,
    "บสถา": 7976,
    "สถาน": 8680,
    "ถานะ": 7716,
    "านะร": 9058,
    "นะรา": 7880,
    "ะราย": 8940,
    "นิดจ": 7892,
    "ิดจา": 9198,
    "ดจาก": 7555,
    "จากช": 7441,
    "ากชื": 9021,
    "กชื่": 7115,
    "ชื่อ": 7485,
    "ื่อว": 9335,
    "่อวิ": 9830,
    "อวิท": 8853,
    "วิทย": 8627,
    "ิทยา": 9206,
    "ทยาศ": 7736,
    "ยาศา": 8285,
    "าศาส": 9130,
    "ศาสต": 8647,
    "าสตร": 9133,
    "สตร์": 8672,
    "ตร์ก": 7648,
    "ร์ก่": 8418,
    "์ก่อ": 9910,
    "ก่อน": 7213,
    "่อนค": 9828,
    "อนคร": 8790,
    "นครอ": 7811,
    "ครอบ": 7273,
    "รอบค": 8353,
    "อบคร": 8809,
    "บครอ": 7948,
    "ครอง": 7272,
    "รอง ": 8348,
    " ค": 749,
    "ค้": 7344,
    "้า": 9880,
    "า ": 9015,
    " ค้": 758,
    "ค้า": 7345,
    "้า ": 9881,
    " ค้า": 759,
    "ค้า ": 7346,
    " เ": 873,
    "พา": 8071,
    "าะ": 9148,
    "ะพ": 8930,
    "พั": 8066,
    "ัน": 8965,
    "นธ": 7840,
    "ธุ": 7792,
    "ุ์": 9350,
    "์ ": 9903,
    " เพ": 886,
    "เพา": 9523,
    "พาะ": 8075,
    "าะพ": 9149,
    "ะพั": 8931,
    "พัน": 8067,
    "ันธ": 8972,
    "นธุ": 7841,
    "ธุ์": 7793,
    "ุ์ ": 9351,
    " เพา": 887,
    "เพาะ": 9524,
    "พาะพ": 8076,
    "าะพั": 9150,
    "ะพัน": 8932,
    "พันธ": 8068,
    "ันธุ": 8973,
    "นธุ์": 7842,
    "ธุ์ ": 7794,
    " ห": 858,
    "หร": 8746,
    "รื": 8394,
    "ือ": 9328,
    "นำ": 7887,
    "ำเ": 9171,
    "เข": 9445,
    "ข้": 7226,
    "า-": 9016,
    "-ส": 1019,
    "ส่": 8716,
    "่ง": 9804,
    "งอ": 7382,
    "ออ": 8862,
    "อก": 8756,
    "ก ": 7108,
    " หร": 863,
    "หรื": 8747,
    "รือ": 8395,
    "ือน": 9329,
    "อนำ": 8799,
    "นำเ": 7888,
    "ำเข": 9172,
    "เข้": 9446,
    "ข้า": 7227,
    "้า-": 9882,
    "า-ส": 9017,
    "-ส่": 1020,
    "ส่ง": 8717,
    "่งอ": 9805,
    "งออ": 7383,
    "ออก": 8863,
    "อก ": 8757,
    " หรื": 864,
    "หรือ": 8748,
    "รือน": 8396,
    "ือนำ": 9330,
    "อนำเ": 8800,
    "นำเข": 7889,
    "ำเข้": 9173,
    "เข้า": 9447,
    "ข้า-": 7228,
    "้า-ส": 9883,
    "า-ส่": 9018,
    "-ส่ง": 1021,
    "ส่งอ": 8718,
    "่งออ": 9806,
    "งออก": 7384,
    "ออก ": 8864,
    " แ": 905,
    "แล": 9648,
    "ละ": 8507,
    "ะผ": 8927,
    "ผู": 8036,
    "ู้": 9433,
    "้เ": 9894,
    "เล": 9560,
    "ลี": 8535,
    "ี้": 9319,
    "้ย": 9869,
    "ยง": 8246,
    "งจ": 7359,
    "จั": 7436,
    "ัด": 8952,
    "ดส": 7576,
    "สว": 8683,
    "วั": 8615,
    "ัส": 9008,
    "สด": 8666,
    "ดิ": 7592,
    "ิภ": 9223,
    "ภา": 8143,
    "าพ": 9075,
    "พส": 8060,
    "สั": 8690,
    "ัต": 8959,
    "ตว": 7652,
    "ว์": 8637,
    "์ต": 9925,
    "ตา": 7665,
    "าม": 9083,
    "มก": 8147,
    "กฎ": 7120,
    "ฎห": 7539,
    "หม": 8736,
    "มา": 8192,
    "ย ": 8243,
    " แล": 916,
    "และ": 9649,
    "ละผ": 8508,
    "ะผู": 8928,
    "ผู้": 8037,
    "ู้เ": 9434,
    "้เล": 9895,
    "เลี": 9565,
    "ลี้": 8540,
    "ี้ย": 9322,
    "้ยง": 9870,
    "ยงต": 8249,
    "งต้": 7365,
    "องจ": 8776,
    "งจั": 7360,
    "จัด": 7437,
    "ัดส": 8953,
    "ดสว": 7577,
    "สวั": 8684,
    "วัส": 8618,
    "ัสด": 9010,
    "สดิ": 8667,
    "ดิภ": 7593,
    "ิภา": 9224,
    "ภาพ": 8144,
    "าพส": 9076,
    "พสั": 8061,
    "สัต": 8691,
    "ัตว": 8960,
    "ตว์": 7653,
    "ว์ต": 8639,
    "์ตา": 9926,
    "ตาม": 7668,
    "ามก": 9084,
    "มกฎ": 8148,
    "กฎห": 7121,
    "ฎหม": 7540,
    "หมา": 8739,
    "มาย": 8198,
    "าย ": 9095,
    " และ": 917,
    "และผ": 9650,
    "ละผู": 8509,
    "ะผู้": 8929,
    "ผู้เ": 8038,
    "ู้เล": 9435,
    "้เลี": 9896,
    "เลี้": 9567,
    "ลี้ย": 8541,
    "ี้ยง": 9323,
    "้ยงต": 9872,
    "ยงต้": 8250,
    "งต้อ": 7366,
    "้องจ": 9875,
    "องจั": 8777,
    "งจัด": 7361,
    "จัดส": 7438,
    "ัดสว": 8954,
    "ดสวั": 7578,
    "สวัส": 8685,
    "วัสด": 8619,
    "ัสดิ": 9011,
    "สดิภ": 8668,
    "ดิภา": 7594,
    "ิภาพ": 9225,
    "ภาพส": 8145,
    "าพสั": 9077,
    "พสัต": 8062,
    "สัตว": 8692,
    "ัตว์": 8961,
    "ตว์ต": 7654,
    "ว์ตา": 8640,
    "์ตาม": 9927,
    "ตามก": 7669,
    "ามกฎ": 9085,
    "มกฎห": 8149,
    "กฎหม": 7122,
    "ฎหมา": 7541,
    "หมาย": 8740,
    "มาย ": 8199,
    "et": 2708,
    "ic": 3324,
    "cu": 2028,
    "ul": 6626,
    "la": 3819,
    "at": 1480,
    "ed": 2350,
    "d ": 2059,
    "ret": 5615,
    "eti": 2716,
    "tic": 6346,
    "icu": 3358,
    "cul": 2032,
    "ula": 6628,
    "lat": 3856,
    "ate": 1489,
    "ted": 6275,
    "ed ": 2351,
    " ret": 566,
    "reti": 5617,
    "etic": 2718,
    "ticu": 6350,
    "icul": 3359,
    "cula": 2033,
    "ulat": 6632,
    "late": 3857,
    "ated": 1491,
    "ted ": 6276,
    " ง": 760,
    "งู": 7387,
    "ูเ": 9405,
    "เห": 9576,
    "หล": 8749,
    "ลื": 8542,
    "อม": 8819,
    "มต": 8158,
    "าข": 9025,
    "ข่": 7223,
    "่า": 9831,
    " งู": 761,
    "งูเ": 7405,
    "ูเห": 9410,
    "เหล": 9577,
    "หลื": 8754,
    "ลือ": 8543,
    "ือม": 9331,
    "อมต": 8820,
    "มตา": 8159,
    "ตาข": 7666,
    "าข่": 9026,
    "ข่า": 7224,
    "่าย": 9841,
    " งูเ": 769,
    "งูเห": 7407,
    "ูเหล": 9411,
    "เหลื": 9578,
    "หลือ": 8755,
    "ลือม": 8544,
    "ือมต": 9332,
    "อมตา": 8821,
    "มตาข": 8160,
    "ตาข่": 7667,
    "าข่า": 9027,
    "ข่าย": 7225,
    "่าย ": 9842,
    " m": 394,
    "ma": 4163,
    "ay": 1571,
    "yo": 7031,
    "op": 4981,
    " ma": 395,
    "mal": 4178,
    "ala": 1208,
    "lay": 3870,
    "ayo": 1582,
    "yop": 7034,
    "opy": 5010,
    " mal": 398,
    "mala": 4180,
    "alay": 1217,
    "layo": 3872,
    "ayop": 1583,
    "yopy": 7037,
    "opyt": 5012,
    "tu": 6498,
    "atu": 1523,
    "tus": 6511,
    "latu": 3860,
    "atus": 1526,
    "tus ": 6512,
    "po": 5339,
    "we": 6872,
    "rf": 5625,
    "fu": 2881,
    " po": 518,
    "pow": 5362,
    "owe": 5172,
    "wer": 6875,
    "erf": 2622,
    "rfu": 5629,
    "ful": 2882,
    "ul ": 6627,
    " pow": 526,
    "powe": 5363,
    "ower": 5173,
    "werf": 6876,
    "erfu": 2624,
    "rful": 5630,
    "ful ": 2883,
    " h": 293,
    "ha": 3074,
    "rd": 5556,
    " ha": 294,
    "har": 3096,
    "ard": 1402,
    "rd ": 5557,
    " har": 297,
    "hard": 3097,
    "ard ": 1403,
    "hi": 3149,
    "ig": 3412,
    "gh": 2966,
    "h ": 3073,
    " hi": 305,
    "hig": 3157,
    "igh": 3423,
    "gh ": 2967,
    " hig": 306,
    "high": 3158,
    "igh ": 3424,
    "bu": 1719,
    "ur": 6697,
    "rm": 5735,
    "me": 4232,
    "se": 5989,
    " bu": 87,
    "bur": 1727,
    "urm": 6719,
    "rme": 5742,
    "mes": 4252,
    "ese": 2690,
    "se ": 5990,
    " bur": 91,
    "burm": 1728,
    "urme": 6720,
    "rmes": 5743,
    "mese": 4253,
    "ese ": 2691,
    "ูห": 9397,
    "ลา": 8513,
    "มพ": 8179,
    "พม": 8050,
    "ม่": 8237,
    "งูห": 7400,
    "ูหล": 9400,
    "หลา": 8752,
    "ลาม": 8516,
    "ามพ": 9086,
    "มพม": 8180,
    "พม่": 8051,
    "ม่า": 8238,
    "่า ": 9832,
    " งูห": 767,
    "งูหล": 7402,
    "ูหลา": 9401,
    "หลาม": 8753,
    "ลามพ": 8517,
    "ามพม": 9087,
    "มพม่": 8181,
    "พม่า": 8052,
    "ม่า ": 8239,
    "bi": 1634,
    "vi": 6814,
    "tt": 6483,
    " bi": 67,
    "biv": 1654,
    "ivi": 3700,
    "vit": 6829,
    "itt": 3677,
    "tta": 6486,
    "tat": 6257,
    " biv": 71,
    "bivi": 1656,
    "ivit": 3702,
    "vitt": 6830,
    "itta": 3678,
    "ttat": 6489,
    "tatu": 6260,
    "ut": 6760,
    "t ": 6213,
    "but": 1733,
    "ut ": 6761,
    " but": 93,
    "but ": 1734,
    " g": 253,
    "an": 1294,
    "nt": 4674,
    " gi": 267,
    "gia": 2972,
    "ian": 3307,
    "ant": 1343,
    "nt ": 4675,
    " gia": 268,
    "gian": 2974,
    "iant": 3311,
    "ant ": 1344,
    "bl": 1658,
    "oo": 4969,
    "od": 4780,
    " bl": 72,
    "blo": 1665,
    "loo": 4067,
    "ood": 4971,
    "od ": 4781,
    " blo": 74,
    "bloo": 1666,
    "lood": 4068,
    "ood ": 4972,
    "ูบ": 9380,
    "บล": 7958,
    "ลั": 8510,
    "ดไ": 7606,
    "งูบ": 7396,
    "ูบล": 9381,
    "บลั": 7964,
    "ลัด": 8511,
    "ัดไ": 8957,
    "ดไพ": 7607,
    " งูบ": 765,
    "งูบล": 7397,
    "ูบลั": 9382,
    "บลัด": 7965,
    "ลัดไ": 8512,
    "ัดไพ": 8958,
    "ดไพธ": 7608,
    "br": 1698,
    "ro": 5761,
    "ng": 4531,
    "ge": 2929,
    "rs": 5851,
    "sm": 6088,
    "ai": 1170,
    "i ": 3289,
    " br": 82,
    "bro": 1713,
    "ron": 5793,
    "ong": 4934,
    "nge": 4542,
    "ger": 2950,
    "ers": 2664,
    "rsm": 5862,
    "sma": 6089,
    "mai": 4174,
    "ai ": 1171,
    " bro": 86,
    "bron": 1715,
    "rong": 5794,
    "onge": 4938,
    "nger": 4545,
    "gers": 2956,
    "ersm": 2666,
    "rsma": 5863,
    "smai": 6090,
    "mai ": 4175,
    " d": 154,
    "de": 2110,
    "ef": 2396,
    "fe": 2808,
    "en": 2509,
    "ns": 4660,
    "si": 6045,
    "ve": 6793,
    " de": 160,
    "def": 2113,
    "efe": 2399,
    "fen": 2813,
    "ens": 2547,
    "nsi": 4667,
    "siv": 6074,
    "ive": 3696,
    "ve ": 6794,
    " def": 161,
    "defe": 2114,
    "efen": 2400,
    "fens": 2815,
    "ensi": 2550,
    "nsiv": 4671,
    "sive": 6075,
    "ive ": 3697,
    "di": 2147,
    "um": 6652,
    " me": 408,
    "med": 4236,
    "edi": 2365,
    "diu": 2179,
    "ium": 3685,
    "um ": 6653,
    " med": 409,
    "medi": 4237,
    "ediu": 2367,
    "dium": 2180,
    "ium ": 3686,
    "ra": 5461,
    "in": 3499,
    "nb": 4427,
    "bo": 1669,
    " ra": 552,
    "rai": 5481,
    "ain": 1180,
    "inb": 3508,
    "nbo": 4430,
    "bow": 1694,
    " rai": 554,
    "rain": 5482,
    "ainb": 1181,
    "inbo": 3509,
    "nbow": 4431,
    "bow ": 1695,
    "oa": 4729,
    "a ": 1039,
    " bo": 76,
    "boa": 1670,
    "oa ": 4730,
    " boa": 77,
    "boa ": 1671,
    "เร": 9545,
    "รน": 8318,
    "นโ": 7929,
    "โบ": 9705,
    "บว": 7971,
    "์โ": 10003,
    "อา": 8876,
    "ูเร": 9408,
    "เรน": 9554,
    "รนโ": 8319,
    "นโบ": 7932,
    "โบว": 9710,
    "บว์": 7972,
    "ว์โ": 8643,
    "์โบ": 10006,
    "โบอ": 9712,
    "บอา": 7980,
    "อา ": 8877,
    "งูเร": 7406,
    "ูเรน": 9409,
    "เรนโ": 9555,
    "รนโบ": 8320,
    "นโบว": 7933,
    "โบว์": 9711,
    "บว์โ": 7973,
    "ว์โบ": 8644,
    "์โบอ": 10007,
    "โบอา": 9713,
    "บอา ": 7981,
    "pi": 5298,
    "cr": 1986,
    " ep": 207,
    "epi": 2587,
    "pic": 5302,
    "icr": 3351,
    "cra": 1987,
    "rat": 5512,
    "tes": 6305,
    " epi": 208,
    "epic": 2588,
    "picr": 5303,
    "icra": 3352,
    "crat": 1990,
    "rate": 5515,
    "ates": 1495,
    "tes ": 6306,
    "ce": 1811,
    "nc": 4432,
    "ch": 1838,
    "hr": 3228,
    " ce": 108,
    "cen": 1822,
    "enc": 2518,
    "nch": 4435,
    "chr": 1867,
    "hri": 3232,
    "ia ": 3298,
    " cen": 110,
    "cenc": 1823,
    "ench": 2519,
    "nchr": 4438,
    "chri": 1868,
    "hria": 3233,
    "ria ": 5654,
    " k": 345,
    "ny": 4719,
    "ya": 6946,
    " ke": 346,
    "ken": 3761,
    "eny": 2558,
    "nya": 4720,
    "yan": 6950,
    "an ": 1295,
    " ken": 347,
    "keny": 3762,
    "enya": 2559,
    "nyan": 4721,
    "yan ": 6951,
    "sa": 5945,
    "nd": 4454,
    " sa": 587,
    "san": 5955,
    "and": 1306,
    "nd ": 4455,
    " san": 591,
    "sand": 5956,
    "and ": 1307,
    "ูท": 9373,
    "ทร": 7737,
    "ยเ": 8289,
    "เค": 9448,
    "คน": 7247,
    "นย": 7859,
    "งูท": 7394,
    "ูทร": 9374,
    "ทรา": 7738,
    "ายเ": 9102,
    "ยเค": 8290,
    "เคน": 9449,
    "คนย": 7249,
    "นยา": 7860,
    "ยา ": 8281,
    " งูท": 764,
    "งูทร": 7395,
    "ูทรา": 9375,
    "ทราย": 7739,
    "รายเ": 8371,
    "ายเค": 9103,
    "ยเคน": 8291,
    "เคนย": 9450,
    "คนยา": 7250,
    "นยา ": 7861,
    "yx": 7081,
    "x ": 6901,
    " er": 209,
    "ery": 2678,
    "ryx": 5931,
    "yx ": 7082,
    " ery": 212,
    "eryx": 2681,
    "ryx ": 5932,
    "co": 1943,
    "lu": 4118,
    "ub": 6540,
    "nu": 4704,
    " co": 128,
    "col": 1958,
    "olu": 4879,
    "lub": 4119,
    "ubr": 6548,
    "bri": 1707,
    "rin": 5686,
    "inu": 3560,
    "nus": 4712,
    " col": 132,
    "colu": 1961,
    "olub": 4880,
    "lubr": 4120,
    "ubri": 6549,
    "brin": 1710,
    "rinu": 5692,
    "inus": 3562,
    "nus ": 4713,
    "wi": 6883,
    "g ": 2890,
    "urr": 6729,
    "rro": 5845,
    "row": 5822,
    "owi": 5174,
    "win": 6884,
    "ing": 3529,
    "ng ": 4532,
    "burr": 1729,
    "urro": 6731,
    "rrow": 5848,
    "rowi": 5825,
    "owin": 5175,
    "wing": 6885,
    "ing ": 3530,
    "cor": 1975,
    "orn": 5040,
    "rn ": 5749,
    " cor": 135,
    "corn": 1978,
    "orn ": 5041,
    "ูค": 9360,
    "คอ": 7291,
    "อร": 8831,
    "์น": 9935,
    "นส": 7865,
    "สเ": 8701,
    "เน": 9503,
    "นก": 7799,
    "งูค": 7390,
    "ูคอ": 9361,
    "คอร": 7295,
    "อร์": 8832,
    "ร์น": 8431,
    "์นส": 9937,
    "นสเ": 7869,
    "สเน": 8709,
    "เนก": 9504,
    "นก ": 7800,
    " งูค": 763,
    "งูคอ": 7391,
    "ูคอร": 9362,
    "คอร์": 7296,
    "อร์น": 8838,
    "ร์นส": 8433,
    "์นสเ": 9938,
    "นสเน": 7870,
    "สเนก": 8710,
    "เนก ": 9505,
    "pa": 5197,
    "he": 3105,
    "ph": 5260,
    "is": 3629,
    " pa": 490,
    "pan": 5212,
    "nth": 4685,
    "the": 6320,
    "her": 3135,
    "ero": 2647,
    "rop": 5798,
    "oph": 4989,
    "phi": 5272,
    "his": 3173,
    "is ": 3630,
    " pan": 495,
    "pant": 5216,
    "anth": 1347,
    "nthe": 4687,
    "ther": 6324,
    "hero": 3142,
    "erop": 2652,
    "roph": 5801,
    "ophi": 4992,
    "phis": 5276,
    "his ": 3174,
    "gu": 3048,
    " gu": 287,
    "gut": 3068,
    "utt": 6767,
    " gut": 290,
    "gutt": 3069,
    "utta": 6768,
    "do": 2191,
    "oc": 4750,
    "ci": 1878,
    " do": 172,
    "doc": 2195,
    "oci": 4762,
    "cil": 1890,
    " doc": 173,
    "doci": 2196,
    "ocil": 4765,
    "cile": 1891,
    "if": 3400,
    "fo": 2856,
    "ali": 1230,
    "lif": 3979,
    "ifo": 3408,
    "for": 2861,
    "nia": 4564,
    "cali": 1760,
    "alif": 1234,
    "lifo": 3980,
    "ifor": 3409,
    "forn": 2863,
    "orni": 5043,
    "rnia": 5754,
    "nia ": 4565,
    "ki": 3768,
    "gs": 3045,
    " ki": 348,
    "kin": 3776,
    "ngs": 4556,
    "gsn": 3046,
    " kin": 350,
    "king": 3779,
    "ings": 3538,
    "ngsn": 4557,
    "gsna": 3047,
    "คิ": 7322,
    "ิง": 9186,
    "งส": 7373,
    "กแ": 7193,
    "แค": 9600,
    "คล": 7278,
    "ลิ": 8529,
    "ิฟ": 9218,
    "ฟอ": 8117,
    "์เ": 9970,
    "นี": 7900,
    "ีย": 9289,
    "ูคิ": 9365,
    "คิง": 7323,
    "ิงส": 9187,
    "งสเ": 7376,
    "นกแ": 7807,
    "กแค": 7196,
    "แคล": 9613,
    "คลิ": 7281,
    "ลิฟ": 8530,
    "ิฟอ": 9219,
    "ฟอร": 8118,
    "ร์เ": 8444,
    "์เน": 9981,
    "เนี": 9509,
    "นีย": 7901,
    "ีย ": 9290,
    "งูคิ": 7393,
    "ูคิง": 9366,
    "คิงส": 7324,
    "ิงสเ": 9188,
    "งสเน": 7377,
    "เนกแ": 9508,
    "นกแค": 7808,
    "กแคล": 7197,
    "แคลิ": 9614,
    "คลิฟ": 7282,
    "ลิฟอ": 8531,
    "ิฟอร": 9220,
    "ฟอร์": 8119,
    "อร์เ": 8844,
    "ร์เน": 8449,
    "์เนี": 9982,
    "เนีย": 9510,
    "นีย ": 7902,
    "am": 1261,
    "mp": 4332,
    "pr": 5373,
    "pe": 5228,
    "el": 2436,
    "lt": 4110,
    " la": 361,
    "lam": 3835,
    "amp": 1283,
    "mpr": 4345,
    "pro": 5385,
    "ope": 4986,
    "pel": 5239,
    "elt": 2481,
    "lti": 4114,
    "tis": 6374,
    " lam": 364,
    "lamp": 3837,
    "ampr": 1287,
    "mpro": 4346,
    "prop": 5388,
    "rope": 5800,
    "opel": 4988,
    "pelt": 5242,
    "elti": 2482,
    "ltis": 4115,
    "tis ": 6375,
    "ae": 1121,
    "iae": 3299,
    "ae ": 1122,
    "niae": 4566,
    "iae ": 3300,
    "io": 3564,
    "ou": 5130,
    " cu": 144,
    "cur": 2040,
    "uri": 6712,
    "rio": 5693,
    "iou": 3587,
    "ous": 5149,
    " cur": 147,
    "curi": 2041,
    "urio": 6715,
    "riou": 5697,
    "ious": 3588,
    "ous ": 5150,
    "mi": 4264,
    "lk": 4007,
    "k ": 3739,
    " mi": 419,
    "mil": 4271,
    "ilk": 3462,
    "lk ": 4008,
    " mil": 421,
    "milk": 4274,
    "ilk ": 3463,
    "ูม": 9389,
    "มิ": 8207,
    "ิล": 9231,
    "ลค": 8466,
    "ค์": 7347,
    "์ส": 9955,
    "งูม": 7398,
    "ูมิ": 9390,
    "มิล": 8208,
    "ิลค": 9233,
    "ลค์": 8469,
    "ค์ส": 7348,
    "์สเ": 9956,
    " งูม": 766,
    "งูมิ": 7399,
    "ูมิล": 9391,
    "มิลค": 8209,
    "ิลค์": 9234,
    "ลค์ส": 8470,
    "ค์สเ": 7349,
    "์สเน": 9957,
    " tr": 681,
    "ang": 1317,
    "ngu": 4558,
    "gul": 3061,
    "ulu": 6649,
    "lum": 4133,
    " tri": 684,
    "rian": 5656,
    "iang": 3310,
    "angu": 1319,
    "ngul": 4561,
    "gulu": 3063,
    "ulum": 6650,
    "lum ": 4134,
    " a": 0,
    "ac": 1050,
    "ct": 2008,
    " ac": 1,
    "act": 1092,
    "cti": 2014,
    "tiv": 6380,
    " act": 4,
    "acti": 1093,
    "ctiv": 2015,
    "tive": 6382,
    " w": 715,
    " we": 720,
    "wes": 6878,
    "ste": 6153,
    "ern": 2643,
    " wes": 721,
    "west": 6879,
    "este": 2704,
    "ster": 6158,
    "tern": 6300,
    "ern ": 2644,
    "og": 4815,
    "gn": 2999,
    "os": 5067,
    " ho": 309,
    "hog": 3203,
    "ogn": 4824,
    "gno": 3004,
    "nos": 4646,
    "ose": 5074,
    " hog": 310,
    "hogn": 3206,
    "ogno": 4825,
    "gnos": 3005,
    "nose": 4647,
    "ose ": 5075,
    "ูฮ": 9402,
    "ฮอ": 8917,
    "กโ": 7198,
    "โน": 9702,
    "ส ": 8650,
    "งูฮ": 7403,
    "ูฮอ": 9403,
    "ฮอก": 8918,
    "อกโ": 8766,
    "กโน": 7206,
    "โนส": 9703,
    "นส ": 7866,
    " งูฮ": 768,
    "งูฮอ": 7404,
    "ูฮอก": 9404,
    "ฮอกโ": 8920,
    "อกโน": 8768,
    "กโนส": 7207,
    "โนส ": 9704,
    " he": 298,
    "het": 3145,
    "ete": 2713,
    "rod": 5775,
    "odo": 4794,
    "don": 2207,
    " het": 304,
    "hete": 3146,
    "eter": 2715,
    "tero": 6301,
    "erod": 2648,
    "rodo": 5778,
    "odon": 4795,
    "don ": 2208,
    " na": 441,
    "nas": 4418,
    "asi": 1459,
    "sic": 6049,
    "cus": 2042,
    " nas": 443,
    "nasi": 4419,
    "asic": 1461,
    "sicu": 6051,
    "icus": 3360,
    "cus ": 2043,
    "dr": 2226,
    "c ": 1741,
    " dr": 179,
    "dra": 2227,
    "ram": 5490,
    "ama": 1263,
    "mat": 4202,
    "ati": 1501,
    "ic ": 3325,
    " dra": 180,
    "dram": 2230,
    "rama": 5491,
    "amat": 1267,
    "mati": 4205,
    "atic": 1502,
    "tic ": 6347,
    "ld": 3886,
    "d-": 2060,
    "-t": 1005,
    "to": 6400,
    "ox": 5180,
    "xi": 6913,
    "ild": 3445,
    "ld-": 3888,
    "d-t": 2073,
    "-to": 1010,
    "tox": 6448,
    "oxi": 5184,
    "xic": 6914,
    "mild": 4272,
    "ild-": 3447,
    "ld-t": 3890,
    "d-to": 2074,
    "-tox": 1013,
    "toxi": 6449,
    "oxic": 5185,
    "xic ": 6915,
    "rp": 5827,
    "arp": 1440,
    "rpe": 5829,
    "pet": 5255,
    "et ": 2709,
    "carp": 1788,
    "arpe": 1442,
    "rpet": 5830,
    "pet ": 5256,
    "คา": 7304,
    "าร": 9104,
    "พ็": 8087,
    "็ต": 9785,
    "ตไ": 7688,
    "ูคา": 9363,
    "คาร": 7315,
    "าร์": 9113,
    "์เพ": 9985,
    "เพ็": 9528,
    "พ็ต": 8088,
    "็ตไ": 9790,
    "ตไพ": 7689,
    "งูคา": 7392,
    "ูคาร": 9364,
    "คาร์": 7316,
    "าร์เ": 9117,
    "ร์เพ": 8451,
    "์เพ็": 9986,
    "เพ็ต": 9529,
    "พ็ตไ": 8089,
    "็ตไพ": 9791,
    "ตไพธ": 7690,
    "mo": 4303,
    " mo": 425,
    "mor": 4319,
    "rel": 5597,
    "eli": 2457,
    "lia": 3964,
    " mor": 429,
    "more": 4321,
    "orel": 5030,
    "reli": 5599,
    "elia": 2458,
    "lia ": 3965,
    "sp": 6117,
    "ot": 5097,
    " sp": 631,
    "spi": 6125,
    "pil": 5310,
    "ilo": 3470,
    "lot": 4079,
    "ota": 5099,
    "ta ": 6225,
    " spi": 634,
    "spil": 6127,
    "pilo": 5312,
    "ilot": 3472,
    "lota": 4080,
    "ota ": 5100,
    "em": 2487,
    "i-": 3290,
    "-a": 952,
    "rb": 5534,
    " se": 599,
    "sem": 6002,
    "emi": 2495,
    "mi-": 4266,
    "i-a": 3291,
    "-ar": 959,
    "arb": 1397,
    "rbo": 5541,
    "bor": 1684,
    "rea": 5575,
    "eal": 2296,
    " sem": 602,
    "semi": 6003,
    "emi-": 2496,
    "mi-a": 4267,
    "i-ar": 3294,
    "-arb": 960,
    "arbo": 1399,
    "rbor": 5543,
    "bore": 1685,
    "orea": 5029,
    "real": 5577,
    "eal ": 2297,
    "rt": 5867,
    " al": 15,
    "ale": 1224,
    "ler": 3932,
    "ert": 2668,
    "rt ": 5868,
    " ale": 18,
    "aler": 1228,
    "lert": 3935,
    "ert ": 2669,
    "gr": 3027,
    "ee": 2377,
    " gr": 282,
    "gre": 3035,
    "ree": 5587,
    "een": 2387,
    "en ": 2510,
    " gre": 284,
    "gree": 3036,
    "reen": 5591,
    "een ": 2388,
    "tre": 6460,
    "ee ": 2378,
    " tre": 683,
    "tree": 6461,
    "ree ": 5588,
    "ูก": 9353,
    "กร": 7129,
    "รี": 8380,
    "ีน": 9273,
    "นท": 7835,
    "ีไ": 9306,
    "งูก": 7388,
    "ูกร": 9354,
    "กรี": 7134,
    "รีน": 8381,
    "ีนท": 9277,
    "นทร": 7836,
    "ทรี": 7740,
    "รีไ": 8389,
    "ีไพ": 9307,
    " งูก": 762,
    "งูกร": 7389,
    "ูกรี": 9355,
    "กรีน": 7135,
    "รีนท": 8383,
    "ีนทร": 9278,
    "นทรี": 7837,
    "ทรีไ": 7742,
    "รีไพ": 8390,
    "ีไพธ": 9308,
    " v": 698,
    "ir": 3607,
    "id": 3361,
    " vi": 706,
    "vir": 6824,
    "iri": 3619,
    "rid": 5668,
    "idi": 3367,
    "dis": 2173,
    " vir": 708,
    "viri": 6826,
    "irid": 3621,
    "ridi": 5671,
    "idis": 3369,
    "dis ": 2174,
    " ar": 36,
    " arb": 38,
    "sen": 6004,
    "sit": 6070,
    "iti": 3667,
    " sen": 603,
    "sens": 6006,
    "nsit": 4670,
    "siti": 6072,
    "itiv": 3670,
    "r ": 5447,
    "con": 1965,
    "ons": 4954,
    "nst": 4672,
    "ric": 5662,
    "ict": 3354,
    "cto": 2016,
    "tor": 6433,
    "or ": 5014,
    " con": 134,
    "cons": 1966,
    "onst": 4956,
    "nstr": 4673,
    "tric": 6465,
    "rict": 5666,
    "icto": 3356,
    "ctor": 2020,
    "tor ": 6434,
    "ูโ": 9421,
    "าค": 9028,
    "ริ": 8372,
    "ิก": 9174,
    "กเ": 7184,
    "ตอ": 7655,
    "งูโ": 7410,
    "ูโบ": 9424,
    "อาค": 8878,
    "าคอ": 9029,
    "คอน": 7292,
    "อนส": 8795,
    "นสต": 7867,
    "ตริ": 7645,
    "ริก": 8373,
    "ิกเ": 9181,
    "กเต": 7187,
    "เตอ": 9486,
    "ตอร": 7656,
    "ร์ ": 8414,
    " งูโ": 771,
    "งูโบ": 7412,
    "ูโบอ": 9426,
    "บอาค": 7982,
    "อาคอ": 8879,
    "าคอน": 9030,
    "คอนส": 7293,
    "อนสต": 8796,
    "นสตร": 7868,
    "สตริ": 8671,
    "ตริก": 7646,
    "ริกเ": 8375,
    "ิกเต": 9183,
    "กเตอ": 7188,
    "เตอร": 9487,
    "ตอร์": 7657,
    "อร์ ": 8833,
    " i": 323,
    "im": 3480,
    " im": 328,
    "imp": 3492,
    "mpe": 4336,
    "per": 5247,
    "era": 2606,
    "ato": 1512,
    " imp": 330,
    "impe": 3494,
    "mper": 4337,
    "pera": 5248,
    "erat": 2610,
    "rato": 5517,
    "ator": 1516,
    "go": 3006,
    " go": 276,
    "gop": 3019,
    "phe": 5267,
    "er ": 2601,
    " gop": 280,
    "goph": 3020,
    "ophe": 4991,
    "pher": 5271,
    "her ": 3136,
    "โก": 9671,
    "เฟ": 9530,
    "ูโก": 9422,
    "โกเ": 9674,
    "กเฟ": 7189,
    "เฟอ": 9533,
    "งูโก": 7411,
    "ูโกเ": 9423,
    "โกเฟ": 9675,
    "กเฟอ": 7190,
    "เฟอร": 9534,
    "uo": 6683,
    " pi": 508,
    "pit": 5327,
    "itu": 3680,
    "tuo": 6506,
    "uop": 6684,
    " pit": 513,
    "pitu": 5328,
    "ituo": 3681,
    "tuop": 6507,
    "uoph": 6685,
    "cat": 1791,
    "ten": 6287,
    "eni": 2532,
    "nif": 4573,
    "ife": 3403,
    "fer": 2816,
    " cat": 105,
    "cate": 1793,
    "aten": 1493,
    "teni": 6288,
    "enif": 2535,
    "nife": 4574,
    "ifer": 3405,
    "fer ": 2817,
    " j": 335,
    "ja": 3713,
    "ap": 1359,
    "ne": 4487,
    " ja": 336,
    "jap": 3722,
    "apa": 1361,
    "ane": 1314,
    "nes": 4517,
    " jap": 340,
    "japa": 3723,
    "apan": 1362,
    "pane": 5214,
    "anes": 1315,
    "nese": 4519,
    "at ": 1481,
    " rat": 557,
    "rat ": 5513,
    "หน": 8731,
    "นู": 7905,
    "ูญ": 9370,
    "ญี": 7536,
    "ี่": 9309,
    "่ป": 9812,
    "ปุ": 8027,
    "ุ่": 9339,
    "่น": 9810,
    "ูหน": 9398,
    "หนู": 8732,
    "นูญ": 7906,
    "ูญี": 9371,
    "ญี่": 7537,
    "ี่ป": 9313,
    "่ปุ": 9813,
    "ปุ่": 8028,
    "ุ่น": 9340,
    "่น ": 9811,
    "งูหน": 7401,
    "ูหนู": 9399,
    "หนูญ": 8733,
    "นูญี": 7907,
    "ูญี่": 9372,
    "ญี่ป": 7538,
    "ี่ปุ": 9314,
    "่ปุ่": 9814,
    "ปุ่น": 8029,
    "ุ่น ": 9341,
    " el": 198,
    "ela": 2438,
    "lap": 3845,
    "aph": 1365,
    "he ": 3106,
    " ela": 199,
    "elap": 2441,
    "laph": 3846,
    "aphe": 1366,
    "phe ": 5268,
    "cl": 1925,
    " cl": 124,
    "cli": 1934,
    "lim": 3985,
    "ima": 3481,
    "mac": 4165,
    "aco": 1085,
    "cop": 1972,
    "pho": 5279,
    "hor": 3214,
    "ora": 5017,
    "ra ": 5462,
    " cli": 126,
    "clim": 1935,
    "lima": 3986,
    "imac": 3482,
    "maco": 4167,
    "acop": 1088,
    "coph": 1973,
    "opho": 4993,
    "phor": 5282,
    "hora": 3215,
    "ora ": 5018,
    " ro": 574,
    "ros": 5807,
    "osy": 5095,
    " ros": 580,
    "rosy": 5812,
    "osy ": 5096,
    "โร": 9722,
    "รซ": 8303,
    "ซี": 7513,
    "่โ": 9847,
    "ูโร": 9427,
    "โรซ": 9723,
    "รซี": 8304,
    "ซี่": 7521,
    "ี่โ": 9317,
    "่โบ": 9848,
    "งูโร": 7413,
    "ูโรซ": 9428,
    "โรซี": 9724,
    "รซี่": 8305,
    "ซี่โ": 7522,
    "ี่โบ": 9318,
    "่โบอ": 9849,
    " li": 375,
    "lic": 3968,
    "ich": 3339,
    "cha": 1840,
    "han": 3092,
    "anu": 1351,
    "nur": 4709,
    "ura": 6701,
    " lic": 376,
    "lich": 3970,
    "icha": 3340,
    "chan": 1842,
    "hanu": 3095,
    "anur": 1353,
    "nura": 4710,
    "ura ": 6702,
    "rg": 5631,
    "ga": 2899,
    "riv": 5715,
    "irg": 3617,
    "rga": 5632,
    "gat": 2919,
    "ata": 1484,
    "triv": 6470,
    "rivi": 5716,
    "ivir": 3701,
    "virg": 6825,
    "irga": 3618,
    "rgat": 5633,
    "gata": 2920,
    "ata ": 1485,
    "n'": 4385,
    "'s": 948,
    " ch": 112,
    "chi": 1851,
    "hil": 3159,
    "ldr": 3898,
    "dre": 2231,
    "ren": 5604,
    "en'": 2511,
    "n's": 4386,
    "'s ": 949,
    " chi": 115,
    "chil": 1853,
    "hild": 3160,
    "ildr": 3448,
    "ldre": 3899,
    "dren": 2232,
    "ren'": 5605,
    "en's": 2512,
    "n's ": 4387,
    "ูไ": 9430,
    "นเ": 7912,
    "เด": 9475,
    "ด็": 7609,
    "็ก": 9767,
    "งูไ": 7414,
    "ูไพ": 9431,
    "อนเ": 8803,
    "นเด": 7915,
    "เด็": 9482,
    "ด็ก": 7610,
    "็ก ": 9768,
    " งูไ": 772,
    "งูไพ": 7415,
    "ูไพธ": 9432,
    "ธอนเ": 7789,
    "อนเด": 8804,
    "นเด็": 7917,
    "เด็ก": 9483,
    "ด็ก ": 7611,
    " an": 26,
    "nta": 4676,
    "are": 1408,
    "esi": 2694,
    "sia": 6046,
    " ant": 31,
    "anta": 1345,
    "ntar": 4678,
    "tare": 6253,
    "ares": 1412,
    "resi": 5612,
    "esia": 2695,
    "sia ": 6047,
    "ni ": 4563,
    "reni": 5606,
    "eni ": 2533,
    "su": 6182,
    "un": 6665,
    "be": 1616,
    " su": 644,
    "sun": 6197,
    "unb": 6669,
    "nbe": 4428,
    "bea": 1617,
    "eam": 2299,
    "am ": 1262,
    " sun": 648,
    "sunb": 6199,
    "unbe": 6670,
    "nbea": 4429,
    "beam": 1618,
    "eam ": 2300,
    "ูแ": 9412,
    "แส": 9656,
    "สง": 8663,
    "าท": 9047,
    "ทิ": 7760,
    "ิต": 9201,
    "ตย": 7639,
    "ย์": 8292,
    "งูแ": 7408,
    "ูแส": 9417,
    "แสง": 9657,
    "สงอ": 8664,
    "งอา": 7385,
    "อาท": 8880,
    "าทิ": 9050,
    "ทิต": 7761,
    "ิตย": 9202,
    "ตย์": 7640,
    "ย์ ": 8293,
    " งูแ": 770,
    "งูแส": 7409,
    "ูแสง": 9418,
    "แสงอ": 9658,
    "สงอา": 8665,
    "งอาท": 7386,
    "อาทิ": 8881,
    "าทิต": 9051,
    "ทิตย": 7762,
    "ิตย์": 9203,
    "ตย์ ": 7641,
    " x": 728,
    "xe": 6906,
    " xe": 729,
    "xen": 6907,
    "eno": 2540,
    "nop": 4638,
    " xen": 730,
    "xeno": 6909,
    "enop": 2542,
    "nope": 4639,
    " u": 689,
    " un": 692,
    "uni": 6679,
    "nic": 4568,
    "ico": 3349,
    "olo": 4870,
    "lor": 4073,
    " uni": 695,
    "unic": 6680,
    "nico": 4569,
    "icol": 3350,
    "colo": 1960,
    "olor": 4873,
    "lor ": 4074,
    "ec": 2325,
    "sec": 5993,
    "ecr": 2343,
    "cre": 1992,
    " sec": 601,
    "secr": 5994,
    "ecre": 2344,
    "cret": 1994,
    "etiv": 2719,
    "eo": 2560,
    " le": 367,
    "leo": 3923,
    "eop": 2572,
    "opa": 4983,
    "par": 5217,
    " leo": 370,
    "leop": 3926,
    "eopa": 2573,
    "opar": 4985,
    "pard": 5219,
    "ck": 1909,
    "ko": 3793,
    " ge": 258,
    "gec": 2931,
    "eck": 2333,
    "cko": 1921,
    "ko ": 3794,
    " gec": 259,
    "geck": 2932,
    "ecko": 2335,
    "cko ": 1922,
    "ลพ": 8480,
    "พเ": 8084,
    "ิร": 9228,
    "์ด": 9919,
    "เก": 9436,
    "ก็": 7208,
    "โค": 9676,
    "ค ": 7229,
    " เล": 895,
    "เลพ": 9561,
    "ลพเ": 8483,
    "พเพ": 8085,
    "พิร": 8080,
    "ิร์": 9229,
    "ร์ด": 8424,
    "์ดเ": 9923,
    "ดเก": 7598,
    "เก็": 9443,
    "ก็ก": 7209,
    "็กโ": 9769,
    "กโค": 7199,
    "โค ": 9677,
    " เลพ": 896,
    "เลพเ": 9562,
    "ลพเพ": 8484,
    "พเพิ": 8086,
    "เพิร": 9526,
    "พิร์": 8081,
    "ิร์ด": 9230,
    "ร์ดเ": 8427,
    "์ดเก": 9924,
    "ดเก็": 7599,
    "เก็ก": 9444,
    "ก็กโ": 7210,
    "็กโค": 9770,
    "กโค ": 7200,
    "eu": 2737,
    " eu": 213,
    "eub": 2738,
    "ubl": 6546,
    "ble": 1661,
    "lep": 3928,
    "eph": 2582,
    "pha": 5261,
    "ari": 1419,
    "ris": 5702,
    " eub": 214,
    "eubl": 2739,
    "uble": 6547,
    "blep": 1664,
    "leph": 3929,
    "epha": 2583,
    "phar": 5265,
    "hari": 3098,
    "aris": 1425,
    "ris ": 5703,
    "acu": 1097,
    "lar": 3848,
    "riu": 5712,
    " mac": 396,
    "macu": 4169,
    "acul": 1098,
    "ular": 6631,
    "lari": 3851,
    "ariu": 1426,
    "rius": 5714,
    "iz": 3710,
    "za": 7088,
    "liz": 4005,
    "iza": 3711,
    "zar": 7089,
    " liz": 380,
    "liza": 4006,
    "izar": 3712,
    "zard": 7090,
    " in": 331,
    "ins": 3553,
    "nse": 4664,
    "ect": 2345,
    " ins": 333,
    "inse": 3556,
    "nsec": 4666,
    "sect": 5995,
    "ecti": 2347,
    "tivo": 6383,
    " cr": 137,
    " cre": 139,
    "cres": 1993,
    "sted": 6155,
    "รส": 8341,
    "ต็": 7691,
    "็ด": 9778,
    " เค": 874,
    "เคร": 9453,
    "ครส": 7269,
    "รสเ": 8342,
    "สเต": 8706,
    "เต็": 9491,
    "ต็ด": 7692,
    "็ดเ": 9783,
    " เคร": 875,
    "เครส": 9455,
    "ครสเ": 7270,
    "รสเต": 8343,
    "สเต็": 8708,
    "เต็ด": 9492,
    "ต็ดเ": 7694,
    "็ดเก": 9784,
    "hu": 3250,
    "orr": 5048,
    "elo": 2472,
    "lop": 4069,
    "phu": 5291,
    "hus": 3257,
    "corr": 1979,
    "orre": 5049,
    "rrel": 5836,
    "relo": 5601,
    "elop": 2476,
    "loph": 4070,
    "ophu": 4996,
    "phus": 5293,
    "hus ": 3258,
    " ci": 118,
    "ili": 3455,
    "iat": 3313,
    " cil": 120,
    "cili": 1892,
    "ilia": 3456,
    "liat": 3967,
    "iatu": 3315,
    " o": 463,
    "om": 4885,
    "mn": 4298,
    " om": 472,
    "omn": 4902,
    "mni": 4299,
    " omn": 473,
    "omni": 4903,
    "mniv": 4300,
    "oy": 5191,
    "yl": 7002,
    " ga": 254,
    "gar": 2914,
    "arg": 1416,
    "rgo": 5636,
    "goy": 3025,
    "oyl": 5192,
    "yle": 7006,
    " gar": 257,
    "garg": 2916,
    "argo": 1418,
    "rgoy": 5637,
    "goyl": 3026,
    "oyle": 5193,
    "yle ": 7007,
    " ก": 739,
    "กา": 7167,
    "กอ": 7147,
    "อย": 8822,
    "ยล": 8271,
    "ล์": 8580,
    " กา": 743,
    "การ": 7168,
    "์กอ": 9905,
    "กอย": 7148,
    "อยล": 8827,
    "ยล์": 8272,
    "ล์เ": 8581,
    "์เก": 9971,
    " การ": 744,
    "การ์": 7169,
    "าร์ก": 9115,
    "ร์กอ": 8416,
    "์กอย": 9906,
    "กอยล": 7149,
    "อยล์": 8828,
    "ยล์เ": 8273,
    "ล์เก": 8582,
    "์เก็": 9972,
    "rh": 5638,
    "da": 2077,
    "ty": 6513,
    " rh": 567,
    "rha": 5639,
    "hac": 3075,
    "cod": 1951,
    "oda": 4782,
    "dac": 2081,
    "cty": 2026,
    "tyl": 6517,
    "ylu": 7014,
    "lus": 4139,
    " rha": 568,
    "rhac": 5640,
    "haco": 3076,
    "acod": 1087,
    "coda": 1952,
    "odac": 4783,
    "dact": 2082,
    "acty": 1096,
    "ctyl": 2027,
    "tylu": 6520,
    "ylus": 7015,
    "lus ": 4140,
    "au": 1530,
    " au": 52,
    "aur": 1540,
    " aur": 53,
    "auri": 1543,
    "uric": 6713,
    "ricu": 5667,
    "ok": 4844,
    "ka": 3743,
    " to": 673,
    "tok": 6416,
    "oka": 4846,
    "kay": 3751,
    "ay ": 1572,
    " tok": 676,
    "toka": 6417,
    "okay": 4847,
    "kay ": 3752,
    "ตุ": 7679,
    "ุ๊": 9347,
    "๊ก": 9900,
    "แก": 9595,
    "โท": 9693,
    "ทเ": 7767,
    "คย": 7259,
    " ตุ": 802,
    "ตุ๊": 7680,
    "ุ๊ก": 9348,
    "๊กแ": 9901,
    "กแก": 7194,
    "แกโ": 9596,
    "กโท": 7204,
    "โทเ": 9698,
    "ทเค": 7770,
    "เคย": 9451,
    "คย์": 7262,
    " ตุ๊": 803,
    "ตุ๊ก": 7681,
    "ุ๊กแ": 9349,
    "๊กแก": 9902,
    "กแกโ": 7195,
    "แกโท": 9597,
    "กโทเ": 7205,
    "โทเค": 9699,
    "ทเคย": 7771,
    "เคย์": 9452,
    "คย์ ": 7263,
    "ek": 2432,
    "kk": 3785,
    "gek": 2937,
    "ekk": 2434,
    "kko": 3786,
    " gek": 260,
    "gekk": 2938,
    "ekko": 2435,
    "kko ": 3787,
    " da": 155,
    "day": 2093,
    " day": 159,
    "day ": 2094,
    "ดย": 7570,
    "ยั": 8277,
    "ัก": 8944,
    "กษ": 7141,
    "ษ์": 8648,
    " เด": 879,
    "เดย": 9478,
    "ดย์": 7571,
    "ย์เ": 8298,
    "โคย": 9680,
    "คยั": 7260,
    "ยัก": 8278,
    "ักษ": 8945,
    "กษ์": 7142,
    "ษ์ ": 8649,
    " เดย": 881,
    "เดย์": 9479,
    "ดย์เ": 7572,
    "ย์เก": 8299,
    "กโคย": 7201,
    "โคยั": 9681,
    "คยัก": 7261,
    "ยักษ": 8279,
    "ักษ์": 8946,
    "กษ์ ": 7143,
    "ls": 4103,
    " ph": 502,
    "hel": 3118,
    "els": 2479,
    "lsu": 4108,
    "sum": 6194,
    "uma": 6656,
    "ma ": 4164,
    " phe": 503,
    "phel": 5269,
    "hels": 3122,
    "elsu": 2480,
    "lsum": 4109,
    "suma": 6196,
    "uma ": 6657,
    "gra": 3028,
    "ran": 5495,
    "ndi": 4469,
    " gra": 283,
    "gran": 3032,
    "rand": 5497,
    "andi": 1311,
    "ndis": 4474,
    "af": 1141,
    "fr": 2866,
    " af": 10,
    "afr": 1142,
    "fri": 2869,
    "ica": 3328,
    "can": 1767,
    " afr": 11,
    "afri": 1143,
    "fric": 2870,
    "rica": 5664,
    "ican": 3331,
    "can ": 1768,
    " f": 222,
    "fa": 2793,
    "t-": 6217,
    " fa": 223,
    "fat": 2806,
    "at-": 1482,
    "t-t": 6222,
    "-ta": 1006,
    "tai": 6235,
    "ail": 1172,
    "led": 3912,
    " fat": 228,
    "fat-": 2807,
    "at-t": 1483,
    "t-ta": 6223,
    "-tai": 1007,
    "tail": 6236,
    "aile": 1174,
    "iled": 3452,
    "led ": 3913,
    "แอ": 9659,
    "อฟ": 8814,
    "ฟร": 8101,
    "กั": 7154,
    "นแ": 7922,
    "แฟ": 9634,
    "ฟต": 8090,
    "ตเ": 7682,
    "เท": 9495,
    "ทล": 7743,
    "ลเ": 8554,
    " แอ": 920,
    "แอฟ": 9666,
    "อฟร": 8815,
    "ฟริ": 8104,
    "ิกั": 9178,
    "กัน": 7157,
    "ันแ": 8982,
    "นแฟ": 7925,
    "แฟต": 9635,
    "ฟตเ": 8091,
    "ตเท": 7683,
    "เทล": 9496,
    "ทลเ": 7745,
    "ลเก": 8555,
    " แอฟ": 923,
    "แอฟร": 9667,
    "อฟริ": 8816,
    "ฟริก": 8105,
    "ริกั": 8374,
    "ิกัน": 9179,
    "กันแ": 7161,
    "ันแฟ": 8983,
    "นแฟต": 7926,
    "แฟตเ": 9636,
    "ฟตเท": 8092,
    "ตเทล": 7684,
    "เทลเ": 9498,
    "ทลเก": 7746,
    "ลเก็": 8556,
    "hem": 3125,
    "mit": 4285,
    "ith": 3663,
    "hec": 3109,
    "eco": 2338,
    "ony": 4966,
    "nyx": 4726,
    " hem": 301,
    "hemi": 3127,
    "emit": 2498,
    "mith": 4288,
    "ithe": 3665,
    "thec": 6321,
    "heco": 3110,
    "econ": 2341,
    "cony": 1969,
    "onyx": 4968,
    "nyx ": 4727,
    "ud": 6568,
    "cau": 1797,
    "aud": 1533,
    "udi": 6575,
    "dic": 2153,
    "ici": 3345,
    "cin": 1893,
    "inc": 3510,
    "nct": 4449,
    "ctu": 2024,
    " cau": 106,
    "caud": 1798,
    "audi": 1535,
    "udic": 6576,
    "dici": 2155,
    "icin": 3347,
    "cinc": 1894,
    "inct": 3515,
    "nctu": 4451,
    "ctus": 2025,
    " be": 63,
    "ear": 2303,
    "rde": 5561,
    "ded": 2111,
    " bea": 64,
    "bear": 1619,
    "eard": 2304,
    "arde": 1405,
    "rded": 5562,
    "ded ": 2112,
    "ag": 1144,
    "rag": 5478,
    "ago": 1155,
    "gon": 3013,
    "drag": 2229,
    "rago": 5480,
    "agon": 1157,
    "gon ": 3014,
    "เบ": 9513,
    "บี": 8000,
    "ยร": 8267,
    "ดด": 7558,
    "ดร": 7573,
    "ก้": 7214,
    " เบ": 884,
    "เบี": 9520,
    "บีย": 8002,
    "ียร": 9295,
    "ยร์": 8268,
    "์เด": 9979,
    "ด็ด": 7612,
    "็ดด": 9781,
    "ดดร": 7559,
    "ดรา": 7574,
    "ราก": 8364,
    "าก้": 9022,
    "ก้อ": 7217,
    "้อน": 9878,
    " เบี": 885,
    "เบีย": 9521,
    "บียร": 8003,
    "ียร์": 9296,
    "ยร์เ": 8269,
    "ร์เด": 8448,
    "์เด็": 9980,
    "เด็ด": 9484,
    "ด็ดด": 7613,
    "็ดดร": 9782,
    "ดดรา": 7560,
    "ดราก": 7575,
    "ราก้": 8365,
    "าก้อ": 9023,
    "ก้อน": 7218,
    "้อน ": 9879,
    "pog": 5342,
    "ogo": 4826,
    "ona": 4919,
    "na ": 4396,
    " pog": 519,
    "pogo": 5343,
    "ogon": 4827,
    "gona": 3015,
    "ona ": 4920,
    "ps": 5389,
    "tti": 6490,
    "ice": 3336,
    "cep": 1826,
    "eps": 2592,
    "ps ": 5390,
    " vit": 709,
    "itti": 3679,
    "ttic": 6491,
    "tice": 6349,
    "icep": 3337,
    "ceps": 1828,
    "eps ": 2593,
    "ie": 3376,
    "dl": 2181,
    "ly": 4147,
    " fr": 247,
    "rie": 5672,
    "ien": 3386,
    "end": 2520,
    "ndl": 4475,
    "dly": 2189,
    "ly ": 4148,
    " fri": 249,
    "frie": 2871,
    "rien": 5675,
    "iend": 3387,
    "endl": 2523,
    "ndly": 4476,
    "dly ": 2190,
    " ur": 696,
    "uro": 6723,
    "rom": 5788,
    "oma": 4886,
    "mas": 4200,
    "ast": 1469,
    "sty": 6180,
    "tyx": 6525,
    " uro": 697,
    "urom": 6727,
    "roma": 5789,
    "omas": 4888,
    "mast": 4201,
    "asty": 1475,
    "styx": 6181,
    "tyx ": 6526,
    " ย": 841,
    "ยู": 8286,
    "รม": 8323,
    "กซ": 7116,
    "ซ์": 7532,
    " ยู": 842,
    "ยูโ": 8287,
    "โรม": 9725,
    "รมา": 8324,
    "มาส": 8202,
    "สติ": 8675,
    "ติก": 7671,
    "ิกซ": 9176,
    "กซ์": 7117,
    "ซ์ ": 7533,
    " ยูโ": 843,
    "ยูโร": 8288,
    "ูโรม": 9429,
    "โรมา": 9726,
    "รมาส": 8325,
    "มาสต": 8203,
    "าสติ": 9134,
    "สติก": 8676,
    "ติกซ": 7672,
    "ิกซ์": 9177,
    "กซ์ ": 7118,
    "ey": 2776,
    "yr": 7053,
    "gey": 2961,
    "eyr": 2785,
    "yri": 7054,
    "ri ": 5652,
    " gey": 264,
    "geyr": 2962,
    "eyri": 2786,
    "yri ": 7055,
    "erb": 2612,
    "rbi": 5535,
    " her": 303,
    "herb": 3138,
    "erbi": 2613,
    "rbiv": 5538,
    "bivo": 1657,
    "ue": 6581,
    "e-": 2268,
    "blu": 1667,
    "lue": 4126,
    "ue-": 6583,
    "e-t": 2283,
    "ton": 6423,
    "gue": 3055,
    "ued": 6588,
    " blu": 75,
    "blue": 1668,
    "lue-": 4128,
    "ue-t": 6587,
    "e-to": 2285,
    "-ton": 1011,
    "tong": 6427,
    "ongu": 4940,
    "ngue": 4559,
    "gued": 3056,
    "ued ": 6589,
    "sk": 6076,
    "nk": 4600,
    " sk": 616,
    "ski": 6078,
    "ink": 3543,
    "nk ": 4601,
    " ski": 617,
    "skin": 6081,
    "kink": 3780,
    "ink ": 3544,
    "ลู": 8545,
    "ทั": 7754,
    "ัง": 8947,
    "สก": 8651,
    "กิ": 7170,
    "ิ้": 9260,
    "้ง": 9850,
    " บล": 812,
    "บลู": 7966,
    "ลูท": 8546,
    "ูทั": 9376,
    "ทัง": 7755,
    "ังส": 8950,
    "งสก": 7374,
    "สกิ": 8656,
    "กิ้": 7173,
    "ิ้ง": 9261,
    "้ง ": 9851,
    " บลู": 813,
    "บลูท": 7967,
    "ลูทั": 8547,
    "ูทัง": 9377,
    "ทังส": 7756,
    "ังสก": 8951,
    "งสกิ": 7375,
    "สกิ้": 8657,
    "กิ้ง": 7174,
    "ิ้ง ": 9262,
    "iq": 3603,
    "qu": 5436,
    "ua": 6528,
    " ti": 668,
    "liq": 3997,
    "iqu": 3604,
    "qua": 5437,
    "ua ": 6529,
    " til": 670,
    "tili": 6360,
    "iliq": 3459,
    "liqu": 3998,
    "iqua": 3605,
    "qua ": 5438,
    "sc": 5967,
    "oi": 4831,
    " sc": 593,
    "sci": 5976,
    "nco": 4445,
    "coi": 1956,
    "oid": 4836,
    "ide": 3363,
    "des": 2139,
    " sci": 596,
    "scin": 5978,
    "inco": 3514,
    "ncoi": 4446,
    "coid": 1957,
    "oide": 4838,
    "ides": 3366,
    "des ": 2140,
    "ack": 1075,
    "cki": 1917,
    "kie": 3770,
    "ie ": 3377,
    " ack": 3,
    "acki": 1079,
    "ckie": 1918,
    "kie ": 3771,
    "mon": 4311,
    "oni": 4941,
    "nit": 4590,
    "ito": 3673,
    " mon": 428,
    "moni": 4316,
    "onit": 4946,
    "nito": 4592,
    "itor": 3676,
    "อค": 8769,
    "คก": 7230,
    "กี": 7175,
    "้ม": 9863,
    "มอ": 8185,
    "ิเ": 9249,
    "แอค": 9662,
    "อคก": 8770,
    "คกี": 7231,
    "กี้": 7176,
    "ี้ม": 9320,
    "้มอ": 9865,
    "มอน": 8186,
    "อนิ": 8801,
    "นิเ": 7896,
    "ิเต": 9254,
    " แอค": 922,
    "แอคก": 9663,
    "อคกี": 8771,
    "คกี้": 7232,
    "กี้ม": 7177,
    "ี้มอ": 9321,
    "้มอน": 9866,
    "มอนิ": 8187,
    "อนิเ": 8802,
    "นิเต": 7897,
    "ิเตอ": 9255,
    "va": 6777,
    " va": 699,
    "var": 6788,
    "ara": 1387,
    " var": 701,
    "vara": 6789,
    "aran": 1393,
    "ranu": 5501,
    "anus": 1354,
    "ru": 5883,
    "aca": 1051,
    "thu": 6335,
    "hur": 3253,
    "uru": 6734,
    "rus": 5900,
    " aca": 2,
    "acan": 1053,
    "cant": 1771,
    "nthu": 4689,
    "thur": 6336,
    "huru": 3256,
    "urus": 6735,
    "rus ": 5901,
    "int": 3557,
    "nte": 4679,
    "tel": 6279,
    "ell": 2461,
    "lli": 4025,
    "lig": 3981,
    "ige": 3420,
    "gen": 2943,
    "ent": 2552,
    " int": 334,
    "inte": 3558,
    "ntel": 4682,
    "tell": 6283,
    "elli": 2465,
    "llig": 4029,
    "lige": 3983,
    "igen": 3421,
    "gent": 2945,
    "ent ": 2553,
    "av": 1549,
    "nn": 4608,
    "ah": 1162,
    "sav": 5963,
    "ava": 1550,
    "van": 6785,
    "ann": 1331,
    "nna": 4611,
    "nah": 4403,
    "ah ": 1163,
    " sav": 592,
    "sava": 5964,
    "avan": 1552,
    "vann": 6787,
    "anna": 1333,
    "nnah": 4612,
    "nah ": 4404,
    " ซ": 782,
    "ซา": 7503,
    "าว": 9123,
    "นน": 7845,
    "น่": 7937,
    " ซา": 786,
    "ซาว": 7506,
    "าวั": 9124,
    "วัน": 8616,
    "ันน": 8974,
    "นน่": 7848,
    "น่า": 7938,
    "่าม": 9839,
    "ามอ": 9088,
    " ซาว": 787,
    "ซาวั": 7507,
    "าวัน": 9125,
    "วันน": 8617,
    "ันน่": 8975,
    "นน่า": 7849,
    "น่าม": 7940,
    "่ามอ": 9840,
    "ามอน": 9089,
    "ex": 2766,
    "xa": 6902,
    " ex": 217,
    "exa": 2767,
    "xan": 6903,
    "ema": 2488,
    " exa": 218,
    "exan": 2768,
    "xant": 6905,
    "them": 6323,
    "hema": 3126,
    "emat": 2490,
    " st": 639,
    "tro": 6472,
    " str": 643,
    "stro": 6175,
    "tron": 6474,
    "ong ": 4935,
    " ig": 326,
    "igu": 3435,
    "gua": 3050,
    "uan": 6534,
    "ana": 1296,
    " igu": 327,
    "igua": 3436,
    "guan": 3051,
    "uana": 6535,
    "ana ": 1297,
    "นอ": 7871,
    "อิ": 8886,
    "ัว": 9001,
    "วน": 8598,
    " กร": 740,
    "ีนอ": 9279,
    "นอิ": 7874,
    "อิก": 8887,
    "กัว": 7165,
    "ัวน": 9004,
    "วน่": 8599,
    " กรี": 742,
    "รีนอ": 8384,
    "ีนอิ": 9280,
    "นอิก": 7875,
    "อิกั": 8888,
    "ิกัว": 9180,
    "กัวน": 7166,
    "ัวน่": 9005,
    "วน่า": 8600,
    "น่า ": 7939,
    " can": 101,
    "bec": 1622,
    "com": 1962,
    "ome": 4892,
    "me ": 4233,
    " bec": 65,
    "beco": 1623,
    "ecom": 2340,
    "come": 1963,
    "ome ": 4893,
    "cub": 2029,
    "uba": 6541,
    "ban": 1603,
    " cub": 145,
    "cuba": 2030,
    "uban": 6542,
    "ban ": 1604,
    "roc": 5768,
    "ock": 4768,
    "ck ": 1910,
    " roc": 576,
    "rock": 5772,
    "ock ": 4769,
    "ิว": 9239,
    "วบ": 8601,
    "บั": 7983,
    "นร": 7862,
    "ร็": 8403,
    "็อ": 9795,
    " คิ": 753,
    "คิว": 7327,
    "ิวบ": 9242,
    "วบั": 8602,
    "บัน": 7986,
    "ันร": 8978,
    "นร็": 7863,
    "ร็อ": 8404,
    "็อก": 9796,
    "อกอ": 8764,
    "กอิ": 7152,
    " คิว": 755,
    "คิวบ": 7328,
    "ิวบั": 9243,
    "วบัน": 8603,
    "บันร": 7987,
    "ันร็": 8979,
    "นร็อ": 7864,
    "ร็อก": 8405,
    "็อกอ": 9800,
    "อกอิ": 8765,
    "กอิก": 7153,
    "cy": 2046,
    "yc": 6958,
    " cy": 149,
    "cyc": 2050,
    "ycl": 6964,
    "clu": 1938,
    "lur": 4136,
    " cyc": 151,
    "cycl": 2051,
    "yclu": 6965,
    "clur": 1939,
    "lura": 4137,
    " nu": 459,
    "nub": 4705,
    "ubi": 6543,
    "bil": 1644,
    "ila": 3442,
    "la ": 3820,
    " nub": 460,
    "nubi": 4706,
    "ubil": 6545,
    "bila": 1646,
    "ila ": 3443,
    "ham": 3088,
    "ame": 1274,
    "mel": 4241,
    "ele": 2445,
    "eon": 2570,
    " cha": 113,
    "cham": 1841,
    "hame": 3090,
    "amel": 1275,
    "mele": 4243,
    "eleo": 2448,
    "leon": 3925,
    "eon ": 2571,
    "แพ": 9627,
    "พน": 8047,
    "เธ": 9500,
    "์ค": 9911,
    "าเ": 9151,
    "เม": 9536,
    "ยน": 8261,
    " แพ": 910,
    "แพน": 9630,
    "พนเ": 8048,
    "นเธ": 7918,
    "เธอ": 9501,
    "ธอร": 7790,
    "ร์ค": 8419,
    "์คา": 9912,
    "คาเ": 7317,
    "าเม": 9154,
    "เมเ": 9543,
    "มเล": 8224,
    "ลีย": 8536,
    "ียน": 9291,
    "ยน ": 8262,
    " แพน": 912,
    "แพนเ": 9631,
    "พนเธ": 8049,
    "นเธอ": 7919,
    "เธอร": 9502,
    "ธอร์": 7791,
    "อร์ค": 8835,
    "ร์คา": 8420,
    "์คาเ": 9913,
    "คาเม": 7319,
    "าเมเ": 9155,
    "เมเล": 9544,
    "มเลี": 8225,
    "เลีย": 9566,
    "ลียน": 8537,
    "ียน ": 9292,
    "rc": 5546,
    " fu": 251,
    "fur": 2884,
    "urc": 6705,
    "rci": 5551,
    "cif": 1888,
    " fur": 252,
    "furc": 2885,
    "urci": 6706,
    "rcif": 5552,
    "cife": 1889,
    "rda": 5558,
    "dal": 2083,
    "lis": 3999,
    " par": 496,
    "arda": 1404,
    "rdal": 5560,
    "dali": 2084,
    "alis": 1235,
    "lis ": 4000,
    "ei": 2423,
    " ve": 702,
    "vei": 6799,
    "eil": 2429,
    " vei": 703,
    "veil": 6800,
    "eile": 2430,
    " ว": 849,
    "วี": 8628,
    "ีล": 9297,
    "ลด": 8471,
    "ด์": 7616,
    " วี": 852,
    "วีล": 8629,
    "ีลด": 9298,
    "ลด์": 8474,
    "ด์ค": 7618,
    " วีล": 853,
    "วีลด": 8630,
    "ีลด์": 9299,
    "ลด์ค": 8475,
    "ด์คา": 7619,
    "mae": 4172,
    "ael": 1127,
    "eo ": 2561,
    "hama": 3089,
    "amae": 1264,
    "mael": 4173,
    "aele": 1128,
    "leo ": 3924,
    "yp": 7041,
    "aly": 1258,
    "lyp": 4153,
    "ypt": 7050,
    "ptr": 5409,
    "tra": 6452,
    "caly": 1763,
    "alyp": 1260,
    "lypt": 4154,
    "yptr": 7052,
    "ptra": 5410,
    "trat": 6457,
    "ratu": 5519,
    "rri": 5842,
    "rit": 5707,
    "ori": 5033,
    "erri": 2661,
    "rrit": 5844,
    "rito": 5710,
    "tori": 6435,
    "oria": 5034,
    "ks": 3800,
    "jac": 3714,
    "cks": 1923,
    "kso": 3801,
    "son": 6110,
    "on'": 4915,
    " jac": 337,
    "jack": 3716,
    "acks": 1080,
    "ckso": 1924,
    "kson": 3802,
    "son'": 6112,
    "on's": 4916,
    "แจ": 9615,
    "จ็": 7450,
    "็ค": 9771,
    "คส": 7288,
    " แจ": 908,
    "แจ็": 9616,
    "จ็ค": 7451,
    "็คส": 9776,
    "คสั": 7289,
    "สัน": 8693,
    "ันค": 8967,
    "นคา": 7814,
    " แจ็": 909,
    "แจ็ค": 9617,
    "จ็คส": 7452,
    "็คสั": 9777,
    "คสัน": 7290,
    "สันค": 8694,
    "ันคา": 8969,
    "นคาเ": 7816,
    "ioc": 3566,
    "oce": 4754,
    "cer": 1829,
    "os ": 5068,
    "trio": 6466,
    "rioc": 5694,
    "ioce": 3567,
    "ocer": 4757,
    "cero": 1832,
    "eros": 2654,
    "ros ": 5808,
    "ii": 3438,
    "nii": 4579,
    "ii ": 3439,
    "soni": 6114,
    "onii": 4945,
    "nii ": 4580,
    "lc": 3881,
    "sul": 6191,
    "ulc": 6633,
    "lca": 3882,
    " sul": 647,
    "sulc": 6192,
    "ulca": 6634,
    "lcat": 3883,
    "cata": 1792,
    "ort": 5053,
    "rto": 5879,
    "toi": 6412,
    "ois": 4840,
    "ise": 3634,
    " tor": 678,
    "tort": 6438,
    "orto": 5057,
    "rtoi": 5880,
    "tois": 6415,
    "oise": 4842,
    "ise ": 3635,
    "ซู": 7523,
    "ูล": 9392,
    "าต": 9044,
    " ซู": 792,
    "ซูล": 7524,
    "ูลค": 9393,
    "ลคา": 8467,
    "คาต": 7307,
    "าต้": 9045,
    "ต้า": 7706,
    " ซูล": 793,
    "ซูลค": 7525,
    "ูลคา": 9394,
    "ลคาต": 8468,
    "คาต้": 7308,
    "าต้า": 9046,
    "ต้า ": 7707,
    "ys": 7059,
    "ntr": 4701,
    "och": 4758,
    "che": 1843,
    "ely": 2485,
    "lys": 4155,
    "ys ": 7060,
    "cent": 1825,
    "entr": 2557,
    "ntro": 4703,
    "troc": 6473,
    "roch": 5770,
    "oche": 4759,
    "chel": 1847,
    "hely": 3124,
    "elys": 2486,
    "lys ": 4156,
    "ดท": 7564,
    "ทอ": 7749,
    "์ท": 9928,
    "ยส": 8274,
    "ส์": 8722,
    "์ดท": 9921,
    "ดทอ": 7565,
    "ทอร": 7752,
    "ร์ท": 8428,
    "์ทอ": 9933,
    "ทอย": 7750,
    "อยส": 8829,
    "ยส์": 8275,
    "ส์ ": 8723,
    "ร์ดท": 8426,
    "์ดทอ": 9922,
    "ดทอร": 7566,
    "ทอร์": 7753,
    "อร์ท": 8837,
    "ร์ทอ": 8430,
    "์ทอย": 9934,
    "ทอยส": 7751,
    "อยส์": 8830,
    "ยส์ ": 8276,
    "gm": 2994,
    "sti": 6160,
    "tig": 6353,
    "igm": 3427,
    "gmo": 2995,
    "moc": 4306,
    " sti": 642,
    "stig": 6162,
    "tigm": 6355,
    "igmo": 3428,
    "gmoc": 2996,
    "moch": 4307,
    "ss": 6136,
    " ru": 582,
    "uss": 6752,
    "ssi": 6139,
    " rus": 585,
    "russ": 5902,
    "ussi": 6753,
    "ssia": 6140,
    "sian": 6048,
    "ian ": 3308,
    " ร": 844,
    "รั": 8360,
    "เซ": 9470,
    " รั": 845,
    "รัส": 8361,
    "ัสเ": 9012,
    "สเซ": 8704,
    "เซี": 9471,
    "ซีย": 7517,
    "ยนท": 8263,
    "นทอ": 7838,
    " รัส": 846,
    "รัสเ": 8362,
    "ัสเซ": 9014,
    "สเซี": 8705,
    "เซีย": 9472,
    "ซียน": 7518,
    "ียนท": 9293,
    "ยนทอ": 8264,
    "นทอร": 7839,
    "stu": 6177,
    "tud": 6501,
    "udo": 6577,
    "do ": 2192,
    " tes": 664,
    "test": 6307,
    "estu": 2707,
    "stud": 6178,
    "tudo": 6502,
    "udo ": 6578,
    "sf": 6025,
    "fi": 2827,
    "ors": 5050,
    "rsf": 5857,
    "sfi": 6026,
    "fie": 2830,
    "iel": 3382,
    "eld": 2443,
    "ldi": 3895,
    "dii": 2157,
    " hor": 313,
    "hors": 3217,
    "orsf": 5052,
    "rsfi": 5858,
    "sfie": 6027,
    "fiel": 2831,
    "ield": 3384,
    "eldi": 2444,
    "ldii": 3897,
    "dii ": 2158,
    "erm": 2641,
    "rma": 5736,
    "man": 4185,
    "nn'": 4609,
    "herm": 3140,
    "erma": 2642,
    "rman": 5739,
    "mann": 4189,
    "ann'": 1332,
    "nn's": 4610,
    "เฮ": 9590,
    "์แ": 9993,
    "แม": 9639,
    "มน": 8161,
    " เฮ": 902,
    "เฮอ": 9593,
    "ฮอร": 8921,
    "ร์แ": 8455,
    "์แม": 9997,
    "แมน": 9640,
    "มนท": 8162,
    " เฮอ": 904,
    "เฮอร": 9594,
    "ฮอร์": 8922,
    "อร์แ": 8845,
    "ร์แม": 8457,
    "์แมน": 9998,
    "แมนท": 9641,
    "มนทอ": 8163,
    "nni": 4616,
    "anni": 1334,
    "nni ": 4617,
    "-f": 979,
    "red": 5580,
    "ed-": 2352,
    "d-f": 2069,
    "-fo": 982,
    "foo": 2859,
    "oot": 4979,
    "ote": 5103,
    " red": 560,
    "red-": 5582,
    "ed-f": 2356,
    "d-fo": 2070,
    "-foo": 983,
    "foot": 2860,
    "oote": 4980,
    "oted": 5104,
    "รด": 8306,
    "ดฟ": 7567,
    "ฟุ": 8132,
    "ุต": 9336,
    "ตท": 7633,
    " เร": 893,
    "เรด": 9546,
    "รดฟ": 8310,
    "ดฟุ": 7568,
    "ฟุต": 8133,
    "ุตท": 9337,
    "ตทอ": 7634,
    " เรด": 894,
    "เรดฟ": 9549,
    "รดฟุ": 8311,
    "ดฟุต": 7569,
    "ฟุตท": 8134,
    "ุตทอ": 9338,
    "ตทอร": 7635,
    "lon": 4062,
    "ono": 4950,
    "noi": 4631,
    " che": 114,
    "helo": 3121,
    "elon": 2475,
    "lono": 4066,
    "onoi": 4952,
    "noid": 4632,
    "oidi": 4839,
    "bon": 1680,
    "nar": 4414,
    "carb": 1783,
    "rbon": 5542,
    "bona": 1681,
    "onar": 4922,
    "nari": 4415,
    "ab": 1040,
    "ald": 1221,
    "lda": 3891,
    "dab": 2079,
    "abr": 1046,
    "bra": 1699,
    " ald": 17,
    "alda": 1223,
    "ldab": 3892,
    "dabr": 2080,
    "abra": 1047,
    "bra ": 1700,
    " อ": 865,
    "อั": 8870,
    "ัล": 8990,
    "ดา": 7587,
    "าบ": 9067,
    " อั": 868,
    "อัล": 8873,
    "ัลด": 8992,
    "ลดา": 8472,
    "ดาบ": 7588,
    "าบร": 9068,
    "ายั": 9100,
    " อัล": 870,
    "อัลด": 8874,
    "ัลดา": 8993,
    "ลดาบ": 8473,
    "ดาบร": 7589,
    "าบรา": 9069,
    "รายั": 8370,
    "ายัก": 9101,
    "rac": 5465,
    "ach": 1065,
    "brac": 1701,
    "rach": 5468,
    "ache": 1067,
    "gig": 2977,
    "iga": 3416,
    "gan": 2909,
    "tea": 6272,
    "ea ": 2287,
    " gig": 269,
    "giga": 2978,
    "igan": 3417,
    "gant": 2911,
    "ante": 1346,
    "ntea": 4680,
    "tea ": 6273,
    "-e": 974,
    "d-e": 2066,
    "-ea": 975,
    "ed-e": 2355,
    "d-ea": 2067,
    "-ear": 976,
    "eare": 2305,
    "ared": 1411,
    "red ": 5581,
    "sl": 6085,
    " sl": 619,
    "sli": 6086,
    "lid": 3971,
    "der": 2133,
    " sli": 620,
    "slid": 6087,
    "lide": 3973,
    "ider": 3365,
    "der ": 2134,
    "ต่": 7695,
    "าแ": 9156,
    "มแ": 8228,
    "แด": 9618,
    "ดง": 7551,
    " เต": 882,
    "เต่": 9493,
    "ต่า": 7696,
    "่าแ": 9845,
    "าแก": 9157,
    "แก้": 9598,
    "ก้ม": 7215,
    "้มแ": 9867,
    "มแด": 8229,
    "แดง": 9619,
    "ดง ": 7552,
    " เต่": 883,
    "เต่า": 9494,
    "ต่าแ": 7700,
    "่าแก": 9846,
    "าแก้": 9158,
    "แก้ม": 9599,
    "ก้มแ": 7216,
    "้มแด": 9868,
    "มแดง": 8230,
    "แดง ": 9620,
    "my": 4369,
    "emy": 2507,
    "mys": 4382,
    " tra": 682,
    "trac": 6453,
    "chem": 1848,
    "hemy": 3128,
    "emys": 2508,
    "mys ": 4383,
    "ip": 3589,
    "scr": 5984,
    "cri": 1995,
    "rip": 5698,
    "ipt": 3599,
    "pta": 5401,
    " scr": 598,
    "scri": 5985,
    "crip": 1998,
    "ript": 5701,
    "ipta": 3600,
    "pta ": 5402,
    "leg": 3914,
    "ega": 2408,
    "ans": 1341,
    "ns ": 4661,
    " ele": 200,
    "eleg": 2447,
    "lega": 3915,
    "egan": 2410,
    "gans": 2910,
    "ans ": 1342,
    "tl": 6385,
    " tu": 685,
    "tur": 6508,
    "urt": 6732,
    "rtl": 5877,
    "tle": 6389,
    " tur": 686,
    "turt": 6509,
    "urtl": 6733,
    "rtle": 5878,
    "tle ": 6390,
    "sh": 6028,
    "hw": 3259,
    "wa": 6856,
    "fre": 2867,
    "esh": 2692,
    "shw": 6041,
    "hwa": 3260,
    "wat": 6867,
    " fre": 248,
    "fres": 2868,
    "resh": 5611,
    "eshw": 2693,
    "shwa": 6042,
    "hwat": 3261,
    "wate": 6868,
    "ater": 1494,
    "ter ": 6294,
    " mat": 404,
    "mata": 4203,
    " ม": 835,
    "ทา": 7757,
    "ท่": 7775,
    " มา": 836,
    "มาท": 8195,
    "าทา": 9048,
    "ทาม": 7758,
    "ามา": 9090,
    "าท่": 9054,
    "ท่า": 7776,
    " มาท": 837,
    "มาทา": 8196,
    "าทาม": 9049,
    "ทามา": 7759,
    "ามาท": 9091,
    "มาท่": 8197,
    "าท่า": 9055,
    "ท่า ": 7777,
    "elu": 2483,
    "helu": 3123,
    "elus": 2484,
    "mb": 4212,
    " fi": 233,
    "fim": 2836,
    "imb": 3485,
    "mbr": 4225,
    " fim": 236,
    "fimb": 2837,
    "imbr": 3487,
    "mbri": 4227,
    "bria": 1708,
    "riat": 5657,
    "iata": 3314,
    " all": 19,
    "alli": 1241,
    "liga": 3982,
    "igat": 3419,
    "gato": 2922,
    "pp": 5364,
    "nap": 4412,
    "app": 1375,
    "ppi": 5369,
    "pin": 5313,
    "snap": 6096,
    "napp": 4413,
    "appi": 1377,
    "ppin": 5370,
    "ping": 5316,
    "สแ": 8711,
    "แน": 9621,
    "นป": 7853,
    "ปป": 8012,
    "ปิ": 8024,
    "งย": 7370,
    "่าส": 9843,
    "าสแ": 9137,
    "สแน": 8712,
    "แนป": 9622,
    "นปป": 7854,
    "ปปิ": 8013,
    "ปิ้": 8025,
    "้งย": 9856,
    "งยั": 7371,
    "ต่าส": 7699,
    "่าสแ": 9844,
    "าสแน": 9138,
    "สแนป": 8713,
    "แนปป": 9623,
    "นปปิ": 7855,
    "ปปิ้": 8014,
    "ปิ้ง": 8026,
    "ิ้งย": 9263,
    "้งยั": 9857,
    "งยัก": 7372,
    "acr": 1089,
    "cro": 1999,
    "macr": 4168,
    "acro": 1091,
    "croc": 2000,
    "mm": 4291,
    "tem": 6284,
    "emm": 2499,
    "mmi": 4294,
    "min": 4275,
    "nck": 4443,
    "kii": 3772,
    " tem": 661,
    "temm": 6285,
    "emmi": 2500,
    "mmin": 4295,
    "minc": 4276,
    "inck": 3513,
    "ncki": 4444,
    "ckii": 1919,
    "kii ": 3773,
    "dan": 2085,
    "rou": 5816,
    " dan": 156,
    "dang": 2086,
    "ange": 1318,
    "gero": 2955,
    "erou": 2655,
    "rous": 5819,
    "bit": 1652,
    "ite": 3658,
    "te ": 6267,
    " bit": 70,
    "bite": 1653,
    "ite ": 3659,
    "hin": 3163,
    "ine": 3520,
    "chin": 1854,
    "hine": 3166,
    "ines": 3527,
    "of": 4805,
    "ft": 2876,
    "ts": 6480,
    "sof": 6103,
    "oft": 4810,
    "fts": 2879,
    "tsh": 6481,
    "she": 6035,
    " sof": 627,
    "soft": 6104,
    "ofts": 4812,
    "ftsh": 2880,
    "tshe": 6482,
    "shel": 6036,
    "hell": 3119,
    "ell ": 2462,
    "มจ": 8150,
    "จี": 7442,
    "่าน": 9837,
    "านิ": 9061,
    "นิ่": 7898,
    "่มจ": 9819,
    "มจี": 8151,
    "จีน": 7443,
    "ีน ": 9274,
    "ต่าน": 7698,
    "่านิ": 9838,
    "านิ่": 9062,
    "นิ่ม": 7899,
    "ิ่มจ": 9258,
    "่มจี": 9820,
    "มจีน": 8152,
    "จีน ": 7444,
    " pe": 498,
    "lod": 4055,
    "odi": 4790,
    "isc": 3631,
    "scu": 5986,
    " pel": 500,
    "pelo": 5241,
    "elod": 2473,
    "lodi": 4057,
    "odis": 4792,
    "disc": 2175,
    "iscu": 3633,
    "scus": 5988,
    " si": 611,
    "sin": 6062,
    "nen": 4505,
    "sis": 6068,
    " sin": 614,
    "sine": 6063,
    "inen": 3524,
    "nens": 4507,
    "nsis": 4669,
    "sis ": 6069,
    "g-": 2894,
    "-n": 994,
    "pig": 5307,
    "ig-": 3414,
    "g-n": 2895,
    "-no": 995,
    "sed": 5996,
    " pig": 509,
    "pig-": 5309,
    "ig-n": 3415,
    "g-no": 2896,
    "-nos": 996,
    "osed": 5076,
    "sed ": 5997,
    "าจ": 9036,
    "จม": 7427,
    "มู": 8215,
    "กห": 7144,
    "ู ": 9352,
    "่าจ": 9835,
    "าจม": 9037,
    "จมู": 7428,
    "มูก": 8217,
    "ูกห": 9356,
    "กหม": 7145,
    "หมู": 8741,
    "มู ": 8216,
    "ต่าจ": 7697,
    "่าจม": 9836,
    "าจมู": 9038,
    "จมูก": 7429,
    "มูกห": 8218,
    "ูกหม": 9357,
    "กหมู": 7146,
    "หมู ": 8742,
    "ett": 2727,
    "tto": 6493,
    "toc": 6404,
    "care": 1784,
    "aret": 1413,
    "rett": 5618,
    "etto": 2730,
    "ttoc": 6494,
    "toch": 6406,
    "lp": 4092,
    "nsc": 4662,
    "ulp": 6645,
    "lpt": 4101,
    "insc": 3555,
    "nscu": 4663,
    "scul": 5987,
    "culp": 2034,
    "ulpt": 6648,
    "lpta": 4102,
    "spe": 6122,
    "pec": 5235,
    "cta": 2010,
    "tac": 6226,
    "acl": 1081,
    "cle": 1929,
    " spe": 633,
    "spec": 6123,
    "pect": 5236,
    "ecta": 2346,
    "ctac": 2011,
    "tacl": 6229,
    "acle": 1082,
    "cled": 1931,
    "cai": 1751,
    "aim": 1177,
    " cai": 98,
    "caim": 1752,
    "aima": 1178,
    "iman": 3483,
    "man ": 4186,
    " ไ": 936,
    "ไค": 9737,
    "คแ": 7338,
    "แว": 9651,
    "ว่": 8634,
    " ไค": 937,
    "ไคแ": 9740,
    "คแม": 7339,
    "มนแ": 8168,
    "นแว": 7927,
    "แว่": 9654,
    "ว่น": 8635,
    " ไคแ": 939,
    "ไคแม": 9741,
    "คแมน": 7340,
    "แมนแ": 9644,
    "มนแว": 8170,
    "นแว่": 7928,
    "แว่น": 9655,
    "ว่น ": 8636,
    "oco": 4771,
    "dil": 2159,
    "ilu": 3475,
    " cro": 141,
    "roco": 5773,
    "ocod": 4773,
    "codi": 1953,
    "odil": 4791,
    "dilu": 2163,
    "ilus": 3477,
    "dili": 2161,
    "lian": 3966,
    "aq": 1382,
    "-aq": 957,
    "aqu": 1383,
    "uat": 6538,
    "i-aq": 3293,
    "-aqu": 958,
    "aqua": 1384,
    "quat": 5441,
    "uati": 6539,
    "uv": 6774,
    "r'": 5448,
    "cuv": 2044,
    "uvi": 6775,
    "vie": 6821,
    "ier": 3390,
    "er'": 2602,
    "r's": 5449,
    " cuv": 148,
    "cuvi": 2045,
    "uvie": 6776,
    "vier": 6822,
    "ier'": 3391,
    "er's": 2603,
    "r's ": 5450,
    "dw": 2257,
    "f ": 2792,
    " dw": 184,
    "dwa": 2258,
    "war": 6864,
    "arf": 1414,
    "rf ": 5626,
    " dwa": 185,
    "dwar": 2259,
    "warf": 6865,
    "arf ": 1415,
    "ระ": 8356,
    "ะ ": 8926,
    "นแค": 7923,
    "แคร": 9610,
    "คระ": 7274,
    "ระ ": 8357,
    "มนแค": 8169,
    "นแคร": 7924,
    "แคระ": 9612,
    "คระ ": 7275,
    "uc": 6552,
    "pal": 5208,
    "eos": 2576,
    "osu": 5091,
    "suc": 6187,
    "uch": 6557,
    "chu": 1872,
    " pal": 494,
    "pale": 5209,
    "aleo": 1227,
    "leos": 3927,
    "eosu": 2578,
    "osuc": 5092,
    "such": 6188,
    "uchu": 6560,
    "chus": 1874,
    "eb": 2315,
    "alp": 1246,
    "lpe": 4093,
    "peb": 5233,
    "ebr": 2320,
    "sus": 6205,
    "palp": 5210,
    "alpe": 1247,
    "lpeb": 4094,
    "pebr": 5234,
    "ebro": 2322,
    "bros": 1716,
    "rosu": 5811,
    "osus": 5094,
    "sus ": 6206,
    "ax": 1567,
    "xo": 6923,
    " ax": 55,
    "axo": 1569,
    "xol": 6924,
    "otl": 5115,
    "tl ": 6386,
    " axo": 56,
    "axol": 1570,
    "xolo": 6925,
    "olot": 4874,
    "lotl": 4081,
    "otl ": 5116,
    "โซ": 9682,
    "ซล": 7491,
    "ลอ": 8502,
    "อเ": 8894,
    "ล ": 8463,
    "แอก": 9660,
    "กโซ": 7202,
    "โซล": 9683,
    "ซลอ": 7492,
    "ลอเ": 8505,
    "อเต": 8897,
    "ติล": 7677,
    "ิล ": 9232,
    " แอก": 921,
    "แอกโ": 9661,
    "อกโซ": 8767,
    "กโซล": 7203,
    "โซลอ": 9684,
    "ซลอเ": 7493,
    "ลอเต": 8506,
    "อเติ": 8898,
    "เติล": 9490,
    "ติล ": 7678,
    "by": 1735,
    " am": 21,
    "amb": 1269,
    "mby": 4230,
    "bys": 1739,
    "yst": 7067,
    "sto": 6169,
    "tom": 6418,
    " amb": 23,
    "amby": 1273,
    "mbys": 4231,
    "byst": 1740,
    "ysto": 7069,
    "stom": 6170,
    "toma": 6419,
    "oma ": 4887,
    "mex": 4259,
    "exi": 2769,
    "num": 4707,
    " mex": 417,
    "mexi": 4260,
    "exic": 2770,
    "xica": 6917,
    "canu": 1772,
    "anum": 1352,
    "num ": 4708,
    "ib": 3316,
    "mph": 4338,
    "hib": 3150,
    "ibi": 3319,
    "bia": 1635,
    " amp": 25,
    "amph": 1285,
    "mphi": 4340,
    "phib": 5273,
    "hibi": 3151,
    "ibia": 3320,
    "bian": 1636,
    "sal": 5952,
    "nde": 4464,
    " sal": 590,
    "sala": 5953,
    "alam": 1214,
    "lama": 3836,
    "aman": 1265,
    "mand": 4188,
    "ande": 1310,
    "nder": 4468,
    " tig": 669,
    "tige": 6354,
    "iger": 3422,
    "ger ": 2951,
    "ไท": 9742,
    "์ซ": 9914,
    "าล": 9120,
    "ดอ": 7579,
    " ไท": 940,
    "ไทเ": 9743,
    "ทเก": 7768,
    "เกอ": 9439,
    "กอร": 7150,
    "ร์ซ": 8421,
    "์ซา": 9915,
    "ซาล": 7504,
    "าลา": 9121,
    "ลาแ": 8525,
    "าแม": 9159,
    "มนเ": 8166,
    "เดอ": 9480,
    "ดอร": 7580,
    " ไทเ": 941,
    "ไทเก": 9744,
    "ทเกอ": 7769,
    "เกอร": 9440,
    "กอร์": 7151,
    "อร์ซ": 8836,
    "ร์ซา": 8422,
    "์ซาล": 9916,
    "ซาลา": 7505,
    "าลาแ": 9122,
    "ลาแม": 8526,
    "าแมน": 9160,
    "แมนเ": 9643,
    "มนเด": 8167,
    "นเดอ": 7916,
    "เดอร": 9481,
    "ดอร์": 7581,
    "igr": 3431,
    "gri": 3039,
    "tigr": 6356,
    "igri": 3433,
    "grin": 3040,
    "inum": 3561,
    "c-": 1742,
    "-s": 1000,
    "ic-": 3326,
    "c-s": 1743,
    "-sk": 1001,
    "in ": 3500,
    " tox": 680,
    "xic-": 6916,
    "ic-s": 3327,
    "c-sk": 1744,
    "-ski": 1002,
    "kin ": 3777,
    "fir": 2843,
    "ire": 3614,
    " fir": 238,
    "fire": 2844,
    "ire ": 3615,
    "ไฟ": 9753,
    " ไฟ": 942,
    "ไฟร": 9756,
    "ฟร์": 8108,
    " ไฟร": 943,
    "ไฟร์": 9757,
    "ฟร์ซ": 8109,
    "ndr": 4480,
    "andr": 1312,
    "ndra": 4481,
    "dra ": 2228,
    "wh": 6880,
    "e'": 2265,
    " wh": 722,
    "whi": 6881,
    "hit": 3175,
    "te'": 6268,
    "e's": 2266,
    " whi": 723,
    "whit": 6882,
    "hite": 3177,
    "ite'": 3660,
    "te's": 6269,
    "e's ": 2267,
    "fro": 2873,
    "rog": 5782,
    "og ": 4816,
    " fro": 250,
    "frog": 2874,
    "rog ": 5783,
    "ไว": 9758,
    "วท": 8594,
    "ท์": 7781,
    "ีฟ": 9284,
    " ไว": 944,
    "ไวท": 9759,
    "วท์": 8595,
    "ท์ท": 7782,
    "์ทร": 9931,
    "รีฟ": 8385,
    "ีฟร": 9285,
    "ฟร็": 8106,
    " ไวท": 945,
    "ไวท์": 9760,
    "วท์ท": 8596,
    "ท์ทร": 7783,
    "์ทรี": 9932,
    "ทรีฟ": 7741,
    "รีฟร": 8386,
    "ีฟร็": 9286,
    "ฟร็อ": 8107,
    "็อก ": 9797,
    " lit": 379,
    "lito": 4004,
    "cae": 1749,
    "aer": 1133,
    "eru": 2671,
    "rul": 5893,
    "ule": 6638,
    "lea": 3904,
    " cae": 97,
    "caer": 1750,
    "aeru": 1134,
    "erul": 2672,
    "rule": 5894,
    "ulea": 6639,
    "lea ": 3905,
    " sm": 621,
    " sma": 622,
    "smal": 6091,
    "mall": 4182,
    "up": 6686,
    "gro": 3042,
    "oup": 5142,
    "ups": 6695,
    " gro": 286,
    "grou": 3044,
    "roup": 5818,
    "oups": 5144,
    "ups ": 6696,
    "-ey": 977,
    "eye": 2782,
    "yed": 6974,
    "d-ey": 2068,
    "-eye": 978,
    "eyed": 2783,
    "yed ": 6975,
    "ยด": 8257,
    "รดอ": 8312,
    "ดอา": 7582,
    "อาย": 8882,
    "ายด": 9098,
    "ยด์": 8258,
    "ด์ท": 7620,
    "เรดอ": 9550,
    "รดอา": 8313,
    "ดอาย": 7583,
    "อายด": 8883,
    "ายด์": 9099,
    "ยด์ท": 8260,
    "ด์ทร": 7621,
    "hn": 3191,
    " ag": 12,
    "aga": 1145,
    "gal": 2901,
    "lyc": 4149,
    "ych": 6962,
    "chn": 1862,
    "hni": 3196,
    "nis": 4587,
    " aga": 13,
    "agal": 1147,
    "galy": 2906,
    "alyc": 1259,
    "lych": 4150,
    "ychn": 6963,
    "chni": 1864,
    "hnis": 3197,
    "nis ": 4588,
    "idr": 3374,
    "dry": 2239,
    "rya": 5918,
    "yas": 6953,
    "as ": 1456,
    "call": 1761,
    "llid": 4027,
    "lidr": 3974,
    "idry": 3375,
    "drya": 2240,
    "ryas": 5919,
    "yas ": 6954,
    "cm": 1940,
    "pac": 5199,
    "acm": 1083,
    "cma": 1941,
    " pac": 491,
    "pacm": 5201,
    "acma": 1084,
    "cman": 1942,
    "พค": 8041,
    "นฟ": 7856,
    "แพค": 9628,
    "พคแ": 8042,
    "มนฟ": 8164,
    "นฟร": 7857,
    " แพค": 911,
    "แพคแ": 9629,
    "พคแม": 8043,
    "แมนฟ": 9642,
    "มนฟร": 8165,
    "นฟร็": 7858,
    "top": 6430,
    "phr": 5284,
    "hry": 3244,
    "rys": 5926,
    " cer": 111,
    "cera": 1830,
    "atop": 1515,
    "toph": 6432,
    "ophr": 4994,
    "phry": 5288,
    "hrys": 3245,
    "rys ": 5927,
    " or": 479,
    "rna": 5750,
    "nat": 4421,
    " orn": 481,
    "orna": 5042,
    "rnat": 5752,
    "nata": 4422,
    "-w": 1014,
    "it-": 3648,
    "t-a": 6218,
    "-an": 955,
    "nd-": 4456,
    "d-w": 2075,
    "-wa": 1015,
    "wai": 6857,
    "ait": 1189,
    "it ": 3647,
    " sit": 615,
    "sit-": 6071,
    "it-a": 3649,
    "t-an": 6219,
    "-and": 956,
    "and-": 1308,
    "nd-w": 4458,
    "d-wa": 2076,
    "-wai": 1016,
    "wait": 6858,
    "ait ": 1190,
    "to ": 6401,
    " tom": 677,
    "omat": 4889,
    "mato": 4206,
    "ato ": 1513,
    " โ": 926,
    "ทม": 7731,
    "าโ": 9161,
    "โต": 9685,
    "้ฟ": 9860,
    " โท": 927,
    "โทม": 9696,
    "ทมา": 7732,
    "มาโ": 8205,
    "าโต": 9162,
    "โต้": 9691,
    "ต้ฟ": 7702,
    "้ฟร": 9861,
    " โทม": 928,
    "โทมา": 9697,
    "ทมาโ": 7733,
    "มาโต": 8206,
    "าโต้": 9163,
    "โต้ฟ": 9692,
    "ต้ฟร": 7703,
    "้ฟร็": 9862,
    "dy": 2260,
    " dy": 186,
    "dys": 2262,
    "ysc": 7061,
    "sco": 5982,
    " dys": 187,
    "dysc": 2263,
    "ysco": 7062,
    "scop": 5983,
    "ui": 6614,
    "gui": 3058,
    "uin": 6621,
    "net": 4520,
    "ti ": 6342,
    " gui": 288,
    "guin": 3060,
    "uine": 6622,
    "inet": 3528,
    "neti": 4522,
    "eti ": 2717,
    "hy": 3262,
    " sh": 606,
    "shy": 6043,
    "hy ": 3263,
    " shy": 610,
    "shy ": 6044,
    "lf": 3951,
    "bul": 1723,
    "ull": 6643,
    "llf": 4023,
    "lfr": 3957,
    " bul": 89,
    "bull": 1724,
    "ullf": 6644,
    "llfr": 4024,
    "lfro": 3958,
    "นบ": 7850,
    "บู": 8004,
    "ลฟ": 8485,
    "ันบ": 8976,
    "นบู": 7851,
    "บูล": 8007,
    "ูลฟ": 9395,
    "ลฟร": 8486,
    "กันบ": 7159,
    "ันบู": 8977,
    "นบูล": 7852,
    "บูลฟ": 8008,
    "ูลฟร": 9396,
    "ลฟร็": 8487,
    "pyx": 5434,
    "yxi": 7083,
    "hal": 3084,
    "alu": 1253,
    " pyx": 547,
    "pyxi": 5435,
    "yxic": 7084,
    "xice": 6918,
    "ceph": 1827,
    "phal": 5263,
    "halu": 3087,
    "alus": 1255,
    "ad": 1100,
    "ds": 2243,
    " ad": 5,
    "ads": 1117,
    "dsp": 2244,
    "rsu": 5864,
    " ads": 6,
    "adsp": 1118,
    "dspe": 2245,
    "sper": 6124,
    "pers": 5250,
    "ersu": 2667,
    "rsus": 5866,
    "gg": 2963,
    "agg": 1153,
    "ggr": 2964,
    "ess": 2700,
    " agg": 14,
    "aggr": 1154,
    "ggre": 2965,
    "gres": 3037,
    "ress": 5613,
    "essi": 2702,
    "ssiv": 6141,
    " fe": 229,
    "fee": 2809,
    "eed": 2379,
    "ede": 2361,
    " fee": 230,
    "feed": 2810,
    "eede": 2380,
    "eder": 2362,
    "poi": 5344,
    "iso": 3641,
    " poi": 520,
    "pois": 5346,
    "oiso": 4843,
    "ison": 3642,
    "son ": 6111,
    "dar": 2087,
    "art": 1447,
    " dar": 157,
    "dart": 2089,
    "art ": 1448,
    " พ": 825,
    "พอ": 8063,
    "ยซ": 8254,
    "ซั": 7497,
    "นด": 7827,
    "ทฟ": 7726,
    " พอ": 826,
    "พอย": 8064,
    "อยซ": 8823,
    "ยซั": 8255,
    "ซัน": 7498,
    "ันด": 8970,
    "นดา": 7828,
    "ดาร": 7590,
    "์ทฟ": 9929,
    "ทฟร": 7727,
    " พอย": 827,
    "พอยซ": 8065,
    "อยซั": 8824,
    "ยซัน": 8256,
    "ซันด": 7500,
    "ันดา": 8971,
    "นดาร": 7829,
    "ดาร์": 7591,
    "าร์ท": 9116,
    "ร์ทฟ": 8429,
    "์ทฟร": 9930,
    "ทฟร็": 7728,
    "ob": 4740,
    "den": 2125,
    "dro": 2236,
    "rob": 5765,
    "oba": 4743,
    "bat": 1610,
    " den": 165,
    "dend": 2127,
    "endr": 2525,
    "ndro": 4483,
    "drob": 2237,
    "roba": 5766,
    "obat": 4744,
    "bate": 1611,
    "tin": 6364,
    " tin": 671,
    "tinc": 6365,
    "ncto": 4450,
    "oriu": 5037,
    "del": 2117,
    " del": 163,
    "deli": 2120,
    "elic": 2459,
    "lica": 3969,
    "icat": 3334,
    "ate ": 1490,
    "s/": 5942,
    "/g": 1026,
    "pai": 5206,
    "air": 1184,
    "irs": 3626,
    "rs/": 5853,
    "s/g": 5943,
    "/gr": 1027,
    " pai": 493,
    "pair": 5207,
    "airs": 1188,
    "irs/": 3628,
    "rs/g": 5854,
    "s/gr": 5944,
    "/gro": 1028,
    "-b": 961,
    "re-": 5571,
    "e-b": 2273,
    "-be": 964,
    "bel": 1628,
    "lie": 3975,
    "ied": 3378,
    "ire-": 3616,
    "re-b": 5573,
    "e-be": 2274,
    "-bel": 965,
    "bell": 1629,
    "llie": 4028,
    "lied": 3976,
    "ied ": 3379,
    "toa": 6402,
    "oad": 4734,
    "ad ": 1101,
    " toa": 674,
    "toad": 6403,
    "oad ": 4735,
    "ลล": 8491,
    "ีโ": 9303,
    "ทด": 7718,
    "ด ": 7542,
    "์เบ": 9983,
    "เบล": 9516,
    "บลล": 7961,
    "ลลี": 8496,
    "ลีโ": 8538,
    "ีโท": 9304,
    "โทด": 9694,
    "ทด ": 7719,
    "ฟร์เ": 8110,
    "ร์เบ": 8450,
    "์เบล": 9984,
    "เบลล": 9517,
    "บลลี": 7962,
    "ลลีโ": 8497,
    "ลีโท": 8539,
    "ีโทด": 9305,
    "โทด ": 9695,
    "bom": 1678,
    "omb": 4890,
    "mbi": 4218,
    "bin": 1648,
    "ina": 3503,
    " bom": 79,
    "bomb": 1679,
    "ombi": 4891,
    "mbin": 4220,
    "bina": 1649,
    "ina ": 3504,
    "tal": 6237,
    " ori": 480,
    "orie": 5036,
    "ient": 3389,
    "enta": 2554,
    "ntal": 4677,
    "tali": 6241,
    "dg": 2142,
    "t'": 6214,
    "bud": 1721,
    "udg": 6573,
    "dge": 2143,
    "get": 2959,
    "tt'": 6484,
    "t's": 6215,
    " bud": 88,
    "budg": 1722,
    "udge": 6574,
    "dget": 2146,
    "gett": 2960,
    "ett'": 2728,
    "tt's": 6485,
    "t's ": 6216,
    "เจ": 9460,
    "ตต": 7630,
    "ต์": 7708,
    "์ฟ": 9947,
    " บั": 816,
    "บัด": 7984,
    "ัดเ": 8955,
    "ดเจ": 7600,
    "เจ็": 9463,
    "จ็ต": 7453,
    "็ตต": 9786,
    "ตต์": 7631,
    "ต์ฟ": 7710,
    "์ฟร": 9948,
    " บัด": 817,
    "บัดเ": 7985,
    "ัดเจ": 8956,
    "ดเจ็": 7601,
    "เจ็ต": 9464,
    "จ็ตต": 7454,
    "็ตต์": 9787,
    "ตต์ฟ": 7632,
    "ต์ฟร": 7711,
    "์ฟร็": 9949,
    "pid": 5304,
    "ido": 3371,
    "dob": 2193,
    "atr": 1517,
    " lep": 371,
    "lepi": 3930,
    "epid": 2589,
    "pido": 5306,
    "idob": 3372,
    "doba": 2194,
    "batr": 1612,
    "atra": 1518,
    "achu": 1069,
    "ev": 2754,
    "lae": 3829,
    "aev": 1137,
    "evi": 2758,
    "vis": 6827,
    " lae": 363,
    "laev": 3830,
    "aevi": 1138,
    "evis": 2760,
    "vis ": 6828,
    "dd": 2104,
    " od": 467,
    "odd": 4784,
    "dd ": 2105,
    " odd": 468,
    "odd ": 4785,
    "rdy": 5567,
    "dy ": 2261,
    "ardy": 1407,
    "rdy ": 5568,
    "lly": 4039,
    " bel": 66,
    "elly": 2468,
    "lly ": 4040,
    "ew": 2763,
    "wt": 6899,
    " ne": 445,
    "new": 4526,
    "ewt": 2764,
    "wt ": 6900,
    " new": 450,
    "newt": 4527,
    "ewt ": 2765,
    " น": 806,
    "์ไ": 10012,
    "ฟท": 8093,
    "ท้": 7778,
    "ส้": 8719,
    " นิ": 809,
    "นิว": 7894,
    "ิวท": 9240,
    "ท์ไ": 7784,
    "์ไฟ": 10015,
    "ไฟท": 9754,
    "ฟท้": 8094,
    "ท้อ": 7779,
    "องส": 8780,
    "งส้": 7378,
    "ส้ม": 8720,
    "้ม ": 9864,
    " นิว": 810,
    "นิวท": 7895,
    "ิวท์": 9241,
    "วท์ไ": 8597,
    "ท์ไฟ": 7785,
    "์ไฟท": 10016,
    "ไฟท้": 9755,
    "ฟท้อ": 8095,
    "ท้อง": 7780,
    "้องส": 9877,
    "องส้": 8781,
    "งส้ม": 7379,
    "ส้ม ": 8721,
    "yn": 7021,
    "cyn": 2052,
    "yno": 7028,
    "ops": 5002,
    " cyn": 152,
    "cyno": 2053,
    "ynop": 7030,
    "nops": 4640,
    "ops ": 5003,
    "ill": 3464,
    "lla": 4015,
    "hinc": 3165,
    "inch": 3511,
    "nchi": 4437,
    "hill": 3162,
    "illa": 3466,
    "lla ": 4016,
    " ช": 773,
    "ชิ": 7471,
    "ิน": 9207,
    "นช": 7817,
    "ล่": 8576,
    " ชิ": 778,
    "ชิน": 7472,
    "ินช": 9211,
    "นชิ": 7818,
    "ชิล": 7475,
    "ิล่": 9237,
    "ล่า": 8577,
    " ชิน": 779,
    "ชินช": 7474,
    "ินชิ": 9212,
    "นชิล": 7819,
    "ชิล่": 7476,
    "ิล่า": 9238,
    "ล่า ": 8578,
    "lan": 3839,
    "ani": 1320,
    "nig": 4576,
    " lan": 365,
    "lani": 3842,
    "anig": 1322,
    "nige": 4577,
    "gera": 2952,
    "era ": 2607,
    "mam": 4183,
    "amm": 1278,
    "mma": 4292,
    " mam": 399,
    "mamm": 4184,
    "amma": 1279,
    "mmal": 4293,
    "mal ": 4179,
    "ode": 4786,
    " rod": 577,
    "rode": 5776,
    "oden": 4788,
    "dent": 2130,
    " pr": 527,
    "pra": 5374,
    " pra": 528,
    "prai": 5375,
    "rair": 5483,
    "airi": 1187,
    "irie": 3622,
    "rie ": 5673,
    "dog": 2199,
    " dog": 174,
    "dog ": 2200,
    "พร": 8053,
    "่ด": 9807,
    "แพร": 9632,
    "พรี": 8054,
    "รี่": 8391,
    "ี่ด": 9311,
    "่ด็": 9808,
    "ด็อ": 7614,
    " แพร": 913,
    "แพรี": 9633,
    "พรี่": 8055,
    "รี่ด": 8393,
    "ี่ด็": 9312,
    "่ด็อ": 9809,
    "ด็อก": 7615,
    "nom": 4635,
    "omy": 4909,
    "ynom": 7029,
    "nomy": 4637,
    "omys": 4912,
    "ov": 5155,
    " lu": 390,
    "lud": 4123,
    "dov": 2221,
    "ovi": 5161,
    "vic": 6817,
    "cia": 1879,
    " lud": 391,
    "ludo": 4125,
    "udov": 6580,
    "dovi": 2223,
    "ovic": 5162,
    "vici": 6819,
    "icia": 3346,
    "cian": 1882,
    "ianu": 3312,
    "soc": 6098,
    " soc": 626,
    "soci": 6099,
    "ocia": 4763,
    "cial": 1881,
    "u ": 6527,
    "deg": 2115,
    "egu": 2415,
    "gu ": 3049,
    " deg": 162,
    "degu": 2116,
    "egu ": 2416,
    "ดก": 7543,
    "กู": 7182,
    "เดก": 9476,
    "ดกู": 7544,
    "กู ": 7183,
    " เดก": 880,
    "เดกู": 9477,
    "ดกู ": 7545,
    " oc": 464,
    "oct": 4776,
    "tod": 6408,
    " oct": 466,
    "octo": 4777,
    "ctod": 2018,
    "todo": 6409,
    "gus": 3066,
    "egus": 2417,
    "gus ": 3067,
    "fan": 2801,
    "anc": 1301,
    "ncy": 4452,
    "cy ": 2047,
    " fan": 226,
    "fanc": 2802,
    "ancy": 1305,
    "ncy ": 4453,
    "ฟน": 8096,
    "นซ": 7824,
    "ี ": 9264,
    " หน": 861,
    "นูแ": 7910,
    "ูแฟ": 9415,
    "แฟน": 9637,
    "ฟนซ": 8097,
    "นซี": 7825,
    "ซี ": 7514,
    " หนู": 862,
    "หนูแ": 8735,
    "นูแฟ": 7911,
    "ูแฟน": 9416,
    "แฟนซ": 9638,
    "ฟนซี": 8098,
    "นซี ": 7826,
    "att": 1520,
    "ttu": 6496,
    "ratt": 5518,
    "attu": 1522,
    "ttus": 6497,
    "rv": 5906,
    "nor": 4643,
    "orv": 5062,
    "rve": 5909,
    "veg": 6797,
    "gic": 2975,
    " nor": 456,
    "norv": 4645,
    "orve": 5063,
    "rveg": 5910,
    "vegi": 6798,
    "egic": 2413,
    "gicu": 2976,
    "dom": 2205,
    "ca ": 1746,
    " dom": 176,
    "dome": 2206,
    "omes": 4896,
    "mest": 4255,
    "esti": 2705,
    "stic": 6161,
    "tica": 6348,
    "ica ": 3329,
    "ngo": 4551,
    "gol": 3010,
    "mong": 4315,
    "ongo": 4939,
    "ngol": 4552,
    "goli": 3012,
    "olia": 4862,
    "il ": 3441,
    " ger": 263,
    "gerb": 2953,
    "rbil": 5537,
    "bil ": 1645,
    "จอ": 7433,
    "์บ": 9941,
    "บิ": 7991,
    "นูเ": 7908,
    "ูเจ": 9406,
    "เจอ": 9461,
    "จอร": 7434,
    "ร์บ": 8434,
    "์บิ": 9942,
    "บิล": 7996,
    "หนูเ": 8734,
    "นูเจ": 7909,
    "ูเจอ": 9407,
    "เจอร": 9462,
    "จอร์": 7435,
    "อร์บ": 8839,
    "ร์บิ": 8435,
    "์บิล": 9943,
    "บิล ": 7997,
    "mer": 4249,
    "eri": 2627,
    "ion": 3573,
    "one": 4928,
    " mer": 414,
    "meri": 4251,
    "erio": 2634,
    "rion": 5695,
    "ione": 3575,
    "ones": 4931,
    "nes ": 4518,
    "ung": 6676,
    "uic": 6615,
    " ung": 694,
    "ungu": 6678,
    "ngui": 4560,
    "guic": 3059,
    "uicu": 6616,
    " sy": 650,
    "syr": 6211,
    " syr": 652,
    "syri": 6212,
    "yria": 7056,
    "ms": 4351,
    "ams": 1289,
    "mst": 4356,
    " ham": 296,
    "hams": 3091,
    "amst": 1291,
    "mste": 4357,
    "แฮ": 9668,
    "ฮม": 8911,
    "มส": 8182,
    "ีเ": 9300,
    " แฮ": 924,
    "แฮม": 9669,
    "ฮมส": 8912,
    "มสเ": 8183,
    "์ซี": 9917,
    "ซีเ": 7519,
    "ีเร": 9301,
    "เรี": 9558,
    "รีย": 8387,
    " แฮม": 925,
    "แฮมส": 9670,
    "ฮมสเ": 8913,
    "มสเต": 8184,
    "สเตอ": 8707,
    "ร์ซี": 8423,
    "์ซีเ": 9918,
    "ซีเร": 7520,
    "ีเรี": 9302,
    "เรีย": 9559,
    "รียน": 8388,
    "eso": 2698,
    "ocr": 4774,
    "cet": 1835,
    "etu": 2731,
    " mes": 415,
    "meso": 4254,
    "esoc": 2699,
    "socr": 6100,
    "ocri": 4775,
    "cric": 1996,
    "rice": 5665,
    "icet": 3338,
    "cetu": 1837,
    "etus": 2733,
    "aura": 1541,
    "urat": 6704,
    "vs": 6841,
    "obo": 4747,
    "oro": 5044,
    "rov": 5820,
    "ovs": 5163,
    "vsk": 6842,
    "ki ": 3769,
    " rob": 575,
    "robo": 5767,
    "obor": 4748,
    "boro": 1687,
    "orov": 5047,
    "rovs": 5821,
    "ovsk": 5164,
    "vski": 6843,
    "ski ": 6079,
    "รโ": 8400,
    "ฟส": 8114,
    "้แ": 9897,
    " โร": 934,
    "โรโ": 9730,
    "รโบ": 8401,
    "โบร": 9706,
    "บรอ": 7952,
    "รอฟ": 8354,
    "อฟส": 8817,
    "ฟสก": 8115,
    "สกี": 8658,
    "ี้แ": 9324,
    "้แฮ": 9898,
    " โรโ": 935,
    "โรโบ": 9731,
    "รโบร": 8402,
    "โบรอ": 9707,
    "บรอฟ": 7953,
    "รอฟส": 8355,
    "อฟสก": 8818,
    "ฟสกี": 8116,
    "สกี้": 8659,
    "กี้แ": 7178,
    "ี้แฮ": 9325,
    "้แฮม": 9899,
    "pu": 5411,
    "hod": 3201,
    "dop": 2209,
    "opu": 5008,
    "pus": 5421,
    " pho": 505,
    "phod": 5281,
    "hodo": 3202,
    "odop": 4796,
    "dopu": 2210,
    "opus": 5009,
    "pus ": 5422,
    "skii": 6080,
    "fas": 2803,
    "st ": 6147,
    " fas": 227,
    "fast": 2805,
    "ast ": 1470,
    "y/": 6941,
    "/p": 1029,
    "ry/": 5915,
    "y/p": 6944,
    "/pa": 1030,
    "rs ": 5852,
    "ary/": 1454,
    "ry/p": 5917,
    "y/pa": 6945,
    "/pai": 1031,
    "irs ": 3627,
    "pb": 5225,
    "l'": 3809,
    "cam": 1764,
    "mpb": 4334,
    "pbe": 5226,
    "ll'": 4013,
    "l's": 3810,
    " cam": 100,
    "camp": 1766,
    "ampb": 1284,
    "mpbe": 4335,
    "pbel": 5227,
    "ell'": 2463,
    "ll's": 4014,
    "l's ": 3811,
    "คม": 7254,
    "มป": 8176,
    "ป์": 8033,
    " แค": 906,
    "แคม": 9607,
    "คมป": 7257,
    "มป์": 8177,
    "ป์เ": 8034,
    "ลล์": 8500,
    "ล์แ": 8583,
    "์แฮ": 10001,
    " แคม": 907,
    "แคมป": 9609,
    "คมป์": 7258,
    "มป์เ": 8178,
    "ป์เบ": 8035,
    "บลล์": 7963,
    "ลล์แ": 8501,
    "ล์แฮ": 8584,
    "์แฮม": 10002,
    "li ": 3963,
    "lli ": 4026,
    "yg": 6988,
    "pyg": 5427,
    "ygm": 6991,
    "gmy": 2997,
    "my ": 4370,
    " pyg": 544,
    "pygm": 5429,
    "ygmy": 6992,
    "gmy ": 2998,
    "dor": 2211,
    "orm": 5038,
    "rmo": 5744,
    "mou": 4329,
    "use": 6744,
    " dor": 177,
    "dorm": 2214,
    "ormo": 5039,
    "rmou": 5747,
    "mous": 4331,
    "ouse": 5152,
    "use ": 6745,
    " ด": 794,
    " ดอ": 795,
    "์เม": 9987,
    "เมา": 9539,
    "าส์": 9140,
    "ส์แ": 8726,
    "์แอ": 9999,
    "ัน ": 8966,
    " ดอร": 796,
    "ร์เม": 8452,
    "์เมา": 9988,
    "เมาส": 9540,
    "มาส์": 8204,
    "าส์แ": 9141,
    "ส์แอ": 8727,
    "์แอฟ": 10000,
    "กัน ": 7158,
    "rap": 5504,
    "hiu": 3179,
    "iur": 3687,
    "grap": 3033,
    "raph": 5505,
    "aphi": 1367,
    "phiu": 5278,
    "hiur": 3180,
    "iuru": 3690,
    "mu": 4358,
    " mu": 433,
    "mur": 4361,
    " mur": 434,
    "muri": 4363,
    "urin": 6714,
    "nea": 4491,
    "inea": 3523,
    "nea ": 4492,
    "ig ": 3413,
    "pig ": 5308,
    "่พ": 9815,
    " กิ": 745,
    "กิน": 7171,
    "ินน": 9216,
    "นนี": 7846,
    "นี่": 7903,
    "ี่พ": 9315,
    "่พิ": 9816,
    "พิก": 8078,
    "ิก ": 9175,
    " กิน": 746,
    "กินน": 7172,
    "ินนี": 9217,
    "นนี่": 7847,
    "นี่พ": 7904,
    "ี่พิ": 9316,
    "่พิก": 9817,
    "พิก ": 8079,
    "cav": 1799,
    "avi": 1555,
    "via": 6815,
    " cav": 107,
    "cavi": 1801,
    "avia": 1556,
    "via ": 6816,
    "por": 5351,
    "orc": 5024,
    "rce": 5547,
    "cel": 1818,
    "llu": 4036,
    " por": 523,
    "porc": 5352,
    "orce": 5025,
    "rcel": 5548,
    "cell": 1819,
    "ellu": 2467,
    "llus": 4038,
    "ntl": 4694,
    " gen": 261,
    "entl": 2556,
    "ntle": 4695,
    "fl": 2849,
    "yi": 6995,
    " fl": 240,
    "fly": 2854,
    "lyi": 4151,
    "yin": 6997,
    " fly": 243,
    "flyi": 2855,
    "lyin": 4152,
    "ying": 6998,
    "sq": 6133,
    " sq": 637,
    "squ": 6134,
    "qui": 5444,
    "uir": 6624,
    "irr": 3623,
    "el ": 2437,
    " squ": 638,
    "squi": 6135,
    "quir": 5446,
    "uirr": 6625,
    "irre": 3624,
    "rel ": 5598,
    "กบ": 7123,
    "กระ": 7132,
    "ระร": 8358,
    "ะรอ": 8937,
    "รอก": 8345,
    "อกบ": 8762,
    "กบิ": 7124,
    "บิน": 7992,
    "ิน ": 9208,
    " กระ": 741,
    "กระร": 7133,
    "ระรอ": 8359,
    "ะรอก": 8938,
    "รอกบ": 8346,
    "อกบิ": 8763,
    "กบิน": 7125,
    "บิน ": 7993,
    " pt": 535,
    "pte": 5404,
    "myi": 4375,
    "ini": 3539,
    " pte": 536,
    "pter": 5406,
    "erom": 2650,
    "romy": 5792,
    "omyi": 4911,
    "myin": 4376,
    "yini": 6999,
    "ini ": 3540,
    "p.": 5195,
    ". ": 1022,
    "spp": 6129,
    "pp.": 5365,
    "p. ": 5196,
    " spp": 635,
    "spp.": 6130,
    "pp. ": 5366,
    "ner": 4513,
    "erv": 2675,
    "rvo": 5911,
    "vou": 6839,
    " ner": 449,
    "nerv": 4516,
    "ervo": 2677,
    "rvou": 5912,
    "vous": 6840,
    " fer": 232,
    "ferr": 2819,
    "rret": 5838,
    "ret ": 5616,
    "รท": 8316,
    "ท ": 7717,
    " เฟ": 888,
    "ฟอเ": 8120,
    "อเร": 8899,
    "เรท": 9552,
    "รท ": 8317,
    " เฟอ": 890,
    "เฟอเ": 9535,
    "ฟอเร": 8121,
    "อเรท": 8900,
    "เรท ": 9553,
    "mus": 4364,
    "ust": 6754,
    " mus": 435,
    "must": 4368,
    "uste": 6757,
    "stel": 6156,
    "tela": 6280,
    "ela ": 2439,
    " pu": 537,
    "put": 5424,
    "uto": 6764,
    " put": 542,
    "puto": 5425,
    "utor": 6766,
    "ro ": 5762,
    "furo": 2886,
    "uro ": 6724,
    "exo": 2772,
    "xot": 6926,
    "oti": 5110,
    " exo": 220,
    "exot": 2773,
    "xoti": 6928,
    "otic": 5112,
    "pl": 5329,
    "yf": 6983,
    " pl": 514,
    "pla": 5330,
    "ayf": 1577,
    "yfu": 6986,
    " pla": 515,
    "play": 5332,
    "layf": 3871,
    "ayfu": 1579,
    "yful": 6987,
    "eh": 2418,
    "hed": 3111,
    "edg": 2363,
    "geh": 2935,
    "eho": 2421,
    " hed": 299,
    "hedg": 3113,
    "edge": 2364,
    "dgeh": 2144,
    "geho": 2936,
    "ehog": 2422,
    "hog ": 3204,
    "ฮด": 8908,
    "จ์": 7455,
    "์ฮ": 9966,
    "เฮด": 9591,
    "ฮดจ": 8909,
    "ดจ์": 7556,
    "จ์ฮ": 7456,
    "์ฮอ": 9967,
    " เฮด": 903,
    "เฮดจ": 9592,
    "ฮดจ์": 8910,
    "ดจ์ฮ": 7557,
    "จ์ฮอ": 7457,
    "์ฮอก": 9968,
    "ฮอก ": 8919,
    "ix": 3708,
    " at": 48,
    "rix": 5718,
    "ix ": 3709,
    " ate": 49,
    "atel": 1492,
    "tele": 6281,
    "eler": 2450,
    "leri": 3933,
    "erix": 2636,
    "rix ": 5719,
    "lb": 3873,
    "alb": 1218,
    "lbi": 3876,
    "ven": 6801,
    " alb": 16,
    "albi": 1220,
    "lbiv": 3878,
    "bive": 1655,
    "iven": 3698,
    "vent": 6803,
    "ntri": 4702,
    "tris": 6468,
    "ug": 6605,
    "sug": 6189,
    "uga": 6606,
    "ar ": 1386,
    " sug": 646,
    "suga": 6190,
    "ugar": 6607,
    "gar ": 2915,
    "gl": 2987,
    " gl": 271,
    "gli": 2990,
    " gli": 273,
    "glid": 2991,
    "ชู": 7486,
    "ไก": 9734,
    "กล": 7136,
    " ชู": 780,
    "ชูก": 7487,
    "ูกา": 9358,
    "ร์ไ": 8461,
    "์ไก": 10013,
    "ไกล": 9735,
    "กลเ": 7139,
    "ลเด": 8557,
    " ชูก": 781,
    "ชูกา": 7488,
    "ูการ": 9359,
    "าร์ไ": 9119,
    "ร์ไก": 8462,
    "์ไกล": 10014,
    "ไกลเ": 9736,
    "กลเด": 7140,
    "ลเดอ": 8558,
    "eta": 2710,
    "tau": 6261,
    " pet": 501,
    "peta": 5257,
    "etau": 2712,
    "taur": 6262,
    "auru": 1544,
    "bre": 1703,
    "rev": 5621,
    " bre": 84,
    "brev": 1706,
    "revi": 5622,
    "evic": 2759,
    "vice": 6818,
    "rk": 5720,
    "mee": 4239,
    "eer": 2390,
    "erk": 2637,
    "rka": 5722,
    "kat": 3747,
    " mee": 410,
    "meer": 4240,
    "eerk": 2391,
    "erka": 2638,
    "rkat": 5723,
    "kat ": 3748,
    "มี": 8210,
    "คต": 7238,
    "ต ": 7626,
    " เม": 891,
    "เมี": 9541,
    "มีย": 8213,
    "์แค": 9994,
    "แคต": 9601,
    "คต ": 7239,
    " เมี": 892,
    "เมีย": 9542,
    "มียร": 8214,
    "ยร์แ": 8270,
    "ร์แค": 8456,
    "์แคต": 9995,
    "แคต ": 9602,
    "sur": 6203,
    " sur": 649,
    "suri": 6204,
    "catt": 1795,
    "atta": 1521,
    "tta ": 6487,
    "xp": 6929,
    "exp": 2774,
    "xpe": 6930,
    " exp": 221,
    "expe": 2775,
    "xper": 6931,
    "pert": 5251,
    "enn": 2538,
    "nne": 4613,
    "nec": 4494,
    "ec ": 2326,
    " fen": 231,
    "fenn": 2814,
    "enne": 2539,
    "nnec": 4614,
    "nec ": 4495,
    " fo": 244,
    "fox": 2864,
    "ox ": 5181,
    " fox": 246,
    "fox ": 2865,
    "กฟ": 7126,
    "ฟ็": 8140,
    "เฟน": 9531,
    "ฟนเ": 8099,
    "นเน": 7920,
    "นกฟ": 7801,
    "กฟ็": 7127,
    "ฟ็อ": 8141,
    "อกซ": 8760,
    " เฟน": 889,
    "เฟนเ": 9532,
    "ฟนเน": 8100,
    "นเนก": 7921,
    "เนกฟ": 9506,
    "นกฟ็": 7802,
    "กฟ็อ": 7128,
    "ฟ็อก": 8142,
    "็อกซ": 9799,
    "อกซ์": 8761,
    "vu": 6844,
    " vu": 713,
    "vul": 6845,
    "pes": 5252,
    " vul": 714,
    "vulp": 6847,
    "ulpe": 6646,
    "lpes": 4095,
    "pes ": 5253,
    " z": 735,
    "ze": 7091,
    " ze": 736,
    "zer": 7096,
    "erd": 2617,
    "da ": 2078,
    " zer": 738,
    "zerd": 7097,
    "erda": 2618,
    "rda ": 5559,
    "cc": 1804,
    "acc": 1058,
    "cco": 1809,
    "coo": 1970,
    "oon": 4975,
    " rac": 553,
    "racc": 5467,
    "acco": 1060,
    "ccoo": 1810,
    "coon": 1971,
    "oon ": 4976,
    "แร": 9645,
    "รค": 8300,
    "คค": 7233,
    "คู": 7332,
    "ูน": 9378,
    " แร": 914,
    "แรค": 9646,
    "รคค": 8301,
    "คคู": 7236,
    "คูน": 7333,
    "ูน ": 9379,
    " แรค": 915,
    "แรคค": 9647,
    "รคคู": 8302,
    "คคูน": 7237,
    "คูน ": 7334,
    "ocy": 4778,
    "cyo": 2054,
    "yon": 7032,
    " pro": 531,
    "proc": 5386,
    "rocy": 5774,
    "ocyo": 4779,
    "cyon": 2055,
    "yon ": 7033,
    "oto": 5117,
    " lot": 386,
    "loto": 4082,
    "otor": 5120,
    "mis": 4282,
    "sch": 5973,
    "hie": 3155,
    "iev": 3398,
    "evo": 2761,
    " mis": 423,
    "misc": 4284,
    "isch": 3632,
    "schi": 5974,
    "chie": 1852,
    "hiev": 3156,
    "ievo": 3399,
    "evou": 2762,
    "ipe": 3592,
    "ped": 5237,
    "trip": 6467,
    "ripe": 5699,
    "iped": 3593,
    "ped ": 5238,
    "ku": 3803,
    "sku": 6083,
    "kun": 3806,
    "unk": 6681,
    " sku": 618,
    "skun": 6084,
    "kunk": 3807,
    "unk ": 6682,
    " ส": 854,
    "งก": 7351,
    "ก์": 7221,
    " สก": 855,
    "สกั": 8652,
    "กัง": 7155,
    "ังก": 8948,
    "งก์": 7352,
    "ก์ ": 7222,
    " สกั": 856,
    "สกัง": 8653,
    "กังก": 7156,
    "ังก์": 8949,
    "งก์ ": 7353,
    "mep": 4247,
    " mep": 413,
    "meph": 4248,
    "ephi": 2584,
    "phit": 5277,
    "hiti": 3178,
    "itis": 3669,
    "y-": 6936,
    "-r": 997,
    "spr": 6131,
    "ray": 5528,
    "ay-": 1573,
    "y-r": 6937,
    "-ri": 998,
    "isk": 3639,
    "sk ": 6077,
    " spr": 636,
    "spra": 6132,
    "pray": 5377,
    "ray-": 5530,
    "ay-r": 1574,
    "y-ri": 6938,
    "-ris": 999,
    "risk": 5705,
    "isk ": 3640,
    " wa": 716,
    "wal": 6859,
    "lab": 3821,
    "aby": 1048,
    "by ": 1736,
    " wal": 717,
    "wall": 6860,
    "alla": 1240,
    "llab": 4017,
    "laby": 3824,
    "aby ": 1049,
    "วอ": 8610,
    " วอ": 850,
    "วอล": 8613,
    "อลล": 8847,
    "ลลา": 8492,
    "ลาบ": 8514,
    "าบี": 9070,
    "บี ": 8001,
    " วอล": 851,
    "วอลล": 8614,
    "อลลา": 8848,
    "ลลาบ": 8493,
    "ลาบี": 8515,
    "าบี ": 9071,
    "crop": 2002,
    "ropu": 5803,
    "uf": 6594,
    "ruf": 5888,
    "ufo": 6603,
    "fog": 2857,
    "ogr": 4828,
    "seu": 6018,
    "eus": 2752,
    " ruf": 584,
    "rufo": 5892,
    "ufog": 6604,
    "fogr": 2858,
    "ogri": 4830,
    "gris": 3041,
    "rise": 5704,
    "iseu": 3636,
    "seus": 6020,
    "eus ": 2753,
    "omm": 4900,
    "mmo": 4296,
    " com": 133,
    "comm": 1964,
    "ommo": 4901,
    "mmon": 4297,
    "mon ": 4312,
    "mar": 4193,
    "arm": 1433,
    "mos": 4322,
    "set": 6016,
    " mar": 402,
    "marm": 4197,
    "armo": 1435,
    "rmos": 5746,
    "mose": 4323,
    "oset": 5080,
    "set ": 6017,
    "โม": 9717,
    "เส": 9573,
    "สท": 8681,
    "มาร": 8200,
    "ร์โ": 8458,
    "์โม": 10008,
    "โมเ": 9718,
    "มเส": 8226,
    "เสท": 9574,
    "สท ": 8682,
    " มาร": 838,
    "มาร์": 8201,
    "าร์โ": 9118,
    "ร์โม": 8459,
    "์โมเ": 10009,
    "โมเส": 9719,
    "มเสท": 8227,
    "เสท ": 9575,
    "thr": 6330,
    "llit": 4031,
    "lith": 4003,
    "ithr": 3666,
    "thri": 6332,
    "hrix": 3236,
    "cch": 1807,
    "jacc": 3715,
    "acch": 1059,
    "cchu": 1808,
    "cap": 1775,
    "apu": 1380,
    "puc": 5412,
    " cap": 102,
    "capu": 1779,
    "apuc": 1381,
    "puch": 5413,
    "uchi": 6559,
    "hin ": 3164,
    "onk": 4948,
    "nke": 4604,
    "key": 3765,
    "ey ": 2777,
    "monk": 4317,
    "onke": 4949,
    "nkey": 4605,
    "key ": 3766,
    "าป": 9072,
    "ปู": 8030,
    "ูช": 9367,
    " คา": 750,
    "คาป": 7313,
    "าปู": 9073,
    "ปูช": 8031,
    "ูชิ": 9368,
    " คาป": 752,
    "คาปู": 7314,
    "าปูช": 9074,
    "ปูชิ": 8032,
    "ูชิน": 9369,
    "ชิน ": 7473,
    "ceb": 1814,
    "ebu": 2323,
    "bus": 1730,
    " ceb": 109,
    "cebu": 1815,
    "ebus": 2324,
    "bus ": 1731,
    "uci": 6561,
    "puci": 5414,
    "ucin": 6563,
    "cinu": 1897,
    "civ": 1907,
    "vet": 6812,
    " civ": 123,
    "cive": 1908,
    "ivet": 3699,
    "vet ": 6813,
    "ชะ": 7468,
    "ะม": 8933,
    "มด": 8156,
    " ชะ": 776,
    "ชะม": 7469,
    "ะมด": 8934,
    "มด ": 8157,
    " ชะม": 777,
    "ชะมด": 7470,
    "ะมด ": 8935,
    "xu": 6932,
    "rad": 5473,
    "ado": 1113,
    "dox": 2224,
    "oxu": 5189,
    "xur": 6933,
    "para": 5218,
    "arad": 1390,
    "rado": 5475,
    "adox": 1114,
    "doxu": 2225,
    "oxur": 5190,
    "xuru": 6934,
    "map": 4190,
    "hro": 3237,
    "dit": 2176,
    "rmap": 5740,
    "maph": 4192,
    "aphr": 1368,
    "phro": 5286,
    "hrod": 3239,
    "rodi": 5777,
    "odit": 4793,
    "ditu": 2178,
    "itus": 3683,
    "ind": 3516,
    "dep": 2131,
    "epe": 2580,
    "pen": 5244,
    " ind": 332,
    "inde": 3517,
    "ndep": 4467,
    "depe": 2132,
    "epen": 2581,
    "pend": 5245,
    "ende": 2522,
    "nden": 4466,
    "aj": 1191,
    "jo": 3734,
    "nka": 4602,
    "kaj": 3745,
    "ajo": 1192,
    "jou": 3737,
    "ou ": 5131,
    "inka": 3545,
    "nkaj": 4603,
    "kajo": 3746,
    "ajou": 1194,
    "jou ": 3738,
    "จู": 7448,
    "คิน": 7325,
    "ินค": 9209,
    "คาจ": 7305,
    "าจู": 9039,
    "จู ": 7449,
    " คิน": 754,
    "คินค": 7326,
    "ินคา": 9210,
    "นคาจ": 7815,
    "คาจู": 7306,
    "าจู ": 9040,
    "pot": 5357,
    "tos": 6440,
    " pot": 524,
    "poto": 5359,
    "otos": 5121,
    "tos ": 6441,
    "fla": 2850,
    "lav": 3864,
    "avu": 1557,
    "vus": 6848,
    " fla": 241,
    "flav": 2851,
    "lavu": 3865,
    "avus": 1558,
    "vus ": 6849,
    "coc": 1947,
    "cka": 1913,
    "tie": 6351,
    " coc": 130,
    "cock": 1950,
    "ocka": 4770,
    "ckat": 1914,
    "kati": 3749,
    "atie": 1503,
    "tiel": 6352,
    "iel ": 3383,
    "ค็": 7341,
    "กค": 7109,
    " ค็": 756,
    "ค็อ": 7342,
    "อกค": 8758,
    "กคา": 7110,
    "าเท": 9152,
    "ทล ": 7744,
    " ค็อ": 757,
    "ค็อก": 7343,
    "็อกค": 9798,
    "อกคา": 8759,
    "กคาเ": 7112,
    "คาเท": 7318,
    "าเทล": 9153,
    "เทล ": 9497,
    "ym": 7016,
    " ny": 461,
    "nym": 4722,
    "ymp": 7019,
    "hic": 3152,
    " nym": 462,
    "nymp": 4723,
    "ymph": 7020,
    "phic": 5274,
    "hicu": 3154,
    "hol": 3207,
    "oll": 4867,
    " hol": 311,
    "holl": 3208,
    "olla": 4868,
    "llan": 4018,
    "land": 3841,
    "ndic": 4472,
    "dicu": 2156,
    "bir": 1650,
    "ird": 3611,
    " bir": 69,
    "bird": 1651,
    "ird ": 3612,
    "arr": 1443,
    "rot": 5813,
    "ot ": 5098,
    "parr": 5220,
    "arro": 1444,
    "rrot": 5847,
    "rot ": 5814,
    "rey": 5623,
    "grey": 3038,
    "rey ": 5624,
    "รย": 8326,
    "ันเ": 8980,
    "นเก": 7913,
    "เกร": 9437,
    "กรย": 7130,
    "รย์": 8327,
    "กันเ": 7160,
    "ันเก": 8981,
    "นเกร": 7914,
    "เกรย": 9438,
    "กรย์": 7131,
    "รย์ ": 8328,
    " ps": 532,
    "psi": 5397,
    " psi": 534,
    "psit": 5399,
    "sitt": 6073,
    "ttac": 6488,
    "tacu": 6230,
    "acus": 1099,
    "tha": 6317,
    " eri": 210,
    "erit": 2635,
    "rith": 5709,
    "itha": 3664,
    "thac": 6318,
    "hacu": 3077,
    "-g": 988,
    "e-a": 2271,
    "d-g": 2071,
    "-go": 989,
    "old": 4854,
    "ld ": 3887,
    "ue-a": 6584,
    "e-an": 2272,
    "nd-g": 4457,
    "d-go": 2072,
    "-gol": 990,
    "gold": 3011,
    "old ": 4855,
    "aw": 1559,
    "caw": 1802,
    "aw ": 1560,
    "maca": 4166,
    "acaw": 1057,
    "caw ": 1803,
    "์ม": 9952,
    "ลูแ": 8550,
    "ูแอ": 9419,
    "แอน": 9664,
    "อนด": 8791,
    "นด์": 7830,
    "ด์โ": 7624,
    "์โก": 10004,
    "โกล": 9672,
    "กลด": 7137,
    "ด์ม": 7622,
    "์มา": 9953,
    "มาค": 8193,
    "คอว": 7297,
    "อว์": 8854,
    "ว์ ": 8638,
    "บลูแ": 7969,
    "ลูแอ": 8551,
    "ูแอน": 9420,
    "แอนด": 9665,
    "อนด์": 8792,
    "นด์โ": 7831,
    "ด์โก": 7625,
    "์โกล": 10005,
    "โกลด": 9673,
    "กลด์": 7138,
    "ลด์ม": 8476,
    "ด์มา": 7623,
    "์มาค": 9954,
    "มาคอ": 8194,
    "าคอว": 9031,
    "คอว์": 7298,
    "อว์ ": 8855,
    " ara": 37,
    "ara ": 1388,
    "rar": 5508,
    "rau": 5520,
    "aun": 1538,
    "una": 6667,
    "arar": 1394,
    "rara": 5509,
    "arau": 1396,
    "raun": 5521,
    "auna": 1539,
    "una ": 6668,
    "rl": 5728,
    "sca": 5968,
    "arl": 1430,
    "rle": 5729,
    "let": 3939,
    " sca": 594,
    "scar": 5970,
    "carl": 1786,
    "arle": 1431,
    "rlet": 5731,
    "let ": 3940,
    "ล็": 8571,
    "ตม": 7636,
    "สกา": 8654,
    "์เล": 9989,
    "เล็": 9568,
    "ล็ต": 8574,
    "็ตม": 9788,
    "ตมา": 7637,
    " สกา": 857,
    "สการ": 8655,
    "ร์เล": 8453,
    "์เล็": 9990,
    "เล็ต": 9569,
    "ล็ตม": 8575,
    "็ตมา": 9789,
    "ตมาค": 7638,
    "ao": 1355,
    "cao": 1773,
    "ao ": 1356,
    "acao": 1054,
    "cao ": 1774,
    "lou": 4083,
    "oud": 5135,
    "ud ": 6569,
    " lou": 387,
    "loud": 4084,
    "oud ": 5136,
    " hy": 317,
    "hya": 3264,
    "yac": 6948,
    "aci": 1071,
    "th ": 6316,
    " hya": 318,
    "hyac": 3265,
    "yaci": 6949,
    "acin": 1073,
    "cint": 1896,
    "inth": 3559,
    "nth ": 4686,
    "ไฮ": 9764,
    "ฮย": 8914,
    "าซ": 9041,
    "ซิ": 7508,
    "ธ์": 7795,
    " ไฮ": 946,
    "ไฮย": 9765,
    "ฮยา": 8915,
    "ยาซ": 8282,
    "าซิ": 9042,
    "ซิน": 7509,
    "ินธ": 9214,
    "นธ์": 7843,
    "ธ์ม": 7796,
    " ไฮย": 947,
    "ไฮยา": 9766,
    "ฮยาซ": 8916,
    "ยาซิ": 8283,
    "าซิน": 9043,
    "ซินธ": 7510,
    "ินธ์": 9215,
    "นธ์ม": 7844,
    "ธ์มา": 7797,
    "ano": 1335,
    "nod": 4628,
    "orh": 5031,
    "rhy": 5649,
    "hyn": 3275,
    "ync": 7024,
    " ano": 30,
    "anod": 1337,
    "nodo": 4630,
    "odor": 4797,
    "dorh": 2213,
    "orhy": 5032,
    "rhyn": 5650,
    "hync": 3276,
    "ynch": 7025,
    "nchu": 4439,
    "thi": 6325,
    "nthi": 4688,
    "thin": 6326,
    "hinu": 3168,
    " hu": 315,
    "hug": 3251,
    "uge": 6608,
    "ge ": 2930,
    " hug": 316,
    "huge": 3252,
    "uge ": 6609,
    "un ": 6666,
    "sun ": 6198,
    "onu": 4960,
    "ure": 6707,
    "conu": 1967,
    "onur": 4962,
    "nure": 4711,
    "ure ": 6708,
    "นั": 7881,
    "วร": 8607,
    " ซั": 783,
    "นคอ": 7812,
    "อนั": 8797,
    "นัว": 7882,
    "ัวร": 9006,
    "วร์": 8608,
    " ซัน": 784,
    "ซันค": 7499,
    "ันคอ": 8968,
    "นคอน": 7813,
    "คอนั": 7294,
    "อนัว": 8798,
    "นัวร": 7883,
    "ัวร์": 9007,
    "วร์ ": 8609,
    "nga": 4537,
    "ga ": 2900,
    "arat": 1395,
    "rati": 5516,
    "atin": 1505,
    "ting": 6367,
    "inga": 3533,
    "nga ": 4538,
    "ols": 4875,
    "lst": 4106,
    "tit": 6377,
    "tia": 6343,
    "sols": 6107,
    "olst": 4876,
    "lsti": 4107,
    "stit": 6165,
    "titi": 6378,
    "itia": 3668,
    "tial": 6345,
    "iali": 3304,
    "ver": 6804,
    " ver": 705,
    "very": 6808,
    "ery ": 2679,
    "n-": 4388,
    "-c": 966,
    "en-": 2513,
    "n-c": 4389,
    "-ch": 969,
    "hee": 3114,
    "eek": 2383,
    "ek ": 2433,
    "een-": 2389,
    "en-c": 2514,
    "n-ch": 4390,
    "-che": 970,
    "chee": 1845,
    "heek": 3115,
    "eek ": 2384,
    "ชี": 7477,
    "ีค": 9265,
    "ีนช": 9275,
    "นชี": 7820,
    "ชีค": 7478,
    "ีคค": 9266,
    "คคอ": 7234,
    "รีนช": 8382,
    "ีนชี": 9276,
    "นชีค": 7821,
    "ชีคค": 7479,
    "ีคคอ": 9267,
    "คคอน": 7235,
    "pyr": 5430,
    "yrr": 7057,
    "rrh": 5839,
    "rhu": 5647,
    " pyr": 545,
    "pyrr": 5431,
    "yrrh": 7058,
    "rrhu": 5841,
    "rhur": 5648,
    "hura": 3255,
    "mol": 4308,
    "lin": 3987,
    "nae": 4399,
    " mol": 427,
    "moli": 4309,
    "olin": 4864,
    "lina": 3988,
    "inae": 3505,
    "nae ": 4400,
    "lov": 4085,
    "ove": 5158,
    "veb": 6795,
    "ebi": 2318,
    " lov": 388,
    "love": 4086,
    "oveb": 5160,
    "vebi": 6796,
    "ebir": 2319,
    "ฟเ": 8135,
    "เลิ": 9563,
    "ิฟเ": 9221,
    "ฟเบ": 8136,
    "เบิ": 9518,
    "บิร": 7994,
    "์ด ": 9920,
    " เลิ": 897,
    "เลิฟ": 9564,
    "ลิฟเ": 8532,
    "ิฟเบ": 9222,
    "ฟเบิ": 8137,
    "เบิร": 9519,
    "บิร์": 7995,
    "ร์ด ": 8425,
    "gap": 2912,
    "apo": 1373,
    "agap": 1148,
    "gapo": 2913,
    "apor": 1374,
    "porn": 5353,
    "rnis": 5757,
    "sei": 5998,
    "eic": 2424,
    "rose": 5810,
    "osei": 5077,
    "seic": 5999,
    "eico": 2426,
    "coll": 1959,
    "olli": 4869,
    "llis": 4030,
    "rig": 5676,
    "dger": 2145,
    "geri": 2954,
    "erig": 2631,
    "riga": 5677,
    "igar": 3418,
    "หง": 8728,
    "์ห": 9958,
    "หย": 8743,
    "ยก": 8244,
    " หง": 859,
    "หงส": 8729,
    "งส์": 7380,
    "ส์ห": 8724,
    "์หย": 9959,
    "หยก": 8744,
    "ยก ": 8245,
    " หงส": 860,
    "หงส์": 8730,
    "งส์ห": 7381,
    "ส์หย": 8725,
    "์หยก": 9960,
    "หยก ": 8745,
    " mel": 411,
    "melo": 4244,
    "lops": 4072,
    "opsi": 5005,
    "du": 2249,
    "und": 6671,
    "ndu": 4484,
    "dul": 2252,
    " und": 693,
    "undu": 6673,
    "ndul": 4486,
    "dula": 2253,
    " ec": 191,
    "ecl": 2336,
    "lec": 3909,
    " ecl": 193,
    "ecle": 2337,
    "clec": 1930,
    "lect": 3911,
    "ectu": 2349,
    "เอ": 9579,
    "คเ": 7335,
    "ตั": 7658,
    " เอ": 898,
    "เอค": 9580,
    "อคเ": 8772,
    "คเค": 7336,
    "เคล": 9456,
    "คล็": 7283,
    "ล็ค": 8572,
    "็คต": 9772,
    "คตั": 7240,
    "ตัส": 7663,
    "ัส ": 9009,
    " เอค": 899,
    "เอคเ": 9581,
    "อคเค": 8773,
    "คเคล": 7337,
    "เคล็": 9457,
    "คล็ค": 7284,
    "ล็คต": 8573,
    "็คตั": 9773,
    "คตัส": 7241,
    "ตัส ": 7664,
    "ror": 5804,
    " ror": 579,
    "rora": 5806,
    "orat": 5021,
    "e-f": 2277,
    "-fr": 984,
    "ont": 4957,
    "ue-f": 6585,
    "e-fr": 2278,
    "-fro": 985,
    "fron": 2875,
    "ront": 5797,
    "onte": 4958,
    "nted": 4681,
    "az": 1584,
    "zo": 7102,
    "maz": 4210,
    "azo": 1585,
    "zon": 7103,
    " ama": 22,
    "amaz": 1268,
    "mazo": 4211,
    "azon": 1586,
    "zon ": 7104,
    "ูฟ": 9386,
    "นต": 7832,
    "์อ": 9961,
    "อะ": 8867,
    "ะเ": 8941,
    "มซ": 8153,
    "ซอ": 7494,
    "ลูฟ": 8548,
    "ูฟร": 9387,
    "ฟรอ": 8102,
    "รอน": 8349,
    "อนต": 8793,
    "นต์": 7833,
    "ต์อ": 7712,
    "์อะ": 9962,
    "อะเ": 8868,
    "ะเม": 8942,
    "เมซ": 9537,
    "มซอ": 8154,
    "ซอน": 7495,
    "บลูฟ": 7968,
    "ลูฟร": 8549,
    "ูฟรอ": 9388,
    "ฟรอน": 8103,
    "รอนต": 8350,
    "อนต์": 8794,
    "นต์อ": 7834,
    "ต์อะ": 7713,
    "์อะเ": 9963,
    "อะเม": 8869,
    "ะเมซ": 8943,
    "เมซอ": 9538,
    "มซอน": 8155,
    "ซอน ": 7496,
    "zona": 7105,
    " ae": 7,
    "aes": 1135,
    "iva": 3694,
    "va ": 6778,
    " aes": 9,
    "aest": 1136,
    "stiv": 6166,
    "tiva": 6381,
    "iva ": 3695,
    " ta": 654,
    "alk": 1236,
    "lka": 4009,
    " tal": 656,
    "talk": 6242,
    "alka": 1237,
    "lkat": 4010,
    "ativ": 1508,
    " um": 690,
    "umb": 6658,
    " umb": 691,
    "umbr": 6660,
    "mbre": 4226,
    "brel": 1705,
    "rell": 5600,
    "ella": 2464,
    "too": 6428,
    "oo ": 4970,
    "kato": 3750,
    "atoo": 1514,
    "too ": 6429,
    "ัม": 8987,
    "รล": 8331,
    "ทู": 7763,
    "อัม": 8871,
    "ัมเ": 8988,
    "มเบ": 8222,
    "เบร": 9514,
    "บรล": 7950,
    "รลล": 8332,
    "ลล่": 8498,
    "่าค": 9833,
    "าค็": 9034,
    "คาท": 7309,
    "าทู": 9052,
    "ทู ": 7764,
    " อัม": 869,
    "อัมเ": 8872,
    "ัมเบ": 8989,
    "มเบร": 8223,
    "เบรล": 9515,
    "บรลล": 7951,
    "รลล่": 8333,
    "ลล่า": 8499,
    "ล่าค": 8579,
    "่าค็": 9834,
    "าค็อ": 9035,
    "กคาท": 7111,
    "คาทู": 7310,
    "าทู ": 9053,
    "cac": 1747,
    "tua": 6499,
    " cac": 96,
    "caca": 1748,
    "acat": 1056,
    "catu": 1796,
    "atua": 1524,
    "tua ": 6500,
    "lba": 3874,
    "ba ": 1593,
    "alba": 1219,
    "lba ": 3875,
    "dem": 2122,
    "din": 2164,
    " dem": 164,
    "dema": 2123,
    "eman": 2489,
    "ndin": 4473,
    "ding": 2167,
    "r-": 5451,
    "lph": 4096,
    "ur-": 6699,
    "r-c": 5454,
    "-cr": 971,
    "sulp": 6193,
    "ulph": 6647,
    "lphu": 4098,
    "phur": 5292,
    "hur-": 3254,
    "ur-c": 6700,
    "r-cr": 5455,
    "-cre": 972,
    "ดค": 7546,
    "ซัล": 7501,
    "ัลเ": 8998,
    "ลเฟ": 8559,
    "์เค": 9973,
    "็ดค": 9779,
    "ดค็": 7549,
    " ซัล": 785,
    "ซัลเ": 7502,
    "ัลเฟ": 8999,
    "ลเฟอ": 8560,
    "ร์เค": 8445,
    "์เคร": 9974,
    "ต็ดค": 7693,
    "็ดค็": 9780,
    "ดค็อ": 7550,
    " gal": 255,
    "gale": 2904,
    "rita": 5708,
    "ita ": 3651,
    "dia": 2149,
    "indi": 3518,
    "ndia": 4471,
    "dian": 2152,
    " ri": 570,
    "ngn": 4549,
    "gne": 3002,
    " rin": 572,
    "ring": 5690,
    "ingn": 3536,
    "ngne": 4550,
    "gnec": 3003,
    "neck": 4496,
    "eck ": 2334,
    "งเ": 7416,
    "น็": 7934,
    "คพ": 7251,
    "คี": 7329,
    "ีท": 9271,
    " ริ": 847,
    "ริง": 8376,
    "ิงเ": 9189,
    "งเน": 7417,
    "เน็": 9511,
    "น็ค": 7935,
    "็คพ": 9774,
    "คพา": 7252,
    "พาร": 8072,
    "ารา": 9107,
    "ราค": 8366,
    "าคี": 9032,
    "คีท": 7330,
    "ีท ": 9272,
    " ริง": 848,
    "ริงเ": 8377,
    "ิงเน": 9190,
    "งเน็": 7418,
    "เน็ค": 9512,
    "น็คพ": 7936,
    "็คพา": 9775,
    "คพาร": 7253,
    "พารา": 8073,
    "าราค": 9108,
    "ราคี": 8367,
    "าคีท": 9033,
    "คีท ": 7331,
    "ula ": 6629,
    "kr": 3797,
    " kr": 356,
    "kra": 3798,
    " kra": 357,
    "kram": 3799,
    "rame": 5492,
    "amer": 1276,
    "eri ": 2628,
    "k-": 3740,
    "-h": 991,
    "bla": 1659,
    "lac": 3825,
    "ck-": 1911,
    "k-h": 3741,
    "-he": 992,
    "hea": 3107,
    "ead": 2290,
    "ade": 1109,
    " bla": 73,
    "blac": 1660,
    "lack": 3826,
    "ack-": 1077,
    "ck-h": 1912,
    "k-he": 3742,
    "-hea": 993,
    "head": 3108,
    "eade": 2292,
    "aded": 1110,
    "aiq": 1182,
    "que": 5442,
    "ue ": 6582,
    "caiq": 1753,
    "aiqu": 1183,
    "ique": 3606,
    "que ": 5443,
    "ิค": 9184,
    "ไคอ": 9738,
    "คอิ": 7299,
    "อิค": 8889,
    "ิค ": 9185,
    " ไคอ": 938,
    "ไคอิ": 9739,
    "คอิค": 7300,
    "อิค ": 8890,
    "pio": 5318,
    " pio": 511,
    "pion": 5319,
    "ioni": 3577,
    "nite": 4591,
    "ites": 3662,
    "noc": 4626,
    "mela": 4242,
    "elan": 2440,
    "lano": 3843,
    "anoc": 1336,
    "noce": 4627,
    "ocep": 4756,
    "wn": 6887,
    "clo": 1936,
    "own": 5176,
    "wni": 6891,
    "ish": 3637,
    "sh ": 6029,
    " clo": 127,
    "clow": 1937,
    "lown": 4091,
    "owni": 5179,
    "wnis": 6892,
    "nish": 4589,
    "ish ": 3638,
    "ene": 2526,
    "neg": 4499,
    "sene": 6005,
    "eneg": 2528,
    "nega": 4500,
    "egal": 2409,
    "gal ": 2902,
    "ซเ": 7526,
    "อต": 8782,
    " เซ": 877,
    "เซเ": 9473,
    "ซเน": 7527,
    "นกั": 7803,
    "กัล": 7162,
    "ัลพ": 8994,
    "ลพา": 8481,
    "าร็": 9111,
    "็อต": 9801,
    "อต ": 8783,
    " เซเ": 878,
    "เซเน": 9474,
    "ซเนก": 7528,
    "เนกั": 9507,
    "นกัล": 7804,
    "กัลพ": 7164,
    "ัลพา": 8995,
    "ลพาร": 8482,
    "พาร็": 8074,
    "าร็อ": 9112,
    "ร็อต": 8406,
    "็อต ": 9802,
    "oic": 4833,
    "poic": 5345,
    "oice": 4834,
    "galu": 2905,
    "ady": 1119,
    " ste": 641,
    "stea": 6154,
    "tead": 6274,
    "eady": 2293,
    "ady ": 1120,
    " q": 548,
    " qu": 549,
    "uak": 6532,
    "ker": 3763,
    " qua": 550,
    "quak": 5440,
    "uake": 6533,
    "aker": 1201,
    "ker ": 3764,
    "คว": 7285,
    "วก": 8585,
    "์พ": 9944,
    "เคว": 9458,
    "ควก": 7286,
    "วกเ": 8586,
    "กเก": 7185,
    "ร์พ": 8436,
    "์พา": 9945,
    " เคว": 876,
    "เควก": 9459,
    "ควกเ": 7287,
    "วกเก": 8587,
    "กเกอ": 7186,
    "อร์พ": 8840,
    "ร์พา": 8437,
    "์พาร": 9946,
    " my": 436,
    "yio": 7000,
    "iop": 3579,
    " myi": 437,
    "myio": 4377,
    "yiop": 7001,
    "iops": 3581,
    "nac": 4397,
    "mona": 4313,
    "onac": 4921,
    "nach": 4398,
    "zeb": 7092,
    " zeb": 737,
    "zebr": 7093,
    "ebra": 2321,
    "fin": 2838,
    "ch ": 1839,
    " fin": 237,
    "finc": 2841,
    "nch ": 4436,
    "ีบ": 9281,
    "ร้": 8410,
    "าฟ": 9080,
    "ฟิ": 8125,
    "ช์": 7489,
    " ซี": 790,
    "ซีบ": 7515,
    "ีบร": 9282,
    "บร้": 7956,
    "ร้า": 8411,
    "้าฟ": 9888,
    "าฟิ": 9081,
    "ฟิน": 8130,
    "นช์": 7822,
    "ช์ ": 7490,
    " ซีบ": 791,
    "ซีบร": 7516,
    "ีบร้": 9283,
    "บร้า": 7957,
    "ร้าฟ": 8412,
    "้าฟิ": 9889,
    "าฟิน": 9082,
    "ฟินช": 8131,
    "ินช์": 9213,
    "นช์ ": 7823,
    "tae": 6231,
    "aen": 1129,
    "nio": 4584,
    "ygi": 6989,
    " tae": 655,
    "taen": 6232,
    "aeni": 1130,
    "enio": 2536,
    "niop": 4586,
    "iopy": 3583,
    "opyg": 5011,
    "pygi": 5428,
    "ygia": 6990,
    "gia ": 2973,
    "tata": 6258,
    "jav": 3726,
    " jav": 342,
    "java": 3727,
    "ava ": 1551,
    "spa": 6118,
    " spa": 632,
    "spar": 6120,
    "row ": 5823,
    "ชว": 7462,
    "วา": 8620,
    "แป": 9624,
    "ปร": 8015,
    " ชว": 774,
    "ชวา": 7463,
    "วาส": 8623,
    "สแป": 8714,
    "แปร": 9625,
    "ปร์": 8016,
    "์โร": 10010,
    "โรว": 9727,
    "รว์": 8339,
    " ชวา": 775,
    "ชวาส": 7464,
    "วาสแ": 8624,
    "าสแป": 9139,
    "สแปร": 8715,
    "แปร์": 9626,
    "ปร์โ": 8017,
    "ร์โร": 8460,
    "์โรว": 10011,
    "โรว์": 9729,
    "รว์ ": 8340,
    "pad": 5202,
    "add": 1106,
    "dda": 2106,
    " pad": 492,
    "padd": 5203,
    "adda": 1107,
    "dda ": 2107,
    "yz": 7085,
    "zi": 7098,
    "ory": 5064,
    "ryz": 5933,
    "yzi": 7086,
    "ziv": 7100,
    " ory": 483,
    "oryz": 5066,
    "ryzi": 5934,
    "yziv": 7087,
    "zivo": 7101,
    "vora": 6837,
    "cana": 1769,
    "anar": 1300,
    "nary": 4417,
    "นา": 7884,
    "่ ": 9803,
    "คาน": 7311,
    "านา": 9059,
    "นาร": 7885,
    "ารี": 9109,
    "ี่ ": 9310,
    " คาน": 751,
    "คานา": 7312,
    "านาร": 9060,
    "นารี": 7886,
    "ารี่": 9110,
    "รี่ ": 8392,
    "ser": 6009,
    " ser": 604,
    "seri": 6011,
    "erin": 2633,
    "aria": 1420,
    "gb": 2923,
    "ngb": 4540,
    "gbi": 2924,
    " son": 629,
    "song": 6113,
    "ongb": 4937,
    "ngbi": 4541,
    "gbir": 2925,
    "co ": 1944,
    " toc": 675,
    "toco": 6407,
    "oco ": 4772,
    "tou": 6446,
    "ouc": 5132,
    "uca": 6553,
    " tou": 679,
    "touc": 6447,
    "ouca": 5133,
    "ucan": 6554,
    "ทโ": 7772,
    "คท": 7242,
    "โทโ": 9700,
    "ทโค": 7773,
    "โคท": 9678,
    "คทู": 7245,
    "ทูแ": 7765,
    "ูแค": 9413,
    "แคน": 9605,
    "คน ": 7248,
    " โทโ": 929,
    "โทโค": 9701,
    "ทโคท": 7774,
    "โคทู": 9679,
    "คทูแ": 7246,
    "ทูแค": 7766,
    "ูแคน": 9414,
    "แคน ": 9606,
    "has": 3100,
    " ram": 555,
    "ramp": 5493,
    "mpha": 4339,
    "phas": 5266,
    "hast": 3101,
    "asto": 1473,
    "stos": 6171,
    " hil": 307,
    "ill ": 3465,
    "myn": 4380,
    "yna": 7022,
    " myn": 439,
    "myna": 4381,
    "yna ": 7023,
    "อี": 8891,
    "งค": 7354,
    "คำ": 7320,
    "ำ ": 9167,
    " นก": 807,
    "นกเ": 7805,
    "กเอ": 7191,
    "เอี": 9584,
    "อี้": 8892,
    "ยงค": 8247,
    "งคำ": 7357,
    "คำ ": 7321,
    " นกเ": 808,
    "นกเอ": 7806,
    "กเอี": 7192,
    "เอี้": 9585,
    "อี้ย": 8893,
    "้ยงค": 9871,
    "ยงคำ": 8248,
    "งคำ ": 7358,
    "grac": 3030,
    "racu": 5472,
    "igi": 3425,
    "gio": 2981,
    "ios": 3584,
    "osa": 5069,
    "sa ": 5946,
    " rel": 563,
    "elig": 2460,
    "ligi": 3984,
    "igio": 3426,
    "gios": 2982,
    "iosa": 3586,
    "osa ": 5070,
    "sta": 6148,
    "rli": 5733,
    " sta": 640,
    "star": 6152,
    "tarl": 6255,
    "arli": 1432,
    "rlin": 5734,
    "ling": 3990,
    " vo": 710,
    "voc": 6832,
    "oca": 4751,
    " voc": 711,
    "voca": 6833,
    "ocal": 4752,
    "cal ": 1757,
    " as": 43,
    " asi": 44,
    "asia": 1460,
    "aro": 1438,
    "owa": 5170,
    "wan": 6862,
    " aro": 42,
    "arow": 1439,
    "rowa": 5824,
    "owan": 5171,
    "wana": 6863,
    "เช": 9465,
    "อโ": 8902,
    "เอเ": 9586,
    "อเช": 8895,
    "เชี": 9468,
    "ชีย": 7480,
    "ยนอ": 8265,
    "นอโ": 7876,
    "อโร": 8903,
    "รวา": 8337,
    "วาน": 8621,
    "าน่": 9063,
    " เอเ": 900,
    "เอเช": 9587,
    "อเชี": 8896,
    "เชีย": 9469,
    "ชียน": 7481,
    "ียนอ": 9294,
    "ยนอโ": 8266,
    "นอโร": 7877,
    "อโรว": 8904,
    "โรวา": 9728,
    "รวาน": 8338,
    "วาน่": 8622,
    "าน่า": 9064,
    "scl": 5980,
    "pag": 5204,
    "age": 1151,
    "ges": 2957,
    " scl": 597,
    "scle": 5981,
    "cler": 1933,
    "lero": 3934,
    "ropa": 5799,
    "opag": 4984,
    "page": 5205,
    "ages": 1152,
    "ges ": 2958,
    " for": 245,
    "form": 2862,
    "mosu": 4325,
    " aq": 34,
    " aqu": 35,
    "fis": 2845,
    " fis": 239,
    "fish": 2846,
    "pre": 5378,
    "eda": 2357,
    "dat": 2090,
    " pre": 529,
    "pred": 5379,
    "reda": 5583,
    "edat": 2358,
    "dato": 2092,
    "tory": 6439,
    "ory ": 5065,
    "lv": 4142,
    "sil": 6058,
    "ilv": 3478,
    "lve": 4145,
    " sil": 613,
    "silv": 6061,
    "ilve": 3479,
    "lver": 4146,
    "ver ": 6805,
    "เว": 9570,
    " ซิ": 788,
    "ซิล": 7511,
    "ิลเ": 9235,
    "ลเว": 8563,
    "เวอ": 9571,
    "วอร": 8611,
    "ร์อ": 8440,
    "์อโ": 9964,
    " ซิล": 789,
    "ซิลเ": 7512,
    "ิลเว": 9236,
    "ลเวอ": 8564,
    "เวอร": 9572,
    "วอร์": 8612,
    "อร์อ": 8842,
    "ร์อโ": 8441,
    "์อโร": 9965,
    " os": 484,
    "ost": 5086,
    "teo": 6291,
    "eog": 2564,
    "ogl": 4822,
    "glo": 2992,
    "los": 4076,
    "oss": 5083,
    "ssu": 6142,
    " ost": 486,
    "oste": 5088,
    "steo": 6157,
    "teog": 6292,
    "eogl": 2565,
    "oglo": 4823,
    "glos": 2993,
    "loss": 4078,
    "ossu": 5084,
    "ssum": 6143,
    "sum ": 6195,
    "bic": 1638,
    "cir": 1901,
    "rho": 5643,
    "hos": 3219,
    " bic": 68,
    "bici": 1640,
    "icir": 3348,
    "cirr": 1902,
    "irrh": 3625,
    "rrho": 5840,
    "rhos": 5646,
    "hosu": 3221,
    "osum": 5093,
    " di": 167,
    " dis": 171,
    "ิส": 9244,
    "สค": 8660,
    "คั": 7301,
    " ดิ": 799,
    "ดิส": 7595,
    "ิสค": 9245,
    "สคั": 8661,
    "คัส": 7302,
    " ดิส": 800,
    "ดิสค": 7596,
    "ิสคั": 9246,
    "สคัส": 8662,
    "คัส ": 7303,
    "sym": 6209,
    "phy": 5294,
    "hys": 3282,
    "yso": 7065,
    "sod": 6101,
    " sym": 651,
    "symp": 6210,
    "mphy": 4342,
    "phys": 5296,
    "hyso": 3285,
    "ysod": 7066,
    "sodo": 6102,
    "eq": 2597,
    "aeq": 1131,
    "equ": 2598,
    "uif": 6617,
    "ifa": 3401,
    "asc": 1457,
    " aeq": 8,
    "aequ": 1132,
    "equi": 2599,
    "quif": 5445,
    "uifa": 6618,
    "ifas": 3402,
    "fasc": 2804,
    "asci": 1458,
    "scia": 5977,
    "ciat": 1883,
    "flo": 2852,
    "erh": 2625,
    " flo": 242,
    "flow": 2853,
    "lowe": 4090,
    "werh": 6877,
    "erho": 2626,
    "rhor": 5645,
    "horn": 3216,
    " ป": 822,
    "ปล": 8018,
    "าห": 9142,
    "อส": 8857,
    "สี": 8698,
    "ฟล": 8111,
    "วเ": 8631,
    " ปล": 823,
    "ปลา": 8019,
    "ลาห": 8523,
    "าหม": 9143,
    "หมอ": 8737,
    "มอส": 8188,
    "อสี": 8860,
    "สีฟ": 8699,
    "ีฟล": 9287,
    "ฟลา": 8112,
    "ลาว": 8519,
    "าวเ": 9126,
    "วเว": 8632,
    "ร์ฮ": 8442,
    "์น ": 9936,
    " ปลา": 824,
    "ปลาห": 8022,
    "ลาหม": 8524,
    "าหมอ": 9144,
    "หมอส": 8738,
    "มอสี": 8189,
    "อสีฟ": 8861,
    "สีฟล": 8700,
    "ีฟลา": 9288,
    "ฟลาว": 8113,
    "ลาวเ": 8520,
    "าวเว": 9127,
    "วเวอ": 8633,
    "อร์ฮ": 8843,
    "ร์ฮอ": 8443,
    "์ฮอร": 9969,
    "ร์น ": 8432,
    "hl": 3181,
    "cic": 1884,
    "chl": 1857,
    "hla": 3182,
    "las": 3853,
    "aso": 1463,
    "som": 6108,
    " cic": 119,
    "cich": 1885,
    "ichl": 3342,
    "chla": 1858,
    "hlas": 3184,
    "laso": 3855,
    "asom": 1464,
    "soma": 6109,
    "yb": 6955,
    "hyb": 3266,
    "ybr": 6956,
    "id ": 3362,
    " hyb": 319,
    "hybr": 3267,
    "ybri": 6957,
    "brid": 1709,
    "rid ": 5669,
    "osc": 5072,
    " osc": 485,
    "osca": 5073,
    "car ": 1781,
    " ออ": 866,
    "ออส": 8865,
    "อสก": 8858,
    " ออส": 867,
    "ออสก": 8866,
    "อสกา": 8859,
    "าร์ ": 9114,
    "not": 4648,
    "otu": 5128,
    " ast": 47,
    "astr": 1474,
    "rono": 5795,
    "onot": 4953,
    "notu": 4652,
    "otus": 5129,
    " oce": 465,
    "ocel": 4755,
    "llat": 4020,
    "nter": 4684,
    "tera": 6297,
    "erac": 2608,
    "ract": 5471,
    "nto": 4698,
    "onto": 4959,
    "ntos": 4700,
    "tosa": 6442,
    " ฟ": 828,
    "ตซ": 7627,
    "ซ่": 7529,
    " ฟร": 829,
    "อนโ": 8805,
    "นโต": 7930,
    "โตซ": 9687,
    "ตซ่": 7628,
    "ซ่า": 7530,
    " ฟรอ": 830,
    "รอนโ": 8351,
    "อนโต": 8806,
    "นโตซ": 7931,
    "โตซ่": 9688,
    "ตซ่า": 7629,
    "ซ่า ": 7531,
    "cyp": 2056,
    "yph": 7042,
    "hot": 3222,
    "api": 1369,
    "pia": 5299,
    " cyp": 153,
    "cyph": 2057,
    "ypho": 7043,
    "phot": 5283,
    "hoti": 3223,
    "otil": 5113,
    "tila": 6358,
    "ilap": 3444,
    "lapi": 3847,
    "apia": 1370,
    "pia ": 5300,
    "mot": 4326,
    " mot": 431,
    "moto": 4327,
    "toro": 6437,
    "oro ": 5045,
    "ngr": 4554,
    "stin": 6164,
    "ingr": 3537,
    "ngra": 4555,
    "gray": 3034,
    "ray ": 5529,
    "มโ": 8231,
    "ตโ": 7685,
    "ร่": 8407,
    "่ส": 9823,
    " โม": 932,
    "โมโ": 9720,
    "มโต": 8232,
    "โตโ": 9689,
    "ตโร": 7686,
    "โร่": 9732,
    "ร่ส": 8408,
    "่สต": 9824,
    "ติง": 7673,
    "งเร": 7419,
    "เรย": 9556,
    " โมโ": 933,
    "โมโต": 9721,
    "มโตโ": 8233,
    "โตโร": 9690,
    "ตโร่": 7687,
    "โร่ส": 9733,
    "ร่สต": 8409,
    "่สติ": 9825,
    "สติง": 8677,
    "ติงเ": 7674,
    "ิงเร": 9191,
    "งเรย": 7420,
    "เรย์": 9557,
    "tam": 6243,
    "amo": 1280,
    "otr": 5123,
    "try": 6478,
    "ryg": 5920,
    "ygo": 6993,
    "pota": 5358,
    "otam": 5102,
    "tamo": 6245,
    "amot": 1282,
    "motr": 4328,
    "otry": 5125,
    "tryg": 6479,
    "rygo": 5921,
    "ygon": 6994,
    "s-": 5939,
    "omo": 4904,
    "us-": 6738,
    "s-s": 5940,
    "-sp": 1003,
    "ne ": 4488,
    " ven": 704,
    "veno": 6802,
    "enom": 2541,
    "nomo": 4636,
    "omou": 4906,
    "ous-": 5151,
    "us-s": 6739,
    "s-sp": 5941,
    "-spi": 1004,
    "spin": 6128,
    "pine": 5315,
    "ine ": 3521,
    " mb": 406,
    "mbu": 4228,
    "bu ": 1720,
    " mbu": 407,
    "mbu ": 4229,
    "ff": 2822,
    "puf": 5415,
    "uff": 6599,
    "ffe": 2823,
    " puf": 538,
    "puff": 5416,
    "uffe": 6600,
    "ffer": 2824,
    "อ็": 8905,
    "็ม": 9792,
    "มบ": 8171,
    "ูพ": 9383,
    "ัฟ": 8984,
    "เอ็": 9588,
    "อ็ม": 8906,
    "็มบ": 9793,
    "มบู": 8174,
    "บูพ": 8005,
    "ูพั": 9384,
    "พัฟ": 8069,
    "ัฟเ": 8985,
    "ฟเฟ": 8138,
    " เอ็": 901,
    "เอ็ม": 9589,
    "อ็มบ": 8907,
    "็มบู": 9794,
    "มบูพ": 8175,
    "บูพั": 8006,
    "ูพัฟ": 9385,
    "พัฟเ": 8070,
    "ัฟเฟ": 8986,
    "ฟเฟอ": 8139,
    "tet": 6308,
    "etr": 2725,
    "rao": 5502,
    "aod": 1357,
    " tet": 665,
    "tetr": 6309,
    "etra": 2726,
    "trao": 6456,
    "raod": 5503,
    "aodo": 1358,
    "fah": 2795,
    "aha": 1164,
    "hak": 3082,
    "aka": 1196,
    "ka ": 3744,
    " fah": 224,
    "faha": 2796,
    "ahak": 1165,
    "haka": 3083,
    "aka ": 1197,
    "ฟา": 8122,
    "าฮ": 9145,
    "ฮา": 8923,
    " ฟา": 831,
    "ฟาฮ": 8123,
    "าฮา": 9146,
    "ฮาก": 8924,
    "ก้า": 7219,
    "้าพ": 9886,
    "าพั": 9078,
    " ฟาฮ": 832,
    "ฟาฮา": 8124,
    "าฮาก": 9147,
    "ฮาก้": 8925,
    "าก้า": 9024,
    "ก้าพ": 7220,
    "้าพั": 9887,
    "าพัฟ": 9079,
    "eat": 2309,
    " lin": 377,
    "line": 3989,
    "neat": 4493,
    "eatu": 2312,
    "-8": 950,
    "8 ": 1038,
    "fig": 2832,
    "gur": 3064,
    "e-8": 2269,
    "-8 ": 951,
    " fig": 234,
    "figu": 2833,
    "igur": 3437,
    "gure": 3065,
    "ure-": 6709,
    "re-8": 5572,
    "e-8 ": 2270,
    "อท": 8784,
    "ทพ": 7723,
    " ฟิ": 833,
    "ฟิก": 8126,
    "์เอ": 9991,
    "เอท": 9582,
    "อทพ": 8785,
    "ทพั": 7724,
    " ฟิก": 834,
    "ฟิกเ": 8127,
    "ิกเก": 9182,
    "ร์เอ": 8454,
    "์เอท": 9992,
    "เอทพ": 9583,
    "อทพั": 8786,
    "ทพัฟ": 7725,
    "cho": 1865,
    "myc": 4371,
    "yct": 6966,
    "cte": 2012,
    "ere": 2619,
    " dic": 169,
    "dich": 2154,
    "icho": 3343,
    "chot": 1866,
    "hoto": 3224,
    "otom": 5118,
    "tomy": 6422,
    "omyc": 4910,
    "myct": 4372,
    "ycte": 6967,
    "cter": 2013,
    "tere": 6298,
    "ere ": 2620,
    "kis": 3781,
    " bra": 83,
    "rack": 5470,
    "ckis": 1920,
    "kish": 3782,
    "arc": 1400,
    "rch": 5549,
    "rfi": 5627,
    " arc": 39,
    "arch": 1401,
    "rche": 5550,
    "cher": 1850,
    "herf": 3139,
    "erfi": 2623,
    "rfis": 5628,
    "ชอ": 7465,
    "ิช": 9194,
    "ช ": 7458,
    " อา": 871,
    "อาร": 8884,
    "์เช": 9975,
    "เชอ": 9466,
    "ชอร": 7466,
    "ร์ฟ": 8438,
    "์ฟิ": 9950,
    "ฟิช": 8128,
    "ิช ": 9195,
    " อาร": 872,
    "อาร์": 8885,
    "ร์เช": 8446,
    "์เชอ": 9976,
    "เชอร": 9467,
    "ชอร์": 7467,
    "อร์ฟ": 8841,
    "ร์ฟิ": 8439,
    "์ฟิช": 9951,
    "ฟิช ": 8129,
    "oxo": 5187,
    "toxo": 6450,
    "oxot": 5188,
    "xote": 6927,
    "otes": 5105,
    "jacu": 3717,
    "latr": 3859,
    "atri": 1519,
    "trix": 6471,
    "hir": 3171,
    "ir ": 3608,
    "bich": 1639,
    "ichi": 3341,
    "chir": 1855,
    "hir ": 3172,
    " บิ": 818,
    "บิเ": 7998,
    "ิเช": 9252,
    "์เซ": 9977,
    "ัล ": 8991,
    " บิเ": 819,
    "บิเช": 7999,
    "ิเชี": 9253,
    "ชียร": 7482,
    "ร์เซ": 8447,
    "์เซเ": 9978,
    "กัล ": 7163,
    "pol": 5347,
    "oly": 4882,
    " pol": 521,
    "poly": 5348,
    "olyp": 4883,
    "ypte": 7051,
    "teru": 6304,
    "erus": 2674,
    "ัลล": 8996,
    "ลลิ": 8494,
    "ลิเ": 8533,
    "ิเก": 9250,
    "เกเ": 9441,
    "์กา": 9907,
    "อัลล": 8875,
    "ัลลิ": 8997,
    "ลลิเ": 8495,
    "ลิเก": 8534,
    "ิเกเ": 9251,
    "เกเต": 9442,
    "อร์ก": 8834,
    "ร์กา": 8417,
    "์การ": 9908,
    "teu": 6310,
    " atr": 50,
    "acto": 1094,
    "ctos": 2021,
    "tost": 6443,
    "steu": 6159,
    "teus": 6311,
    "pat": 5221,
    "tul": 6503,
    "spat": 6121,
    "patu": 5224,
    "atul": 1525,
    "tula": 6504,
    "wn ": 6888,
    "own ": 5177,
    "kn": 3788,
    " kn": 351,
    "kni": 3789,
    "fef": 2811,
    "efi": 2401,
    " kni": 352,
    "knif": 3790,
    "ifef": 3404,
    "fefi": 2812,
    "efis": 2402,
    "ีด": 9268,
    "ดต": 7561,
    "วต": 8591,
    "ตล": 7649,
    "ลก": 8464,
    "ามี": 9092,
    "มีด": 8211,
    "ีดต": 9269,
    "ดตั": 7562,
    "ตัว": 7661,
    "ัวต": 9002,
    "วตล": 8592,
    "ตลก": 7650,
    "ลก ": 8465,
    "ปลาม": 8020,
    "ลามี": 8518,
    "ามีด": 9093,
    "มีดต": 8212,
    "ีดตั": 9270,
    "ดตัว": 7563,
    "ตัวต": 7662,
    "ัวตล": 9003,
    "วตลก": 8593,
    "ตลก ": 7651,
    "chit": 1856,
    "hita": 3176,
    "ital": 3652,
    "tala": 6239,
    "ala ": 1209,
    "tn": 6392,
    "atn": 1509,
    "tno": 6397,
    " dat": 158,
    "datn": 2091,
    "atno": 1511,
    "tnoi": 6398,
    "oid ": 4837,
    "ดั": 7584,
    "ัท": 8962,
    "ทน": 7720,
    " ดั": 797,
    "ดัท": 7585,
    "ัทน": 8963,
    "ทนอ": 7721,
    "นอย": 7872,
    "อยด": 8825,
    "ด์ ": 7617,
    " ดัท": 798,
    "ดัทน": 7586,
    "ัทนอ": 8964,
    "ทนอย": 7722,
    "นอยด": 7873,
    "อยด์": 8826,
    "ยด์ ": 8259,
    "tni": 6395,
    "ioi": 3569,
    "atni": 1510,
    "tnio": 6396,
    "nioi": 4585,
    "ioid": 3570,
    "mic": 4269,
    "rol": 5786,
    "ole": 4858,
    "pis": 5325,
    " mic": 420,
    "micr": 4270,
    "icro": 3353,
    "crol": 2001,
    "role": 5787,
    "olep": 4859,
    "epis": 2591,
    "pis ": 5326,
    "dt": 2246,
    "edt": 2373,
    "dta": 2247,
    "redt": 5586,
    "edta": 2374,
    "dtai": 2248,
    "ail ": 1173,
    "tf": 6312,
    "atf": 1496,
    "tfi": 6313,
    "catf": 1794,
    "atfi": 1497,
    "tfis": 6314,
    "ลแ": 8565,
    "รดเ": 8314,
    "ดเท": 7602,
    "ทลแ": 7747,
    "ลแค": 8566,
    "แคท": 9603,
    "คทฟ": 7243,
    "ทฟิ": 7729,
    "เรดเ": 9551,
    "รดเท": 8315,
    "ดเทล": 7603,
    "เทลแ": 9499,
    "ทลแค": 7748,
    "ลแคท": 8567,
    "แคทฟ": 9604,
    "คทฟิ": 7244,
    "ทฟิช": 7730,
    "hra": 3229,
    " phr": 506,
    "phra": 5285,
    "hrac": 3230,
    "ctoc": 2017,
    "toce": 6405,
    "mio": 4278,
    "iol": 3571,
    "lio": 3991,
    "opt": 5006,
    "emio": 2497,
    "miol": 4279,
    "ioli": 3572,
    "olio": 4865,
    "liop": 3994,
    "iopt": 3582,
    "opte": 5007,
    "mora": 4320,
    "oray": 5023,
    " ee": 194,
    "eel": 2385,
    " eel": 195,
    "eel ": 2386,
    "าไ": 9164,
    "ไห": 9761,
    "ลม": 8488,
    "น้": 7941,
    "้ำ": 9890,
    "ำจ": 9168,
    "จื": 7445,
    "ืด": 9326,
    "ลาไ": 8527,
    "าไห": 9165,
    "ไหล": 9762,
    "หลม": 8750,
    "ลมอ": 8489,
    "มอเ": 8190,
    "ย์น": 8294,
    "์น้": 9939,
    "น้ำ": 7942,
    "้ำจ": 9892,
    "ำจื": 9169,
    "จืด": 7446,
    "ืด ": 9327,
    "ปลาไ": 8023,
    "ลาไห": 8528,
    "าไหล": 9166,
    "ไหลม": 9763,
    "หลมอ": 8751,
    "ลมอเ": 8490,
    "มอเร": 8191,
    "อเรย": 8901,
    "รย์น": 8329,
    "ย์น้": 8295,
    "์น้ำ": 9940,
    "น้ำจ": 7944,
    "้ำจื": 9893,
    "ำจืด": 9170,
    "จืด ": 7447,
    "gy": 3070,
    " gy": 291,
    "gym": 3071,
    "ymn": 7017,
    "mno": 4301,
    "oth": 5107,
    "rax": 5526,
    "ax ": 1568,
    " gym": 292,
    "gymn": 3072,
    "ymno": 7018,
    "mnot": 4302,
    "noth": 4650,
    "otho": 5109,
    "thor": 6329,
    "orax": 5022,
    "rax ": 5527,
    "yu": 7078,
    "lyu": 4157,
    "yur": 7079,
    "olyu": 4884,
    "lyur": 4158,
    "yura": 7080,
    "uran": 6703,
    "rano": 5500,
    "te-": 6270,
    "e-r": 2281,
    "ite-": 3661,
    "te-r": 6271,
    "e-ri": 2282,
    "aus": 1545,
    "ral": 5486,
    " aus": 54,
    "aust": 1546,
    "ustr": 6758,
    "stra": 6173,
    "tral": 6455,
    "rali": 5488,
    "alia": 1232,
    "dc": 2101,
    "edc": 2359,
    "dcl": 2102,
    "cla": 1926,
    "law": 3866,
    "redc": 5584,
    "edcl": 2360,
    "dcla": 2103,
    "claw": 1928,
    "law ": 3867,
    "yfi": 6984,
    " cra": 138,
    "cray": 1991,
    "rayf": 5531,
    "ayfi": 1578,
    "yfis": 6985,
    "รดค": 8308,
    "ดคล": 7547,
    "คลอ": 7279,
    "ลอว": 8503,
    "ว์เ": 8641,
    "ครย": 7267,
    "ย์ฟ": 8296,
    "เรดค": 9548,
    "รดคล": 8309,
    "ดคลอ": 7548,
    "คลอว": 7280,
    "ลอว์": 8504,
    "อว์เ": 8856,
    "ว์เค": 8642,
    "เครย": 9454,
    "ครย์": 7268,
    "รย์ฟ": 8330,
    "ย์ฟิ": 8297,
    "hera": 3137,
    "erax": 2611,
    "uad": 6530,
    "adr": 1115,
    "dri": 2233,
    "quad": 5439,
    "uadr": 6531,
    "adri": 1116,
    "dric": 2234,
    "icar": 3333,
    "cari": 1785,
    "arin": 1424,
    "rina": 5688,
    "inat": 3507,
    "natu": 4426,
    "cru": 2004,
    "ace": 1061,
    "cea": 1812,
    "ean": 2301,
    " cru": 142,
    "crus": 2005,
    "rust": 5903,
    "usta": 6756,
    "stac": 6149,
    "tace": 6228,
    "acea": 1062,
    "cean": 1813,
    "ean ": 2302,
    "y/g": 6942,
    "ry/g": 5916,
    "y/gr": 6943,
    "mba": 4213,
    "bar": 1606,
    "aru": 1450,
    "roca": 5769,
    "ocam": 4753,
    "camb": 1765,
    "amba": 1270,
    "mbar": 4214,
    "baru": 1609,
    "arus": 1451,
    "โพ": 9714,
    "รแ": 8397,
    "บา": 7988,
    " โพ": 930,
    "โพร": 9715,
    "พรแ": 8056,
    "รแค": 8398,
    "คมบ": 7255,
    "มบา": 8172,
    "บาร": 7989,
    "ารั": 9105,
    "สเค": 8702,
    " โพร": 931,
    "โพรแ": 9716,
    "พรแค": 8057,
    "รแคม": 8399,
    "แคมบ": 9608,
    "คมบา": 7256,
    "มบาร": 8173,
    "บารั": 7990,
    "ารัส": 9106,
    "ัสเค": 9013,
    "สเคร": 8703,
    "ark": 1427,
    "rki": 5726,
    " cla": 125,
    "clar": 1927,
    "lark": 3852,
    "arki": 1429,
    "rkii": 5727,
    "bam": 1601,
    "mbo": 4223,
    "boo": 1682,
    " bam": 60,
    "bamb": 1602,
    "ambo": 1272,
    "mboo": 4224,
    "boo ": 1683,
    "p ": 5194,
    "shr": 6039,
    "rim": 5682,
    "mp ": 4333,
    " shr": 609,
    "shri": 6040,
    "hrim": 3234,
    "rimp": 5684,
    "imp ": 3493,
    "กุ": 7179,
    "ุ้": 9342,
    "งไ": 7424,
    "ไผ": 9745,
    "ผ่": 8039,
    " กุ": 747,
    "กุ้": 7180,
    "ุ้ง": 9343,
    "้งไ": 9858,
    "งไผ": 7425,
    "ไผ่": 9746,
    "ผ่ ": 8040,
    " กุ้": 748,
    "กุ้ง": 7181,
    "ุ้งไ": 9346,
    "้งไผ": 9859,
    "งไผ่": 7426,
    "ไผ่ ": 9747,
    "aty": 1527,
    "tyo": 6523,
    " aty": 51,
    "atyo": 1529,
    "tyop": 6524,
    "yops": 7036,
    "psis": 5398,
    "luc": 4121,
    "ucc": 6555,
    "cce": 1805,
    "molu": 4310,
    "oluc": 4881,
    "lucc": 4122,
    "ucce": 6556,
    "ccen": 1806,
    "cens": 1824,
    "fil": 2834,
    "ilt": 3473,
    "lte": 4112,
    "er-": 2604,
    "r-f": 5456,
    "-fe": 980,
    " fil": 235,
    "filt": 2835,
    "ilte": 3474,
    "lter": 4113,
    "ter-": 6296,
    "er-f": 2605,
    "r-fe": 5457,
    "-fee": 981,
    "pea": 5230,
    "eac": 2288,
    "cef": 1816,
    "efu": 2405,
    " pea": 499,
    "peac": 5232,
    "eace": 2289,
    "acef": 1063,
    "cefu": 1817,
    "eful": 2406,
    "cry": 2006,
    " cry": 143,
    "crys": 2007,
    "ryst": 5928,
    "ysta": 7068,
    "stal": 6150,
    "tal ": 6238,
    "้งค": 9852,
    "งคร": 7355,
    "คริ": 7276,
    "ริส": 8378,
    "ิสต": 9247,
    "สตั": 8673,
    "ตัล": 7659,
    "ลเร": 8561,
    "รด ": 8307,
    "ุ้งค": 9344,
    "้งคร": 9853,
    "งคริ": 7356,
    "คริส": 7277,
    "ริสต": 8379,
    "ิสตั": 9248,
    "สตัล": 8674,
    "ตัลเ": 7660,
    "ัลเร": 9000,
    "ลเรด": 8562,
    "เรด ": 9547,
    "arid": 1422,
    "idin": 3368,
    "dina": 2165,
    "anto": 1350,
    "nton": 4699,
    "tone": 6426,
    "onen": 4930,
    "nie": 4570,
    "ies": 3393,
    "olon": 4871,
    "loni": 4065,
    "onie": 4944,
    "nies": 4572,
    "ies ": 3394,
    "lue ": 4127,
    "bol": 1673,
    "olt": 4877,
    "lt ": 4111,
    " bol": 78,
    "bolt": 1677,
    "olt ": 4878,
    "งบ": 7367,
    "ลต": 8477,
    "้งบ": 9854,
    "งบล": 7368,
    "ลูโ": 8552,
    "โบล": 9708,
    "บลต": 7959,
    "ลต์": 8478,
    "ต์ ": 7709,
    "ุ้งบ": 9345,
    "้งบล": 9855,
    "งบลู": 7369,
    "บลูโ": 7970,
    "ลูโบ": 8553,
    "ูโบล": 9425,
    "โบลต": 9709,
    "บลต์": 7960,
    "ลต์ ": 8479,
    "log": 4058,
    "oge": 4819,
    "gem": 2941,
    " log": 383,
    "loge": 4059,
    "ogem": 4820,
    "gema": 2942,
    "vam": 6783,
    "mpi": 4343,
    "pir": 5323,
    " vam": 700,
    "vamp": 6784,
    "ampi": 1286,
    "mpir": 4344,
    "pire": 5324,
    "b ": 1588,
    "rab": 5463,
    "ab ": 1041,
    "crab": 1988,
    "rab ": 5464,
    "วม": 8604,
    "มไ": 8234,
    "รบ": 8321,
    "บ ": 7945,
    " แว": 918,
    "แวม": 9652,
    "วมไ": 8605,
    "มไพ": 8235,
    "ไพร": 9751,
    "พร์": 8058,
    "ครบ": 7265,
    "รบ ": 8322,
    " แวม": 919,
    "แวมไ": 9653,
    "วมไพ": 8606,
    "มไพร": 8236,
    "ไพร์": 9752,
    "พร์แ": 8059,
    "์แคร": 9996,
    "แครบ": 9611,
    "ครบ ": 7266,
    "geo": 2946,
    "ses": 6014,
    "esa": 2686,
    "sar": 5958,
    " geo": 262,
    "geos": 2949,
    "eose": 2577,
    "oses": 5079,
    "sesa": 6015,
    "esar": 2687,
    "sarm": 5959,
    "arma": 1434,
    "rma ": 5737,
    "erl": 2639,
    "denn": 2129,
    "nner": 4615,
    "nerl": 4515,
    "erle": 2640,
    "rle ": 5730,
    "uda": 6570,
    "palu": 5211,
    "alud": 1254,
    "luda": 4124,
    "udar": 6572,
    "dari": 2088,
    "rium": 5713,
    "i-t": 3295,
    "-te": 1008,
    "mi-t": 4268,
    "i-te": 3296,
    "-ter": 1009,
    "sea": 5991,
    "eah": 2294,
    "aho": 1168,
    "rse": 5855,
    " sea": 600,
    "seah": 5992,
    "eaho": 2295,
    "ahor": 1169,
    "orse": 5051,
    "rse ": 5856,
    "ม้": 8240,
    " ม้": 839,
    "ม้า": 8241,
    "้าน": 9884,
    "าน้": 9065,
    "้ำ ": 9891,
    " ม้า": 840,
    "ม้าน": 8242,
    "้าน้": 9885,
    "าน้ำ": 9066,
    "น้ำ ": 7943,
    "hip": 3169,
    "ipp": 3596,
    "ppo": 5371,
    "poc": 5340,
    "mpu": 4349,
    " hip": 308,
    "hipp": 3170,
    "ippo": 3598,
    "ppoc": 5372,
    "poca": 5341,
    "ampu": 1288,
    "mpus": 4350,
    " ku": 358,
    "kud": 3804,
    " kud": 359,
    "kuda": 3805,
    "uda ": 6571,
    "mari": 4196,
    "rine": 5689,
    "nf": 4528,
    "onf": 4932,
    "nfi": 4529,
    " lio": 378,
    "lion": 3993,
    "ionf": 3576,
    "onfi": 4933,
    "nfis": 4530,
    "สิ": 8695,
    "งโ": 7421,
    "ลาส": 8521,
    "าสิ": 9135,
    "สิง": 8696,
    "ิงโ": 9192,
    "งโต": 7422,
    "โต ": 9686,
    "ปลาส": 8021,
    "ลาสิ": 8522,
    "าสิง": 9136,
    "สิงโ": 8697,
    "ิงโต": 9193,
    "งโต ": 7423,
    "roi": 5784,
    "eroi": 2649,
    "rois": 5785,
    "ois ": 4841,
    "vol": 6834,
    "tan": 6246,
    " vol": 712,
    "voli": 6835,
    "itan": 3653,
    "tans": 6249,
    "xf": 6910,
    "box": 1696,
    "oxf": 5182,
    "xfi": 6911,
    " box": 81,
    "boxf": 1697,
    "oxfi": 5183,
    "xfis": 6912,
    "บ็": 8009,
    " บ็": 820,
    "บ็อ": 8010,
    "ซ์ฟ": 7534,
    " บ็อ": 821,
    "บ็อก": 8011,
    "กซ์ฟ": 7119,
    "ซ์ฟิ": 7535,
    "cio": 1898,
    "ostr": 5090,
    "raci": 5469,
    "acio": 1074,
    "cion": 1900,
    "ion ": 3574,
    "cubi": 2031,
    "ubic": 6544,
    "bicu": 1641,
    "hou": 3226,
    " hou": 314,
    "hous": 3227,
    "oae": 4736,
    "aed": 1125,
    "edo": 2371,
    "boae": 1672,
    "oaed": 4737,
    "aedo": 1126,
    "edon": 2372,
    "ape": 1363,
    "cape": 1776,
    "apen": 1364,
    "pens": 5246,
    "ack ": 1076,
    " ni": 451,
    " nig": 452,
    "nigr": 4578,
    "igra": 3432,
    "gra ": 3029,
    " pin": 510,
    "nol": 4633,
    "leu": 3942,
    "euc": 2740,
    "ucu": 6566,
    "anol": 1338,
    "nole": 4634,
    "oleu": 4860,
    "leuc": 3943,
    "eucu": 2742,
    "ucus": 6567,
    "eau": 2313,
    "aut": 1547,
    "uty": 6769,
    "ty ": 6514,
    "beau": 1621,
    "eaut": 2314,
    "auty": 1548,
    "uty ": 6770,
    "rth": 5871,
    " ort": 482,
    "orth": 5055,
    "rthr": 5872,
    "hrio": 3235,
    "riop": 5696,
    "ioph": 3580,
    "niu": 4593,
    "eniu": 2537,
    "niur": 4594,
    "l/": 3812,
    "/t": 1035,
    "al/": 1204,
    "l/t": 3817,
    "/te": 1036,
    "eal/": 2298,
    "al/t": 1207,
    "l/te": 3818,
    "/ter": 1037,
    "rhi": 5641,
    "ino": 3548,
    " rhi": 569,
    "rhin": 5642,
    "hino": 3167,
    "ino ": 3549,
    "nyo": 4724,
    "yos": 7038,
    "oso": 5081,
    " gon": 279,
    "gony": 3018,
    "onyo": 4967,
    "nyos": 4725,
    "yoso": 7040,
    "osom": 5082,
    "bou": 1691,
    "oul": 5139,
    "len": 3919,
    "eng": 2530,
    " bou": 80,
    "boul": 1692,
    "oule": 5141,
    "ulen": 6640,
    "leng": 3920,
    "enge": 2531,
    "nda": 4459,
    " man": 400,
    "anda": 1309,
    "ndar": 4460,
    "rin ": 5687,
    "eup": 2747,
    "upr": 6693,
    " eup": 216,
    "eupr": 2749,
    "upre": 6694,
    "prep": 5381,
    "repi": 5608,
    "epio": 2590,
    "piop": 5320,
    "edl": 2368,
    "dl'": 2182,
    "bred": 1704,
    "redl": 5585,
    "edl'": 2369,
    "dl's": 2183,
    "dli": 2187,
    "edli": 2370,
    "dli ": 2188,
    "wo": 6893,
    " wo": 726,
    "wom": 6894,
    " wom": 727,
    "woma": 6895,
    "asp": 1465,
    " asp": 45,
    "aspi": 1466,
    "spid": 6126,
    "pidi": 5305,
    "idit": 3370,
    "dite": 2177,
    "msa": 4352,
    "say": 5965,
    "ayi": 1580,
    "yi ": 6996,
    "rams": 5494,
    "amsa": 1290,
    "msay": 4353,
    "sayi": 5966,
    "ayi ": 1581,
    "tim": 6361,
    "ims": 3495,
    "mso": 4354,
    "stim": 6163,
    "tims": 6362,
    "imso": 3496,
    "mson": 4355,
    "oni ": 4942,
    "cora": 1976,
    "oral": 5019,
    "rall": 5489,
    "allu": 1242,
    "rtu": 5881,
    "hort": 3218,
    "ortu": 5058,
    "rtul": 5882,
    "ulan": 6630,
    "lana": 3840,
    " em": 202,
    "eme": 2493,
    " eme": 203,
    "emer": 2494,
    "mera": 4250,
    "eral": 2609,
    "rald": 5487,
    "ald ": 1222,
    "nin": 4581,
    "cani": 1770,
    "anin": 1323,
    "ninu": 4583,
    "oug": 5137,
    "ugh": 6610,
    " rou": 581,
    "roug": 5817,
    "ough": 5138,
    "ugh ": 6611,
    " op": 476,
    "heo": 3133,
    "eod": 2562,
    "odr": 4798,
    " oph": 477,
    "pheo": 5270,
    "heod": 3134,
    "eodr": 2563,
    "odry": 4799,
    "drys": 2242,
    "ivu": 3705,
    "tivu": 6384,
    "ivus": 3707,
    "g'": 2891,
    "ng'": 4533,
    "g's": 2892,
    "stan": 6151,
    "tand": 6247,
    "ing'": 3531,
    "ng's": 4534,
    "g's ": 2893,
    "ngi": 4546,
    "gi ": 2971,
    "ingi": 3535,
    "ngi ": 4547,
    "our": 5145,
    "urn": 6721,
    " mou": 432,
    "mour": 4330,
    "ourn": 5147,
    "urni": 6722,
    "rnin": 5756,
    "ning": 4582,
    "dod": 2197,
    "idod": 3373,
    "doda": 2198,
    "lug": 4129,
    "ugu": 6612,
    "gub": 3053,
    " lug": 392,
    "lugu": 4130,
    "ugub": 6613,
    "gubr": 3054,
    "bris": 1712,
    "kit": 3783,
    "skit": 6082,
    "kitt": 3784,
    "ttis": 6492,
    "tish": 6376,
    "up ": 6687,
    "oup ": 5143,
    "b-": 1589,
    "kno": 3791,
    "nob": 4623,
    "ob-": 4741,
    "b-t": 1590,
    " kno": 353,
    "knob": 3792,
    "nob-": 4624,
    "ob-t": 4742,
    "b-ta": 1591,
    "nep": 4511,
    "hru": 3242,
    "rur": 5897,
    " nep": 448,
    "neph": 4512,
    "ephr": 2586,
    "phru": 5287,
    "hrur": 3243,
    "ruru": 5899,
    "lev": 3945,
    " lev": 374,
    "levi": 3946,
    "ave": 1553,
    "cave": 1800,
    "ave ": 1554,
    "sau": 5960,
    "goni": 3016,
    "oniu": 4947,
    "iuro": 3689,
    "uros": 6728,
    "rosa": 5809,
    "osau": 5071,
    "saur": 5962,
    "lui": 4131,
    "uii": 6619,
    " lui": 393,
    "luii": 4132,
    "uii ": 6620,
    " gol": 278,
    " du": 182,
    "dus": 2254,
    " dus": 183,
    "dust": 2256,
    "ust ": 6755,
    " lat": 366,
    "lati": 3858,
    "icau": 3335,
    "auda": 1534,
    "ank": 1329,
    "nki": 4606,
    "in'": 3501,
    " ran": 556,
    "rank": 5499,
    "anki": 1330,
    "nkin": 4607,
    "kin'": 3778,
    "in's": 3502,
    "nr": 4655,
    "ws": 6896,
    "hen": 3129,
    "enr": 2544,
    "nry": 4658,
    "ryl": 5922,
    "yla": 7003,
    "aws": 1565,
    "wso": 6897,
    " hen": 302,
    "henr": 3131,
    "enry": 2546,
    "nryl": 4659,
    "ryla": 5923,
    "ylaw": 7005,
    "laws": 3869,
    "awso": 1566,
    "wson": 6898,
    "ril": 5680,
    "lle": 4021,
    "fril": 2872,
    "rill": 5681,
    "ille": 3467,
    "lled": 4022,
    "yd": 6968,
    "amy": 1292,
    "myd": 4373,
    "ydo": 6969,
    "dos": 2215,
    " chl": 116,
    "hlam": 3183,
    "lamy": 3838,
    "amyd": 1293,
    "mydo": 4374,
    "ydos": 6970,
    "dosa": 2216,
    "gii": 2979,
    "ngii": 4548,
    "gii ": 2980,
    " wat": 719,
    "ysi": 7063,
    "sig": 6054,
    "ign": 3429,
    "gna": 3000,
    "ath": 1498,
    " phy": 507,
    "hysi": 3284,
    "ysig": 7064,
    "sign": 6055,
    "igna": 3430,
    "gnat": 3001,
    "nath": 4424,
    "athu": 1500,
    "thus": 6337,
    "nci": 4440,
    "coci": 1949,
    "ocin": 4766,
    "inci": 3512,
    "ncin": 4441,
    "lip": 3995,
    " phi": 504,
    "phil": 5275,
    "hili": 3161,
    "ilip": 3458,
    "lipp": 3996,
    "ippi": 3597,
    "sai": 5949,
    "ilf": 3453,
    "lfi": 3954,
    " sai": 589,
    "sail": 5950,
    "ailf": 1175,
    "ilfi": 3454,
    "lfin": 3955,
    "fin ": 2839,
    "hyd": 3270,
    "ydr": 6971,
    " hyd": 320,
    "hydr": 3271,
    "ydro": 6972,
    "dros": 2238,
    " pus": 541,
    "pust": 5423,
    "ustu": 6759,
    "stul": 6179,
    "rge": 5634,
    "nti": 4690,
    " arg": 40,
    "arge": 1417,
    "rgen": 5635,
    "enti": 2555,
    "ntin": 4692,
    "tine": 6366,
    " and": 28,
    "teg": 6277,
    " teg": 659,
    "tegu": 6278,
    "alv": 1256,
    "lva": 4143,
    "vat": 6791,
    "salv": 5954,
    "alva": 1257,
    "lvat": 4144,
    "vato": 6792,
    "eria": 2629,
    "iana": 3309,
    "anae": 1298,
    "ufe": 6597,
    "fes": 2820,
    "esc": 2688,
    "sce": 5971,
    "rufe": 5890,
    "ufes": 6598,
    "fesc": 2821,
    "esce": 2689,
    "scen": 5972,
    "ens ": 2548,
    "prol": 5387,
    "gd": 2926,
    "agd": 1149,
    "gdi": 2927,
    "smar": 6092,
    "mara": 4194,
    "arag": 1391,
    "ragd": 5479,
    "agdi": 1150,
    "gdin": 2928,
    "hlu": 3189,
    " moc": 426,
    "ochl": 4760,
    "chlu": 1861,
    "hlus": 3190,
    "nan": 4410,
    "di ": 2148,
    "fern": 2818,
    "erna": 2645,
    "rnan": 5751,
    "nand": 4411,
    "ndi ": 4470,
    "hne": 3194,
    "nei": 4501,
    "eid": 2427,
    " sch": 595,
    "schn": 5975,
    "chne": 1863,
    "hnei": 3195,
    "neid": 4502,
    "eide": 2428,
    "der'": 2135,
    "eum": 2745,
    "ume": 6661,
    "mec": 4234,
    "ece": 2329,
    "ces": 1833,
    " eum": 215,
    "eume": 2746,
    "umec": 6662,
    "mece": 4235,
    "eces": 2330,
    "ces ": 1834,
    "rii": 5678,
    "deri": 2137,
    "erii": 2632,
    "rii ": 5679,
    "pete": 5258,
    "ter'": 6295,
    " ban": 61,
    "band": 1605,
    "nded": 4465,
    "ncop": 4447,
    "copu": 1974,
    "ey-": 2778,
    "y-t": 6939,
    "key-": 3767,
    "ey-t": 2779,
    "y-ta": 6940,
    "oru": 5059,
    "ruc": 5886,
    "coru": 1981,
    "oruc": 5060,
    "ruci": 5887,
    "ucia": 6562,
    "cia ": 1880,
    "brat": 1702,
    "rata": 5514,
    "mad": 4170,
    "adi": 1111,
    "llo": 4032,
    "lo ": 4050,
    " arm": 41,
    "rmad": 5738,
    "madi": 4171,
    "adil": 1112,
    "dill": 2162,
    "illo": 3468,
    "llo ": 4033,
    "gir": 2983,
    "rdl": 5565,
    "dle": 2184,
    " gir": 270,
    "gird": 2984,
    "irdl": 3613,
    "rdle": 5566,
    "dled": 2185,
    " ou": 487,
    " our": 488,
    "ouro": 5148,
    "urob": 6725,
    "boru": 1688,
    "orus": 5061,
    "tap": 6250,
    "atap": 1488,
    "taph": 6251,
    "actu": 1095,
    "mali": 4181,
    "ali ": 1231,
    "alie": 1233,
    "lien": 3978,
    "iens": 3388,
    "reek": 5590,
    "rae": 5476,
    "aec": 1123,
    "eca": 2327,
    "grae": 3031,
    "raec": 5477,
    "aeca": 1124,
    "eca ": 2328,
    "nca": 4433,
    "cak": 1754,
    "panc": 5213,
    "anca": 1302,
    "ncak": 4434,
    "cake": 1755,
    "alac": 1211,
    "laco": 3828,
    "acoc": 1086,
    "coch": 1948,
    "hers": 3143,
    "torn": 6436,
    "rnie": 5755,
    "nier": 4571,
    "ieri": 3392,
    "w-": 6851,
    "yel": 6976,
    "ow-": 5167,
    "w-f": 6854,
    " yel": 733,
    "yell": 6977,
    "ello": 2466,
    "llow": 4035,
    "low-": 4089,
    "ow-f": 5169,
    "w-fo": 6855,
    "ntic": 4691,
    " elo": 201,
    "long": 4064,
    "onga": 4936,
    "ngat": 4539,
    "gate": 2921,
    "ndo": 4477,
    "dot": 2217,
    "indo": 3519,
    "ndot": 4478,
    "dote": 2218,
    "sid": 6052,
    " sid": 612,
    "side": 6053,
    "iden": 3364,
    "dene": 2128,
    "enec": 2527,
    "usi": 6748,
    "sio": 6066,
    "pelu": 5243,
    "lusi": 4141,
    "usio": 6749,
    "sios": 6067,
    "ios ": 3585,
    "cas": 1789,
    "neu": 4524,
    " cas": 104,
    "cast": 1790,
    "asta": 1471,
    "tane": 6248,
    "aneu": 1316,
    "neus": 4525,
    "elm": 2469,
    "lme": 4043,
    "met": 4256,
    " hel": 300,
    "helm": 3120,
    "elme": 2470,
    "lmet": 4044,
    "mete": 4257,
    "eted": 2714,
    "lom": 4060,
    "edu": 2375,
    "usa": 6740,
    "elom": 2474,
    "lome": 4061,
    "omed": 4894,
    "medu": 4238,
    "edus": 2376,
    "dusa": 2255,
    "usa ": 6741,
    "sub": 6185,
    "bru": 1717,
    "ufa": 6595,
    "fa ": 2794,
    " sub": 645,
    "subr": 6186,
    "ubru": 6551,
    "bruf": 1718,
    "rufa": 5889,
    "ufa ": 6596,
    "ass": 1467,
    "sse": 6137,
    "rti": 5873,
    " ass": 46,
    "asse": 1468,
    "sser": 6138,
    "sert": 6012,
    "erti": 2670,
    "rtiv": 5876,
    "usk": 6750,
    "musk": 4367,
    "usk ": 6751,
    "rno": 5759,
    "erno": 2646,
    "rnot": 5760,
    "othe": 5108,
    "heru": 3144,
    " odo": 469,
    "dora": 2212,
    "ap ": 1360,
    " map": 401,
    "map ": 4191,
    "apt": 1378,
    "rapt": 5507,
    "apte": 1379,
    "ptem": 5405,
    "temy": 6286,
    "geog": 2947,
    "eogr": 2566,
    "ogra": 4829,
    "hica": 3153,
    "db": 2096,
    "iam": 3305,
    "ond": 4925,
    "ndb": 4462,
    "dba": 2097,
    "bac": 1596,
    " dia": 168,
    "diam": 2151,
    "iamo": 3306,
    "amon": 1281,
    "mond": 4314,
    "ondb": 4927,
    "ndba": 4463,
    "dbac": 2098,
    "back": 1597,
    "rra": 5832,
    "erra": 2659,
    "rrap": 5833,
    "rapi": 5506,
    "apin": 1372,
    "pin ": 5314,
    "lem": 3916,
    "lacl": 3827,
    "clem": 1932,
    "lemy": 3918,
    "raz": 5532,
    "zor": 7106,
    "or-": 5015,
    "r-b": 5452,
    "-ba": 962,
    "cke": 1915,
    "ked": 3757,
    " raz": 558,
    "razo": 5533,
    "azor": 1587,
    "zor-": 7107,
    "or-b": 5016,
    "r-ba": 5453,
    "-bac": 963,
    "acke": 1078,
    "cked": 1916,
    "ked ": 3758,
    "s'": 5936,
    "eev": 2394,
    "eve": 2755,
    "ves": 6809,
    "es'": 2684,
    "s's": 5937,
    " ree": 561,
    "reev": 5592,
    "eeve": 2395,
    "eves": 2757,
    "ves'": 6810,
    "es's": 2685,
    "s's ": 5938,
    "mau": 4208,
    "rem": 5602,
    " mau": 405,
    "maur": 4209,
    "aure": 1542,
    "urem": 6710,
    "remy": 5603,
    "sii": 6056,
    "vesi": 6811,
    "esii": 2696,
    "sii ": 6057,
    "fal": 2799,
    "als": 1249,
    "lse": 4104,
    " fal": 225,
    "fals": 2800,
    "alse": 1250,
    "lse ": 4105,
    "pse": 5393,
    "eud": 2743,
    " pse": 533,
    "pseu": 5395,
    "seud": 6019,
    "eudo": 2744,
    "udog": 6579,
    "doge": 2201,
    "ogeo": 4821,
    "ras": 5510,
    "pras": 5376,
    "rasi": 5511,
    "asin": 1462,
    "sinu": 6065,
    "dile": 2160,
    "rib": 5658,
    "ibo": 3322,
    "trib": 6464,
    "ribo": 5661,
    "ibol": 3323,
    "bolo": 1676,
    "acil": 1072,
    "ilis": 3460,
    "air ": 1185,
    "kim": 3774,
    "mbe": 4215,
    "ber": 1631,
    "ley": 3949,
    " kim": 349,
    "kimb": 3775,
    "imbe": 3486,
    "mber": 4217,
    "berl": 1632,
    "rley": 5732,
    "ley ": 3950,
    "gla": 2988,
    "lau": 3862,
    "aue": 1536,
    "uer": 6592,
    " gla": 272,
    "glau": 2989,
    "laue": 3863,
    "auer": 1537,
    "uert": 6593,
    "rti ": 5874,
    "/a": 1023,
    "l/a": 3813,
    "/ar": 1024,
    "ial/": 3303,
    "al/a": 1205,
    "l/ar": 3814,
    "/arb": 1025,
    "chy": 1875,
    "hyc": 3268,
    "yce": 6959,
    "achy": 1070,
    "chyc": 1876,
    "hyce": 3269,
    "ycep": 6960,
    "ifi": 3406,
    "fic": 2828,
    "ctr": 2022,
    " res": 565,
    "esin": 2697,
    "sini": 6064,
    "inif": 3542,
    "nifi": 4575,
    "ific": 3407,
    "fict": 2829,
    "ictr": 3357,
    "ctri": 2023,
    "iet": 3395,
    "etn": 2720,
    "tna": 6393,
    "nam": 4407,
    " vie": 707,
    "viet": 6823,
    "ietn": 3396,
    "etna": 2721,
    "tnam": 6394,
    "name": 4409,
    "ames": 1277,
    "ssy": 6144,
    " mos": 430,
    "moss": 4324,
    "ossy": 5085,
    "ssy ": 6145,
    " th": 666,
    " the": 667,
    "thel": 6322,
    "lode": 4056,
    "oder": 4789,
    "derm": 2138,
    "cort": 1980,
    "orti": 5056,
    "rtic": 5875,
    "ical": 3330,
    "cale": 1759,
    "ale ": 1225,
    " ame": 24,
    "eric": 2630,
    "hyl": 3272,
    " hyl": 321,
    "hyla": 3273,
    "yla ": 7004,
    " cin": 121,
    "cine": 1895,
    "iner": 3526,
    "nere": 4514,
    "erea": 2621,
    "rea ": 5576,
    "eef": 2381,
    "efr": 2403,
    "reef": 5589,
    "eefr": 2382,
    "efro": 2404,
    "ryo": 5924,
    "hyt": 3286,
    "yte": 7071,
    " dry": 181,
    "dryo": 2241,
    "ryop": 5925,
    "yoph": 7035,
    "ophy": 4997,
    "phyt": 5297,
    "hyte": 3287,
    "ytes": 7072,
    "rsi": 5859,
    "vers": 6806,
    "ersi": 2665,
    "rsic": 5860,
    "sico": 6050,
    "w-b": 6852,
    "ow-b": 5168,
    "w-be": 6853,
    "ieg": 3380,
    "vari": 6790,
    "arie": 1423,
    "rieg": 5674,
    "iega": 3381,
    "egat": 2411,
    "ild ": 3446,
    "xin": 6921,
    "oxin": 5186,
    "xins": 6922,
    "ins ": 3554,
    "inam": 3506,
    "nam ": 4408,
    "pip": 5321,
    "ipa": 3590,
    "pa ": 5198,
    " pip": 512,
    "pipa": 5322,
    "ipa ": 3591,
    "awe": 1563,
    "wed": 6873,
    "lawe": 3868,
    "awed": 1564,
    "wed ": 6874,
    "nopu": 4642,
    "wb": 6869,
    "raw": 5524,
    "awb": 1561,
    "wbe": 6870,
    "rry": 5849,
    "traw": 6459,
    "rawb": 5525,
    "awbe": 1562,
    "wber": 6871,
    "berr": 1633,
    "erry": 2663,
    "rry ": 5850,
    " oo": 474,
    "oop": 4977,
    "hag": 3078,
    " oop": 475,
    "ooph": 4978,
    "opha": 4990,
    "phag": 5262,
    "haga": 3079,
    "aga ": 1146,
    "pum": 5419,
    "umi": 6663,
    "io ": 3565,
    " pum": 540,
    "pumi": 5420,
    "umil": 6664,
    "mili": 4273,
    "ilio": 3457,
    "lio ": 3992,
    "r/": 5458,
    "ir/": 3609,
    "r/g": 5459,
    "air/": 1186,
    "ir/g": 3610,
    "r/gr": 5460,
    "imi": 3488,
    " imi": 329,
    "imit": 3490,
    "mita": 4286,
    "itat": 3655,
    "tato": 6259,
    "mey": 4261,
    "eya": 2780,
    "ya ": 6947,
    "rani": 5498,
    "anit": 1325,
    "itom": 3674,
    "tome": 6420,
    "omey": 4897,
    "meya": 4262,
    "eya ": 2781,
    "bold": 1675,
    "lde": 3893,
    "olde": 4857,
    "lden": 3894,
    "den ": 2126,
    "yll": 7008,
    "lob": 4053,
    "phyl": 5295,
    "hyll": 3274,
    "yllo": 7009,
    "llob": 4034,
    "loba": 4054,
    "rrib": 5843,
    "ribi": 5660,
    "ibil": 3321,
    "bili": 1647,
    "bum": 1725,
    "mbl": 4221,
    "leb": 3907,
    "ebe": 2316,
    "bee": 1626,
    " bum": 90,
    "bumb": 1726,
    "umbl": 6659,
    "mble": 4222,
    "bleb": 1662,
    "lebe": 3908,
    "ebee": 2317,
    "bee ": 1627,
    "uco": 6564,
    " leu": 373,
    "euco": 2741,
    "ucom": 6565,
    "omel": 4895,
    "elas": 2442,
    "las ": 3854,
    "span": 6119,
    "pani": 5215,
    "anis": 1324,
    "bb": 1613,
    "ibb": 3317,
    "bbe": 1614,
    "bed": 1624,
    " rib": 571,
    "ribb": 5659,
    "ibbe": 3318,
    "bbed": 1615,
    "bed ": 1625,
    "ple": 5333,
    "eur": 2750,
    "les": 3936,
    " ple": 516,
    "pleu": 5335,
    "leur": 3944,
    "euro": 2751,
    "urod": 6726,
    "odel": 4787,
    "dele": 2118,
    "eles": 2451,
    "les ": 3937,
    "alt": 1251,
    "ltl": 4116,
    "walt": 6861,
    "altl": 1252,
    "ltl ": 4117,
    "emp": 2501,
    " emp": 204,
    "empe": 2502,
    "pero": 5249,
    "eror": 2653,
    "ror ": 5805,
    " ty": 687,
    "ylo": 7011,
    "tot": 6444,
    " tyl": 688,
    "tylo": 6519,
    "ylot": 7013,
    "otot": 5122,
    "totr": 6445,
    "otri": 5124,
    "trit": 6469,
    "iton": 3675,
    "ton ": 6424,
    "nj": 4597,
    "ji": 3731,
    "sha": 6030,
    "anj": 1327,
    "nji": 4598,
    "jin": 3732,
    " sha": 607,
    "shan": 6031,
    "hanj": 3093,
    "anji": 1328,
    "njin": 4599,
    "jing": 3733,
    "/s": 1032,
    "l/s": 3815,
    "/se": 1033,
    "al/s": 1206,
    "l/se": 3816,
    "/sem": 1034,
    "lpi": 4099,
    " alp": 20,
    "alpi": 1248,
    "lpin": 4100,
    "ht": 3246,
    " ic": 324,
    "cht": 1870,
    "hth": 3247,
    "thy": 6338,
    "hyo": 3277,
    " ich": 325,
    "icht": 3344,
    "chth": 1871,
    "hthy": 3249,
    "thyo": 6339,
    "hyos": 3278,
    "yosa": 7039,
    "pest": 5254,
    "east": 2307,
    "aste": 1472,
    "pht": 5289,
    "lmu": 4047,
    " not": 457,
    "noto": 4651,
    "otop": 5119,
    "opht": 4995,
    "phth": 5290,
    "htha": 3248,
    "thal": 6319,
    "halm": 3086,
    "almu": 1245,
    "lmus": 4048,
    "mus ": 4365,
    "ride": 5670,
    "desc": 2141,
    "rbl": 5539,
    "marb": 4195,
    "arbl": 1398,
    "rble": 5540,
    "bled": 1663,
    "ritu": 5711,
    "itur": 3682,
    "turu": 6510,
    "rmor": 5745,
    "ddl": 2108,
    "addl": 1108,
    "ddle": 2109,
    "dlet": 2186,
    "leta": 3941,
    "etai": 2711,
    "ytr": 7076,
    "pach": 5200,
    "chyt": 1877,
    "hytr": 3288,
    "ytri": 7077,
    "abi": 1044,
    " lab": 362,
    "labi": 3823,
    "abia": 1045,
    "biat": 1637,
    "oga": 4817,
    "gas": 2917,
    "rhog": 5644,
    "hoga": 3205,
    "ogas": 4818,
    "gast": 2918,
    "usc": 6742,
    "musc": 4366,
    "uscu": 6743,
    "culu": 2035,
    "ulus": 6651,
    "ft-": 2877,
    "t-f": 6220,
    "-fu": 986,
    "oft-": 4811,
    "ft-f": 2878,
    "t-fu": 6221,
    "-fur": 987,
    "furr": 2887,
    "urre": 6730,
    "rred": 5835,
    " mas": 403,
    " nat": 444,
    "atal": 1487,
    "tale": 6240,
    "alen": 1226,
    "lens": 3922,
    " cri": 140,
    "etul": 2732,
    "tulu": 6505,
    " gri": 285,
    " wi": 724,
    " win": 725,
    "wint": 6886,
    "gor": 3021,
    "sung": 6200,
    "ungo": 6677,
    "ngor": 4553,
    "goru": 3022,
    "sho": 6037,
    "rt-": 5869,
    " sho": 608,
    "shor": 6038,
    "ort-": 5054,
    "rt-t": 5870,
    "opo": 5000,
    "pos": 5354,
    " opo": 478,
    "opos": 5001,
    "poss": 5355,
    "elp": 2477,
    "mono": 4318,
    "onod": 4951,
    "node": 4629,
    "delp": 2121,
    "elph": 2478,
    "lphi": 4097,
    "ars": 1445,
    "sup": 6201,
    "upi": 6690,
    "mars": 4198,
    "arsu": 1446,
    "rsup": 5865,
    "supi": 6202,
    "upia": 6691,
    "pial": 5301,
    "nut": 4714,
    " min": 422,
    "minu": 4277,
    "inut": 3563,
    "nuto": 4715,
    "utoi": 6765,
    "toid": 6414,
    "gam": 2907,
    " gam": 256,
    "gamb": 2908,
    "ambi": 1271,
    "mbia": 4219,
    "pou": 5360,
    " pou": 525,
    "pouc": 5361,
    "ouch": 5134,
    "uche": 6558,
    "ched": 1844,
    "hed ": 3112,
    "eto": 2722,
    "ceto": 1836,
    "etom": 2724,
    "coa": 1945,
    "oat": 4738,
    "imu": 3497,
    "mun": 4359,
    " coa": 129,
    "coat": 1946,
    "oati": 4739,
    "atim": 1504,
    "timu": 6363,
    "imun": 3498,
    "mund": 4360,
    "undi": 6672,
    "asu": 1476,
    "sua": 6183,
    "nasu": 4420,
    "asua": 1477,
    "sua ": 6184,
    "rva": 5907,
    "val": 6781,
    "serv": 6013,
    "erva": 2676,
    "rval": 5908,
    "val ": 6782,
    "lept": 3931,
    "epta": 2595,
    "ptai": 5403,
    "ailu": 1176,
    "ilur": 3476,
    "luru": 4138,
    "nten": 4683,
    "tens": 6290,
    "ense": 2549,
    "nse ": 4665,
    "mir": 4280,
    "saim": 5951,
    "aimi": 1179,
    "imir": 3489,
    "miri": 4281,
    "iri ": 3620,
    "ciu": 1905,
    "reu": 5619,
    "sciu": 5979,
    "ciur": 1906,
    "iure": 3688,
    "ureu": 6711,
    "reus": 5620,
    "pri": 5382,
    " pri": 530,
    "prim": 5383,
    "rima": 5683,
    "imat": 3484,
    "mate": 4204,
    "cot": 1984,
    "ott": 5126,
    "on-": 4917,
    "n-t": 4391,
    "op ": 4982,
    " cot": 136,
    "cott": 1985,
    "otto": 5127,
    "tton": 6495,
    "ton-": 6425,
    "on-t": 4918,
    "n-to": 4392,
    "-top": 1012,
    "top ": 6431,
    " tam": 657,
    "tama": 6244,
    "amar": 1266,
    "sag": 5947,
    "agu": 1158,
    " sag": 588,
    "sagu": 5948,
    "agui": 1161,
    "uinu": 6623,
    "oe": 4800,
    " oe": 470,
    "oed": 4801,
    "dip": 2171,
    "ipu": 3601,
    " oed": 471,
    "oedi": 4802,
    "edip": 2366,
    "dipu": 2172,
    "ipus": 3602,
    "ng-": 4535,
    "g-t": 2897,
    "ing-": 3532,
    "ng-t": 4536,
    "g-ta": 2898,
    "emu": 2504,
    "ur ": 6698,
    " lem": 369,
    "lemu": 3917,
    "emur": 2505,
    "mur ": 4362,
    "tag": 6233,
    " pat": 497,
    "pata": 5222,
    "atag": 1486,
    "tago": 6234,
    "onia": 4943,
    "nian": 4567,
    "dol": 2202,
    " dol": 175,
    "doli": 2203,
    "olic": 4863,
    "otis": 5114,
    "gonu": 3017,
    "onum": 4961,
    " les": 372,
    "less": 3938,
    "esse": 2701,
    "ser ": 6010,
    "nre": 4656,
    "rec": 5578,
    " ten": 662,
    "tenr": 6289,
    "enre": 2545,
    "nrec": 4657,
    "rec ": 5579,
    "ech": 2331,
    " ech": 192,
    "echi": 2332,
    "inop": 3551,
    "elf": 2452,
    "lfa": 3952,
    "fai": 2797,
    " tel": 660,
    "telf": 6282,
    "elfa": 2453,
    "lfai": 3953,
    "fair": 2798,
    "sou": 6115,
    "out": 5153,
    "uth": 6762,
    " sou": 630,
    "sout": 6116,
    "outh": 5154,
    "uthe": 6763,
    "hern": 3141,
    "dua": 2250,
    "andu": 1313,
    "ndua": 4485,
    "dua ": 2251,
    "ada": 1102,
    "trad": 6454,
    "rada": 5474,
    "adac": 1103,
    "tyla": 6518,
    "ena": 2516,
    "xena": 6908,
    "enar": 2517,
    "nart": 4416,
    "arth": 1449,
    "thra": 6331,
    "hran": 3231,
    "ran ": 5496,
    "gene": 2944,
    "enet": 2529,
    "net ": 4521,
    "nett": 4523,
    "etta": 2729,
    " war": 718,
    "wary": 6866,
    "hb": 3102,
    "ush": 6746,
    "shb": 6033,
    "hba": 3103,
    "bab": 1594,
    " bus": 92,
    "bush": 1732,
    "ushb": 6747,
    "shba": 6034,
    "hbab": 3104,
    "baby": 1595,
    "lag": 3831,
    "go ": 3007,
    "gala": 2903,
    "alag": 1212,
    "lago": 3832,
    "ago ": 1156,
    "reh": 5595,
    "ehe": 2419,
    "le-": 3902,
    "preh": 5380,
    "rehe": 5596,
    "ehen": 2420,
    "hens": 3132,
    "nsil": 4668,
    "sile": 6059,
    "ile-": 3451,
    "le-t": 3903,
    "e-ta": 2284,
    "rcu": 5553,
    "cup": 2038,
    "orcu": 5026,
    "rcup": 5554,
    "cupi": 2039,
    "upin": 6692,
    "coe": 1954,
    "oen": 4803,
    "dou": 2219,
    " coe": 131,
    "coen": 1955,
    "oend": 4804,
    "endo": 2524,
    "ndou": 4479,
    "dou ": 2220,
    "sili": 6060,
    "je": 3728,
    " je": 343,
    "jen": 3729,
    " jen": 344,
    "jend": 3730,
    "enda": 2521,
    "nday": 4461,
    "jan": 3720,
    "aya": 1575,
    " jan": 339,
    "jand": 3721,
    "daya": 2095,
    "aya ": 1576,
    " nan": 442,
    "rak": 5484,
    "kee": 3759,
    "eet": 2392,
    "arak": 1392,
    "rake": 5485,
    "akee": 1200,
    "keet": 3760,
    "eet ": 2393,
    " nen": 446,
    "nend": 4506,
    "d-c": 2063,
    "-ca": 967,
    "ppe": 5367,
    "old-": 4856,
    "ld-c": 3889,
    "d-ca": 2064,
    "-cap": 968,
    "capp": 1778,
    "appe": 1376,
    "pped": 5368,
    "icap": 3332,
    "capi": 1777,
    "apil": 1371,
    "pill": 5311,
    "illu": 3469,
    "crim": 1997,
    "rims": 5685,
    "sel": 6000,
    "osel": 5078,
    "sell": 6001,
    "tyc": 6515,
    "erc": 2615,
    "plat": 5331,
    "laty": 3861,
    "atyc": 1528,
    "tyce": 6516,
    "ycer": 6961,
    "cerc": 1831,
    "ercu": 2616,
    "rcus": 5555,
    "xim": 6919,
    "miu": 4289,
    " exi": 219,
    "exim": 2771,
    "ximi": 6920,
    "imiu": 3491,
    "mius": 4290,
    "urk": 6716,
    "rke": 5724,
    "ke'": 3755,
    "bour": 1693,
    "ourk": 5146,
    "urke": 6717,
    "rke'": 5725,
    "ke's": 3756,
    "neo": 4508,
    "sep": 6007,
    " neo": 447,
    "neop": 4510,
    "eops": 2575,
    "opse": 5004,
    "psep": 5394,
    "seph": 6008,
    "epho": 2585,
    "hotu": 3225,
    "urki": 6718,
    "aniv": 1326,
    "eol": 2567,
    "ola": 4849,
    "ineo": 3525,
    "neol": 4509,
    "eola": 2568,
    "olat": 4851,
    "olb": 4852,
    "lbo": 3879,
    "bolb": 1674,
    "olbo": 4853,
    "lbor": 3880,
    "borh": 1686,
    "ola ": 4850,
    "wne": 6889,
    "ned": 4497,
    "ed-c": 2354,
    "d-cr": 2065,
    "-cro": 973,
    "crow": 2003,
    "rown": 5826,
    "owne": 5178,
    "wned": 6890,
    "ned ": 4498,
    "cya": 2048,
    " cya": 150,
    "cyan": 2049,
    "yano": 6952,
    "anor": 1340,
    "nora": 4644,
    "oram": 5020,
    "mphu": 4341,
    "ez": 2787,
    "nov": 4653,
    "ova": 5156,
    "vae": 6779,
    "aez": 1139,
    "eze": 2788,
    "zel": 7094,
    " nov": 458,
    "nova": 4654,
    "ovae": 5157,
    "vaez": 6780,
    "aeze": 1140,
    "ezel": 2789,
    "zela": 7095,
    "diae": 2150,
    "lex": 3947,
    "alex": 1229,
    "lexa": 3948,
    "xand": 6904,
    "ndri": 4482,
    "drin": 2235,
    "upa": 6688,
    "eupa": 2748,
    "upat": 6689,
    "patr": 5223,
    "mart": 4199,
    "m-": 4160,
    "plu": 5336,
    "um-": 6654,
    "m-h": 4161,
    " plu": 517,
    "plum": 5337,
    "lum-": 4135,
    "um-h": 6655,
    "m-he": 4162,
    "hala": 3085,
    "rby": 5544,
    "bya": 1737,
    " der": 166,
    "derb": 2136,
    "erby": 2614,
    "rbya": 5545,
    "byan": 1738,
    "rbia": 5536,
    "e-h": 2279,
    "ue-h": 6586,
    "e-he": 2280,
    "ionu": 3578,
    "onus": 4963,
    "uu": 6771,
    "men": 4245,
    "tru": 6475,
    "ruu": 5904,
    "uus": 6772,
    " men": 412,
    "mens": 4246,
    "enst": 2551,
    "stru": 6176,
    "truu": 6477,
    "ruus": 5905,
    "uus ": 6773,
    "yer": 6978,
    " mey": 418,
    "meye": 4263,
    "eyer": 2784,
    "yer'": 6979,
    "yeri": 6980,
    "jar": 3724,
    "rdi": 5563,
    "ne'": 4489,
    " jar": 341,
    "jard": 3725,
    "ardi": 1406,
    "rdin": 5564,
    "dine": 2166,
    "ine'": 3522,
    "ne's": 4490,
    "uli": 6641,
    "lmi": 4045,
    "mi ": 4265,
    " gul": 289,
    "guli": 3062,
    "ulie": 6642,
    "liel": 3977,
    "ielm": 3385,
    "elmi": 2471,
    "lmi ": 4046,
    "d-b": 2061,
    "ed-b": 2353,
    "d-be": 2062,
    "ufi": 6601,
    "fiv": 2847,
    "rufi": 5891,
    "ufiv": 6602,
    "five": 2848,
    "lah": 3833,
    "alah": 1213,
    "lah ": 3834,
    " eo": 205,
    " eol": 206,
    "eolo": 2569,
    "olop": 4872,
    "eica": 2425,
    "gof": 3008,
    "off": 4808,
    "ffi": 2825,
    " gof": 277,
    "goff": 3009,
    "offi": 4809,
    "ffin": 2826,
    "fin'": 2840,
    "fini": 2842,
    "inia": 3541,
    "maj": 4176,
    "jor": 3735,
    " maj": 397,
    "majo": 4177,
    "ajor": 1193,
    "jor ": 3736,
    "tc": 6263,
    "itc": 3656,
    "tch": 6264,
    " mit": 424,
    "mitc": 4287,
    "itch": 3657,
    "tche": 6265,
    "hoc": 3199,
    "roa": 5763,
    " lop": 385,
    "phoc": 5280,
    "hoch": 3200,
    "ochr": 4761,
    "chro": 1869,
    "hroa": 3238,
    "roa ": 5764,
    "adb": 1104,
    "dbe": 2099,
    " lea": 368,
    "lead": 3906,
    "eadb": 2291,
    "adbe": 1105,
    "dbea": 2100,
    "beat": 1620,
    "eate": 2311,
    "teri": 6299,
    "e-e": 2275,
    " bar": 62,
    "bare": 1607,
    "are-": 1410,
    "re-e": 5574,
    "e-ey": 2276,
    "sang": 5957,
    "hah": 3080,
    "ahn": 1166,
    "hn'": 3192,
    " hah": 295,
    "hahn": 3081,
    "ahn'": 1167,
    "hn's": 3193,
    "dio": 2169,
    " dio": 170,
    "diop": 2170,
    "taca": 6227,
    "aca ": 1052,
    "obi": 4745,
    " nob": 455,
    "nobi": 4625,
    "obil": 4746,
    "n-w": 4393,
    "-wi": 1017,
    "ged": 2933,
    "en-w": 2515,
    "n-wi": 4394,
    "-win": 1018,
    "inge": 3534,
    "nged": 4543,
    "ged ": 2934,
    "hlo": 3187,
    "chlo": 1860,
    "hlor": 3188,
    "loro": 4075,
    "orop": 5046,
    "ropt": 5802,
    "ilit": 3461,
    "tari": 6254,
    "gou": 3023,
    "uld": 6636,
    " gou": 281,
    "goul": 3024,
    "ould": 5140,
    "uldi": 6637,
    "ldia": 3896,
    "ryt": 5929,
    "eryt": 2680,
    "ryth": 5930,
    "ythr": 7075,
    "thru": 6334,
    "rura": 5898,
    "cie": 1886,
    "ety": 2734,
    "ocie": 4764,
    "ciet": 1887,
    "iety": 3397,
    "ety ": 2735,
    "onc": 4923,
    " lon": 384,
    "lonc": 4063,
    "onch": 4924,
    "chur": 1873,
    "ond ": 4926,
    " dov": 178,
    "dove": 2222,
    "ove ": 5159,
    "geop": 2948,
    "eope": 2574,
    "peli": 5240,
    "cun": 2036,
    "une": 6674,
    " cun": 146,
    "cune": 2037,
    "unea": 6675,
    "eata": 2310,
    "gel": 2939,
    " ang": 29,
    "ngel": 4544,
    "gelf": 2940,
    "elfi": 2454,
    "lfis": 3956,
    "yllu": 7010,
    "llum": 4037,
    "scal": 5969,
    "cala": 1758,
    "alar": 1216,
    "lare": 3850,
    "are ": 1409,
    "-ag": 953,
    "i-ag": 3292,
    "-agg": 954,
    "sev": 6021,
    "rum": 5895,
    " sev": 605,
    "seve": 6022,
    "ever": 2756,
    "veru": 6807,
    "erum": 2673,
    "rum ": 5896,
    " ef": 196,
    "efa": 2397,
    " efa": 197,
    "efas": 2398,
    "nv": 4716,
    "onv": 4964,
    "nvi": 4717,
    "ct ": 2009,
    "conv": 1968,
    "onvi": 4965,
    "nvic": 4718,
    "vict": 6820,
    "ict ": 3355,
    "hli": 3185,
    "chli": 1859,
    "hlid": 3186,
    "lid ": 3972,
    "itl": 3671,
    "tla": 6387,
    "atit": 1507,
    "titl": 6379,
    "itla": 3672,
    "tlan": 6388,
    "ania": 1321,
    "rof": 5779,
    "ofa": 4806,
    "igro": 3434,
    "grof": 3043,
    "rofa": 5780,
    "ofas": 4807,
    "erro": 2662,
    "rror": 5846,
    "noa": 4621,
    "oac": 4731,
    "dino": 2168,
    "inoa": 3550,
    "noac": 4622,
    "oaca": 4732,
    "acar": 1055,
    "cara": 1782,
    " riv": 573,
    "rivu": 5717,
    "ivul": 3706,
    "vula": 6846,
    "mps": 4347,
    "sey": 6023,
    "demp": 2124,
    "emps": 2503,
    "mpse": 4348,
    "psey": 5396,
    "sey ": 6024,
    "roci": 5771,
    "ocio": 4767,
    "cio ": 1899,
    "tof": 6410,
    "ctof": 2019,
    "tofa": 6411,
    "elec": 2446,
    "ectr": 2348,
    "ric ": 5663,
    "pul": 5417,
    "lch": 3884,
    " pul": 539,
    "pulc": 5418,
    "ulch": 6635,
    "lche": 3885,
    "jag": 3718,
    "uar": 6536,
    " jag": 338,
    "jagu": 3719,
    "agua": 1159,
    "guar": 3052,
    "uar ": 6537,
    "omi": 4898,
    "arac": 1389,
    "achr": 1068,
    "hrom": 3240,
    "romi": 5790,
    "omis": 4899,
    "mis ": 4283,
    "nag": 4401,
    "uen": 6590,
    "mana": 4187,
    "anag": 1299,
    "nagu": 4402,
    "ague": 1160,
    "guen": 3057,
    "uens": 6591,
    "loa": 4051,
    " loa": 382,
    "loac": 4052,
    "oach": 4733,
    "ach ": 1066,
    "mob": 4304,
    "bot": 1689,
    " chr": 117,
    "romo": 5791,
    "omob": 4905,
    "mobo": 4305,
    "obot": 4749,
    "boti": 1690,
    "otia": 5111,
    "tia ": 6344,
    "acra": 1090,
    "crac": 1989,
    "raca": 5466,
    "bala": 1599,
    "rk ": 5721,
    "shar": 6032,
    "hark": 3099,
    "ark ": 1428,
    "tio": 6368,
    "hei": 3116,
    "alan": 1215,
    "lant": 3844,
    "anti": 1348,
    "ntio": 4693,
    "tioc": 6369,
    "ioch": 3568,
    "chei": 1846,
    "heil": 3117,
    "eilo": 2431,
    "ilos": 3471,
    "los ": 4077,
    "anop": 1339,
    "nopt": 4641,
    "doll": 2204,
    "llar": 4019,
    "lar ": 3849,
    "tyn": 6521,
    "ynn": 7026,
    " met": 416,
    "mety": 4258,
    "etyn": 2736,
    "tynn": 6522,
    "ynni": 7027,
    "nnis": 4618,
    "hyp": 3279,
    "yps": 7048,
    "psa": 5391,
    "auc": 1531,
    " hyp": 322,
    "hyps": 3281,
    "ypsa": 7049,
    "psau": 5392,
    "sauc": 5961,
    "auch": 1532,
    "chen": 1849,
    "hen ": 3130,
    "hoo": 3212,
    "ook": 4973,
    "ok ": 4845,
    " hoo": 312,
    "hook": 3213,
    "ook ": 4974,
    "myl": 4378,
    "opl": 4998,
    " myl": 438,
    "mylo": 4379,
    "ylop": 7012,
    "lopl": 4071,
    "oplu": 4999,
    "plus": 5338,
    "rub": 5884,
    "ipi": 3594,
    "inn": 3546,
    " rub": 583,
    "rubr": 5885,
    "brip": 1711,
    "ripi": 5700,
    "ipin": 3595,
    "pinn": 5317,
    "inni": 3547,
    " gh": 265,
    "gho": 2968,
    " gho": 266,
    "ghos": 2969,
    "host": 3220,
    "ost ": 5087,
    " ap": 32,
    " apt": 33,
    "eron": 2651,
    "bif": 1642,
    "ifr": 3410,
    "lbif": 3877,
    "bifr": 1643,
    "ifro": 3411,
    "rons": 5796,
    "ons ": 4955,
    "ntn": 4696,
    "elep": 2449,
    "phan": 5264,
    "hant": 3094,
    "antn": 1349,
    "ntno": 4697,
    "tnos": 6399,
    " gn": 274,
    "nem": 4503,
    " gna": 275,
    "atho": 1499,
    "hone": 3211,
    "onem": 4929,
    "nemu": 4504,
    "emus": 2506,
    "ters": 6303,
    "rsii": 5861,
    "pe ": 5229,
    " rop": 578,
    "ope ": 4987,
    "erp": 2656,
    " erp": 211,
    "erpe": 2657,
    "peto": 5259,
    "etoi": 2723,
    "toic": 6413,
    "oich": 4835,
    "thys": 6340,
    "hys ": 3283,
    "aba": 1042,
    "alab": 1210,
    "laba": 3822,
    "abar": 1043,
    "bari": 1608,
    "aric": 1421,
    "cem": 1820,
    "emb": 2491,
    "acem": 1064,
    "cemb": 1821,
    "embe": 2492,
    "mbel": 4216,
    "belu": 1630,
    "thro": 6333,
    "hrot": 3241,
    "rota": 5815,
    "otae": 5101,
    "enia": 2534,
    "tir": 6372,
    " tir": 672,
    "tire": 6373,
    "rmat": 5741,
    "matu": 4207,
    "nate": 4423,
    "tip": 6370,
    "nati": 4425,
    "atip": 1506,
    "tipi": 6371,
    "lh": 3959,
    "elh": 2455,
    "lhe": 3960,
    "hez": 3147,
    "ezi": 2790,
    "zi ": 7099,
    "delh": 2119,
    "elhe": 2456,
    "lhez": 3961,
    "hezi": 3148,
    "ezi ": 2791,
    "plec": 5334,
    "leco": 3910,
    "eco ": 2339,
    "ypo": 7044,
    "omu": 4907,
    "hypo": 3280,
    "ypos": 7045,
    "post": 5356,
    "osto": 5089,
    "tomu": 6421,
    "omus": 4908,
    "cos": 1982,
    "ecos": 2342,
    "cost": 1983,
    "ist": 3643,
    "stl": 6167,
    " bri": 85,
    "rist": 5706,
    "istl": 3644,
    "stle": 6168,
    "tlen": 6391,
    "leno": 3921,
    "enos": 2543,
    "cis": 1903,
    " anc": 27,
    "anci": 1303,
    "ncis": 4442,
    "cist": 1904,
    "istr": 3645,
    "trus": 6476,
    " cir": 122,
    "pea ": 5231,
    "rino": 5691,
    "inot": 3552,
    "note": 4649,
    "otet": 5106,
    "rav": 5522,
    "trav": 6458,
    "rava": 5523,
    "vanc": 6786,
    "anco": 1304,
    "ncor": 4448,
    "cori": 1977,
    "oric": 5035,
    " ko": 354,
    "koi": 3795,
    "oi ": 4832,
    " koi": 355,
    "koi ": 3796,
    "rp ": 5828,
    "arp ": 1441,
    "ypr": 7046,
    "cypr": 2058,
    "ypri": 7047,
    "prin": 5384,
    "ofu": 4813,
    "fus": 2888,
    "ubro": 6550,
    "brof": 1714,
    "rofu": 5781,
    "ofus": 4814,
    "fusc": 2889,
    "pon": 5349,
    " pon": 522,
    "pond": 5350
  },
  "idf": [
    1.2736243329615493,
    3.0014800002101243,
    5.458215773031428,
    5.863680881139593,
    3.0603205002330576,
    5.863680881139593,
    5.863680881139593,
    5.1705337005796475,
    5.863680881139593,
    5.458215773031428,
    4.158932788901167,
    4.158932788901167,
    4.254242968705492,
    5.458215773031428,
    4.477386520019701,
    3.421333845770388,
    5.1705337005796475,
    5.863680881139593,
    3.7842393394597567,
    5.458215773031428,
    5.863680881139593,
    3.0304675370833762,
    4.947390149265438,
    5.458215773031428,
    5.863680881139593,
    3.1228408572143915,
    4.359603484363318,
    5.863680881139593,
    5.1705337005796475,
    5.863680881139593,
    5.863680881139593,
    5.458215773031428,
    5.863680881139593,
    5.863680881139593,
    2.4963850511531183,
    2.4963850511531183,
    2.0135332794295335,
    4.359603484363318,
    2.0794912472213314,
    5.863680881139593,
    5.863680881139593,
    5.458215773031428,
    5.458215773031428,
    4.947390149265438,
    5.863680881139593,
    5.863680881139593,
    5.863680881139593,
    5.863680881139593,
    5.1705337005796475,
    5.863680881139593,
    5.863680881139593,
    5.863680881139593,
    4.947390149265438,
    5.1705337005796475,
    5.863680881139593,
    5.863680881139593,
    5.863680881139593,
    2.0135332794295335,
    4.765068592471483,
    5.458215773031428,
    5.863680881139593,
    5.863680881139593,
    5.863680881139593,
    4.947390149265438,
    5.458215773031428,
    5.863680881139593,
    5.863680881139593,
    2.549494876467067,
    4.947390149265438,
    2.6856270507916467,
    5.458215773031428,
    5.863680881139593,
    4.0719214119115374,
    4.947390149265438,
    5.863680881139593,
    4.610917912644224,
    3.7842393394597567,
    4.477386520019701,
    5.1705337005796475,
    5.458215773031428,
    5.458215773031428,
    5.863680881139593,
    4.477386520019701,
    5.1705337005796475,
    5.458215773031428,
    5.863680881139593,
    5.863680881139593,
    4.158932788901167,
    5.458215773031428,
    5.863680881139593,
    5.863680881139593,
    4.947390149265438,
    5.863680881139593,
    5.1705337005796475,
    1.3638712108093274,
    1.6223541285688459,
    4.947390149265438,
    5.863680881139593,
    5.1705337005796475,
    2.3824407918039006,
    5.863680881139593,
    4.947390149265438,
    5.458215773031428,
    2.0681916919673977,
    5.863680881139593,
    4.947390149265438,
    5.863680881139593,
    5.458215773031428,
    4.947390149265438,
    5.863680881139593,
    5.458215773031428,
    5.863680881139593,
    3.612389082533097,
    5.1705337005796475,
    4.947390149265438,
    4.359603484363318,
    5.458215773031428,
    5.863680881139593,
    4.477386520019701,
    5.1705337005796475,
    5.863680881139593,
    5.863680881139593,
    5.863680881139593,
    5.863680881139593,
    4.610917912644224,
    5.458215773031428,
    5.863680881139593,
    5.1705337005796475,
    3.0304675370833762,
    5.863680881139593,
    4.359603484363318,
    5.863680881139593,
    5.1705337005796475,
    4.610917912644224,
    4.477386520019701,
    4.610917912644224,
    5.863680881139593,
    3.917770732084279,
    5.1705337005796475,
    5.863680881139593,
    5.1705337005796475,
    5.1705337005796475,
    4.765068592471483,
    5.863680881139593,
    4.158932788901167,
    5.458215773031428,
    5.863680881139593,
    4.477386520019701,
    5.863680881139593,
    4.359603484363318,
    5.458215773031428,
    5.863680881139593,
    5.1705337005796475,
    5.458215773031428,
    2.586536148147416,
    4.254242968705492,
    5.458215773031428,
    5.1705337005796475,
    5.863680881139593,
    5.1705337005796475,
    3.612389082533097,
    4.765068592471483,
    5.863680881139593,
    4.610917912644224,
    5.458215773031428,
    4.947390149265438,
    5.863680881139593,
    4.765068592471483,
    5.458215773031428,
    5.863680881139593,
    5.863680881139593,
    5.863680881139593,
    3.8487778605973277,
    5.1705337005796475,
    5.863680881139593,
    5.1705337005796475,
    4.765068592471483,
    5.863680881139593,
    5.863680881139593,
    4.610917912644224,
    4.765068592471483,
    5.863680881139593,
    5.863680881139593,
    5.863680881139593,
    5.1705337005796475,
    5.1705337005796475,
    5.863680881139593,
    5.863680881139593,
    1.961708211564948,
    2.3824407918039006,
    2.3824407918039006,
    5.458215773031428,
    5.863680881139593,
    5.863680881139593,
    5.1705337005796475,
    5.1705337005796475,
    5.863680881139593,
    5.863680881139593,
    4.610917912644224,
    5.863680881139593,
    4.947390149265438,
    5.863680881139593,
    5.1705337005796475,
    5.458215773031428,
    5.863680881139593,
    5.863680881139593,
    5.863680881139593,
    5.863680881139593,
    5.863680881139593,
    4.765068592471483,
    5.863680881139593,
    5.863680881139593,
    5.1705337005796475,
    4.947390149265438,
    5.863680881139593,
    5.863680881139593,
    5.458215773031428,
    3.6664563038033733,
    5.863680881139593,
    5.863680881139593,
    3.991878704238001,
    4.359603484363318,
    2.0135332794295335,
    4.477386520019701,
    5.863680881139593,
    5.863680881139593,
    5.458215773031428,
    5.458215773031428,
    5.863680881139593,
    4.765068592471483,
    5.458215773031428,
    5.863680881139593,
    5.458215773031428,
    2.5678440151352637,
    5.863680881139593,
    5.863680881139593,
    5.863680881139593,
    4.947390149265438,
    4.610917912644224,
    2.7956279460059754,
    5.1705337005796475,
    5.863680881139593,
    5.863680881139593,
    5.863680881139593,
    5.458215773031428,
    5.863680881139593,
    5.863680881139593,
    2.3227215571022786,
    2.6650077635889113,
    4.947390149265438,
    3.6664563038033733,
    5.458215773031428,
    5.458215773031428,
    1.9924798702317015,
    4.610917912644224,
    5.1705337005796475,
    5.863680881139593,
    5.458215773031428,
    3.337952236831337,
    4.0719214119115374,
    5.863680881139593,
    4.254242968705492,
    5.1705337005796475,
    5.863680881139593,
    5.863680881139593,
    5.863680881139593,
    5.863680881139593,
    4.947390149265438,
    5.1705337005796475,
    5.863680881139593,
    5.863680881139593,
    5.458215773031428,
    5.863680881139593,
    5.863680881139593,
    5.863680881139593,
    5.863680881139593,
    4.359603484363318,
    5.863680881139593,
    5.1705337005796475,
    5.458215773031428,
    5.863680881139593,
    5.863680881139593,
    2.413693335308005,
    3.991878704238001,
    4.158932788901167,
    5.863680881139593,
    2.7501655719292177,
    4.765068592471483,
    5.458215773031428,
    5.863680881139593,
    5.458215773031428,
    5.863680881139593,
    5.863680881139593,
    1.752807016966281,
    2.0350394846504973,
    5.863680881139593,
    4.765068592471483,
    2.10248076544603,
    3.0910921588998113,
    5.458215773031428,
    5.863680881139593,
    5.458215773031428,
    5.863680881139593,
    3.337952236831337,
    5.863680881139593,
    3.917770732084279,
    4.0719214119115374,
    5.863680881139593,
    5.863680881139593,
    4.610917912644224,
    5.863680881139593,
    5.863680881139593,
    5.863680881139593,
    5.458215773031428,
    5.863680881139593,
    5.863680881139593,
    5.863680881139593,
    4.610917912644224,
    5.863680881139593,
    5.863680881139593,
    5.863680881139593,
    5.863680881139593,
    5.458215773031428,
    2.6856270507916467,
    5.863680881139593,
    5.863680881139593,
    5.458215773031428,
    5.458215773031428,
    5.458215773031428,
    5.863680881139593,
    5.863680881139593,
    2.772638427781277,
    5.1705337005796475,
    3.0603205002330576,
    4.359603484363318,
    4.158932788901167,
    4.158932788901167,
    4.947390149265438,
    5.863680881139593,
    5.863680881139593,
    5.458215773031428,
    5.863680881139593,
    5.863680881139593,
    5.863680881139593,
    5.863680881139593,
    3.991878704238001,
    5.863680881139593,
    5.863680881139593,
    4.765068592471483,
    5.863680881139593,
    4.947390149265438,
    5.1705337005796475,
    5.458215773031428,
    5.863680881139593,
    5.863680881139593,
    5.863680881139593,
    5.863680881139593,
    5.863680881139593,
    5.863680881139593,
    5.863680881139593,
    1.2436220826577504,
    4.254242968705492,
    5.863680881139593,
    5.458215773031428,
    4.947390149265438,
    5.863680881139593,
    5.863680881139593,
    4.158932788901167,
    5.863680881139593,
    5.863680881139593,
    5.458215773031428,
    5.1705337005796475,
    5.863680881139593,
    5.863680881139593,
    5.863680881139593,
    2.9733091232434274,
    5.863680881139593,
    5.458215773031428,
    5.863680881139593,
    5.863680881139593,
    3.1228408572143915,
    1.3257194448449512,
    5.863680881139593,
    5.863680881139593,
    5.863680881139593,
    5.863680881139593,
    5.863680881139593,
    4.947390149265438,
    5.863680881139593,
    1.3418923040905522,
    5.1705337005796475,
    5.863680881139593,
    5.863680881139593,
    5.863680881139593,
    1.2685610310050026,
    2.3373203565234313,
    4.158932788901167,
    5.863680881139593,
    4.947390149265438,
    2.8191584434161694,
    5.458215773031428,
    5.458215773031428,
    4.477386520019701,
    5.1705337005796475,
    5.863680881139593,
    5.863680881139593,
    5.863680881139593,
    5.863680881139593,
    1.4692317264671537,
    1.5069720544500007,
    5.863680881139593,
    4.947390149265438,
    5.863680881139593,
    5.863680881139593,
    5.458215773031428,
    5.863680881139593,
    5.863680881139593,
    5.863680881139593,
    5.863680881139593,
    3.7842393394597567,
    5.863680881139593,
    4.0719214119115374,
    5.863680881139593,
    5.863680881139593,
    5.863680881139593,
    3.421333845770388,
    5.863680881139593,
    5.458215773031428,
    4.158932788901167,
    4.947390149265438,
    5.863680881139593,
    5.863680881139593,
    5.1705337005796475,
    4.610917912644224,
    5.863680881139593,
    4.765068592471483,
    5.1705337005796475,
    5.863680881139593,
    5.863680881139593,
    5.863680881139593,
    1.0116506172199753,
    4.947390149265438,
    5.863680881139593,
    5.458215773031428,
    5.863680881139593,
    3.991878704238001,
    5.863680881139593,
    5.863680881139593,
    5.863680881139593,
    5.863680881139593,
    4.359603484363318,
    5.458215773031428,
    5.458215773031428,
    1.0155645165411116,
    1.0155645165411116,
    5.863680881139593,
    5.863680881139593,
    5.863680881139593,
    5.863680881139593,
    5.863680881139593,
    5.863680881139593,
    5.863680881139593,
    5.863680881139593,
    1.6589882617486262,
    4.947390149265438,
    5.458215773031428,
    5.458215773031428,
    5.458215773031428,
    5.863680881139593,
    5.863680881139593,
    5.863680881139593,
    5.863680881139593,
    1.7693363189174915,
    1.7693363189174915,
    5.863680881139593,
    5.863680881139593,
    5.458215773031428,
    5.863680881139593,
    5.863680881139593,
    4.477386520019701,
    5.458215773031428,
    5.1705337005796475,
    5.863680881139593,
    5.863680881139593,
    5.1705337005796475,
    5.863680881139593,
    5.458215773031428,
    5.863680881139593,
    5.863680881139593,
    1.5395482248846135,
    2.1873802092325163,
    5.458215773031428,
    5.458215773031428,
    2.3227215571022786,
    5.458215773031428,
    5.1705337005796475,
    3.0014800002101243,
    5.863680881139593,
    3.8487778605973277,
    4.359603484363318,
    5.1705337005796475,
    5.1705337005796475,
    4.158932788901167,
    5.1705337005796475,
    5.863680881139593,
    5.1705337005796475,
    5.863680881139593,
    5.458215773031428,
    4.477386520019701,
    5.458215773031428,
    5.863680881139593,
    5.458215773031428,
    5.863680881139593,
    5.458215773031428,
    4.254242968705492,
    4.765068592471483,
    5.1705337005796475,
    5.863680881139593,
    3.421333845770388,
    5.458215773031428,
    4.254242968705492,
    4.947390149265438,
    5.863680881139593,
    5.458215773031428,
    5.458215773031428,
    5.863680881139593,
    5.863680881139593,
    3.421333845770388,
    5.458215773031428,
    3.8487778605973277,
    4.947390149265438,
    5.458215773031428,
    4.610917912644224,
    5.863680881139593,
    4.765068592471483,
    5.1705337005796475,
    5.1705337005796475,
    4.359603484363318,
    4.947390149265438,
    5.863680881139593,
    5.863680881139593,
    5.863680881139593,
    5.863680881139593,
    3.7842393394597567,
    5.458215773031428,
    5.458215773031428,
    4.158932788901167,
    5.863680881139593,
    5.458215773031428,
    5.458215773031428,
    5.458215773031428,
    1.6368471358714127,
    3.8487778605973277,
    5.863680881139593,
    5.863680881139593,
    5.458215773031428,
    5.458215773031428,
    4.477386520019701,
    5.863680881139593,
    1.9318552484152667,
    4.0719214119115374,
    5.863680881139593,
    5.863680881139593,
    5.863680881139593,
    2.024228568546282,
    5.863680881139593,
    5.863680881139593,
    5.458215773031428,
    5.863680881139593,
    5.863680881139593,
    4.947390149265438,
    5.863680881139593,
    5.458215773031428,
    5.863680881139593,
    3.1228408572143915,
    5.863680881139593,
    5.1705337005796475,
    3.5610957881455465,
    5.863680881139593,
    5.863680881139593,
    4.765068592471483,
    5.863680881139593,
    4.610917912644224,
    5.458215773031428,
    5.1705337005796475,
    5.863680881139593,
    1.2387080678553213,
    4.0719214119115374,
    5.863680881139593,
    5.458215773031428,
    4.765068592471483,
    5.458215773031428,
    5.863680881139593,
    4.359603484363318,
    5.458215773031428,
    5.863680881139593,
    5.1705337005796475,
    5.863680881139593,
    5.863680881139593,
    2.893266415569891,
    5.863680881139593,
    5.458215773031428,
    3.5610957881455465,
    3.917770732084279,
    5.458215773031428,
    5.863680881139593,
    3.421333845770388,
    5.458215773031428,
    5.863680881139593,
    5.1705337005796475,
    3.612389082533097,
    4.610917912644224,
    5.863680881139593,
    5.1705337005796475,
    5.863680881139593,
    5.863680881139593,
    4.158932788901167,
    4.254242968705492,
    5.863680881139593,
    5.863680881139593,
    5.863680881139593,
    4.158932788901167,
    4.158932788901167,
    3.0910921588998113,
    3.0910921588998113,
    1.4879238594793063,
    3.991878704238001,
    5.458215773031428,
    1.5732214399912015,
    5.863680881139593,
    5.863680881139593,
    4.477386520019701,
    5.1705337005796475,
    5.863680881139593,
    5.863680881139593,
    5.863680881139593,
    5.863680881139593,
    5.458215773031428,
    5.458215773031428,
    3.612389082533097,
    5.458215773031428,
    5.1705337005796475,
    5.1705337005796475,
    4.158932788901167,
    4.254242968705492,
    5.863680881139593,
    5.863680881139593,
    5.458215773031428,
    5.1705337005796475,
    5.458215773031428,
    5.458215773031428,
    5.863680881139593,
    5.863680881139593,
    1.6151856390902335,
    4.765068592471483,
    5.458215773031428,
    5.863680881139593,
    5.458215773031428,
    1.9516578757114464,
    5.458215773031428,
    5.863680881139593,
    5.863680881139593,
    5.863680881139593,
    1.982117083196155,
    5.1705337005796475,
    5.1705337005796475,
    5.863680881139593,
    5.863680881139593,
    4.947390149265438,
    5.863680881139593,
    5.863680881139593,
    5.863680881139593,
    5.863680881139593,
    3.1556306800373823,
    5.1705337005796475,
    5.863680881139593,
    5.863680881139593,
    5.863680881139593,
    4.158932788901167,
    5.863680881139593,
    3.8487778605973277,
    3.612389082533097,
    4.947390149265438,
    4.254242968705492,
    4.765068592471483,
    3.917770732084279,
    3.917770732084279,
    5.863680881139593,
    5.863680881139593,
    4.610917912644224,
    5.863680881139593,
    5.863680881139593,
    5.1705337005796475,
    5.863680881139593,
    5.863680881139593,
    5.863680881139593,
    5.458215773031428,
    5.458215773031428,
    3.6664563038033733,
    4.610917912644224,
    5.863680881139593,
    4.765068592471483,
    4.765068592471483,
    5.863680881139593,
    5.458215773031428,
    5.458215773031428,
    4.947390149265438,
    5.863680881139593,
    5.458215773031428,
    5.863680881139593,
    5.458215773031428,
    5.863680881139593,
    5.863680881139593,
    5.863680881139593,
    5.863680881139593,
    4.254242968705492,
    4.947390149265438,
    5.458215773031428,
    5.863680881139593,
    5.863680881139593,
    5.863680881139593,
    5.863680881139593,
    5.1705337005796475,
    5.1705337005796475,
    5.863680881139593,
    5.863680881139593,
    5.863680881139593,
    5.863680881139593,
    5.1705337005796475,
    5.1705337005796475,
    5.1705337005796475,
    1.9516578757114464,
    1.9516578757114464,
    5.458215773031428,
    1.961708211564948,
    5.1705337005796475,
    5.1705337005796475,
    5.458215773031428,
    5.863680881139593,
    4.359603484363318,
    5.1705337005796475,
    5.863680881139593,
    5.458215773031428,
    5.863680881139593,
    5.863680881139593,
    5.863680881139593,
    5.863680881139593,
    5.1705337005796475,
    5.1705337005796475,
    1.0,
    5.458215773031428,
    5.863680881139593,
    5.863680881139593,
    5.458215773031428,
    5.863680881139593,
    5.863680881139593,
    5.863680881139593,
    5.863680881139593,
    1.0,
    1.0,
    3.6664563038033733,
    3.6664563038033733,
    5.863680881139593,
    5.1705337005796475,
    5.863680881139593,
    5.863680881139593,
    5.863680881139593,
    5.458215773031428,
    5.863680881139593,
    5.458215773031428,
    5.863680881139593,
    5.1705337005796475,
    5.863680881139593,
    4.947390149265438,
    5.863680881139593,
    5.863680881139593,
    5.863680881139593,
    5.863680881139593,
    5.863680881139593,
    5.863680881139593,
    5.863680881139593,
    5.863680881139593,
    4.610917912644224,
    5.458215773031428,
    5.863680881139593,
    5.863680881139593,
    5.863680881139593,
    5.863680881139593,
    5.863680881139593,
    5.863680881139593,
    5.863680881139593,
    5.863680881139593,
    5.863680881139593,
    5.863680881139593,
    5.1705337005796475,
    5.863680881139593,
    5.863680881139593,
    5.863680881139593,
    5.863680881139593,
    5.863680881139593,
    5.863680881139593,
    1.0,
    5.863680881139593,
    5.863680881139593,
    1.0,
    1.0,
    5.458215773031428,
    5.863680881139593,
    5.863680881139593,
    5.863680881139593,
    5.863680881139593,
    4.477386520019701,
    5.1705337005796475,
    5.1705337005796475,
    5.863680881139593,
    5.863680881139593,
    5.863680881139593,
    5.863680881139593,
    5.863680881139593,
    5.863680881139593,
    5.863680881139593,
    5.863680881139593,
    4.947390149265438,
    4.947390149265438,
    4.947390149265438,
    5.863680881139593,
    5.863680881139593,
    5.863680881139593,
    5.1705337005796475,
    5.863680881139593,
    5.863680881139593,
    5.863680881139593,
    5.863680881139593,
    5.863680881139593,
    5.863680881139593,
    5.1705337005796475,
    5.458215773031428,
    5.863680881139593,
    5.863680881139593,
    5.863680881139593,
    5.863680881139593,
    5.863680881139593,
    5.863680881139593,
    5.863680881139593,
    5.458215773031428,
    5.863680881139593,
    5.863680881139593,
    5.863680881139593,
    5.863680881139593,
    5.458215773031428,
    5.863680881139593,
    5.863680881139593,
    5.863680881139593,
    5.863680881139593,
    5.458215773031428,
    5.458215773031428,
    5.863680881139593,
    5.863680881139593,
    1.0,
    5.863680881139593,
    5.863680881139593,
    5.458215773031428,
    5.458215773031428,
    1.0,
    1.0,
    4.765068592471483,
    5.863680881139593,
    5.863680881139593,
    5.1705337005796475,
    5.863680881139593,
    5.458215773031428,
    5.863680881139593,
    5.863680881139593,
    1.0,
    5.458215773031428,
    5.863680881139593,
    5.863680881139593,
    5.863680881139593,
    5.863680881139593,
    5.458215773031428,
    5.863680881139593,
    5.863680881139593,
    4.947390149265438,
    4.947390149265438,
    5.863680881139593,
    5.863680881139593,
    1.0,
    1.0,
    5.458215773031428,
    5.863680881139593,
    5.863680881139593,
    5.863680881139593,
    5.863680881139593,
    4.947390149265438,
    4.947390149265438,
    5.1705337005796475,
    5.458215773031428,
    5.863680881139593,
    5.1705337005796475,
    5.863680881139593,
    5.863680881139593,
    5.863680881139593,
    5.458215773031428,
    5.863680881139593,
    5.863680881139593,
    1.0,
    5.863680881139593,
    5.863680881139593,
    5.863680881139593,
    5.863680881139593,
    5.1705337005796475,
    5.863680881139593,
    5.863680881139593,
    5.863680881139593,
    5.863680881139593,
    5.863680881139593,
    1.0,
    1.0,
    5.863680881139593,
    5.863680881139593,
    4.765068592471483,
    5.863680881139593,
    5.863680881139593,
    5.1705337005796475,
    5.863680881139593,
    5.863680881139593,
    4.765068592471483,
    5.458215773031428,
    5.863680881139593,
    5.863680881139593,
    5.863680881139593,
    5.863680881139593,
    5.863680881139593,
    5.863680881139593,
    5.863680881139593,
    5.863680881139593,
    4.359603484363318,
    5.1705337005796475,
    5.863680881139593,
    5.458215773031428,
    5.863680881139593,
    5.863680881139593,
    5.458215773031428,
    5.458215773031428,
    5.863680881139593,
    5.863680881139593,
    5.863680881139593,
    5.863680881139593,
    3.512305623976115,
    3.512305623976115,
    5.863680881139593,
    5.863680881139593,
    3.4657856083412217,
    5.863680881139593,
    5.863680881139593,
    5.458215773031428,
    5.458215773031428,
    3.7236147176433216,
    3.7236147176433216,
    5.458215773031428,
    5.458215773031428,
    4.765068592471483,
    5.863680881139593,
    5.863680881139593,
    4.947390149265438,
    4.947390149265438,
    4.947390149265438,
    5.863680881139593,
    5.863680881139593,
    5.863680881139593,
    5.863680881139593,
    5.458215773031428,
    5.863680881139593,
    5.863680881139593,
    4.947390149265438,
    5.863680881139593,
    5.863680881139593,
    5.1705337005796475,
    5.1705337005796475,
    4.765068592471483,
    5.863680881139593,
    5.863680881139593,
    5.458215773031428,
    5.458215773031428,
    5.863680881139593,
    5.863680881139593,
    5.863680881139593,
    5.863680881139593,
    5.863680881139593,
    5.863680881139593,
    5.863680881139593,
    5.1705337005796475,
    5.1705337005796475,
    5.1705337005796475,
    5.863680881139593,
    5.863680881139593,
    5.863680881139593,
    5.458215773031428,
    5.458215773031428,
    5.458215773031428,
    4.610917912644224,
    4.947390149265438,
    4.947390149265438,
    5.458215773031428,
    5.458215773031428,
    3.991878704238001,
    4.610917912644224,
    4.610917912644224,
    5.863680881139593,
    5.863680881139593,
    4.765068592471483,
    5.863680881139593,
    5.863680881139593,
    5.1705337005796475,
    5.458215773031428,
    5.863680881139593,
    5.863680881139593,
    5.863680881139593,
    5.863680881139593,
    1.0,
    1.0,
    1.0,
    5.863680881139593,
    5.458215773031428,
    5.458215773031428,
    5.458215773031428,
    2.8679486075856016,
    2.8679486075856016,
    2.8679486075856016,
    4.610917912644224,
    4.610917912644224,
    4.610917912644224,
    5.863680881139593,
    5.863680881139593,
    5.863680881139593,
    4.765068592471483,
    4.765068592471483,
    4.765068592471483,
    5.863680881139593,
    1.829440242987197,
    4.610917912644224,
    5.863680881139593,
    5.863680881139593,
    5.863680881139593,
    5.863680881139593,
    5.863680881139593,
    5.863680881139593,
    5.863680881139593,
    5.458215773031428,
    5.458215773031428,
    1.982117083196155,
    3.8487778605973277,
    5.863680881139593,
    5.458215773031428,
    5.863680881139593,
    5.458215773031428,
    4.947390149265438,
    4.610917912644224,
    5.458215773031428,
    5.863680881139593,
    5.863680881139593,
    3.917770732084279,
    4.765068592471483,
    4.477386520019701,
    5.458215773031428,
    4.359603484363318,
    5.863680881139593,
    5.458215773031428,
    5.863680881139593,
    5.458215773031428,
    5.458215773031428,
    5.1705337005796475,
    5.863680881139593,
    5.863680881139593,
    5.863680881139593,
    3.991878704238001,
    4.610917912644224,
    5.863680881139593,
    5.863680881139593,
    4.947390149265438,
    5.863680881139593,
    5.458215773031428,
    5.458215773031428,
    5.863680881139593,
    5.863680881139593,
    5.1705337005796475,
    5.863680881139593,
    5.863680881139593,
    5.863680881139593,
    5.1705337005796475,
    5.863680881139593,
    5.458215773031428,
    2.8679486075856016,
    3.0304675370833762,
    5.458215773031428,
    5.863680881139593,
    5.1705337005796475,
    4.254242968705492,
    4.477386520019701,
    5.458215773031428,
    3.7842393394597567,
    5.1705337005796475,
    5.863680881139593,
    5.863680881139593,
    5.863680881139593,
    5.863680881139593,
    5.458215773031428,
    5.863680881139593,
    5.863680881139593,
    5.1705337005796475,
    5.1705337005796475,
    5.863680881139593,
    5.863680881139593,
    5.863680881139593,
    5.863680881139593,
    5.863680881139593,
    5.863680881139593,
    5.863680881139593,
    5.863680881139593,
    5.863680881139593,
    5.863680881139593,
    3.6664563038033733,
    4.765068592471483,
    5.863680881139593,
    5.863680881139593,
    5.863680881139593,
    5.863680881139593,
    5.863680881139593,
    5.863680881139593,
    5.1705337005796475,
    5.1705337005796475,
    5.863680881139593,
    5.863680881139593,
    5.863680881139593,
    5.863680881139593,
    5.458215773031428,
    5.458215773031428,
    5.458215773031428,
    5.458215773031428,
    5.863680881139593,
    5.863680881139593,
    4.158932788901167,
    4.158932788901167,
    4.158932788901167,
    3.512305623976115,
    5.1705337005796475,
    5.863680881139593,
    5.863680881139593,
    5.863680881139593,
    5.863680881139593,
[...]
