{
  "vocabulary": {
    " b": 61,
    "ba": 1689,
    "al": 1270,
    "ll": 4278,
    "l ": 4055,
    " ba": 62,
    "bal": 1695,
    "all": 1309,
    "ll ": 4279,
    " bal": 63,
    "ball": 1697,
    "all ": 1310,
    " p": 509,
    "py": 5788,
    "yt": 7539,
    "th": 6739,
    "ho": 3406,
    "on": 5242,
    "n ": 4672,
    " py": 564,
    "pyt": 5794,
    "yth": 7542,
    "tho": 6752,
    "hon": 3417,
    "on ": 5243,
    " pyt": 567,
    "pyth": 5795,
    "ytho": 7543,
    "thon": 6753,
    "hon ": 3418,
    " บ": 839,
    "บอ": 8452,
    "อล": 9298,
    "ลไ": 9044,
    "ไพ": 10229,
    "พธ": 8526,
    "ธอ": 8263,
    "อน": 9248,
    "น ": 8272,
    " บอ": 842,
    "บอล": 8453,
    "อลไ": 9303,
    "ลไพ": 9045,
    "ไพธ": 10230,
    "พธอ": 8527,
    "ธอน": 8264,
    "อน ": 9249,
    " บอล": 843,
    "บอลไ": 8455,
    "อลไพ": 9304,
    "ลไพธ": 9046,
    "ไพธอ": 10231,
    "พธอน": 8528,
    "ธอน ": 8265,
    " r": 572,
    "re": 5943,
    "eg": 2575,
    "gi": 3160,
    "iu": 3923,
    "us": 7185,
    "s ": 6323,
    " re": 580,
    "reg": 5968,
    "egi": 2581,
    "giu": 3175,
    "ius": 3930,
    "us ": 7186,
    " reg": 583,
    "regi": 5969,
    "egiu": 2583,
    "gius": 3176,
    "ius ": 3931,
    "ep": 2755,
    "pt": 5760,
    "ti": 6767,
    "il": 3662,
    "le": 4159,
    "e ": 2412,
    "rep": 5982,
    "ept": 2770,
    "pti": 5767,
    "til": 6783,
    "ile": 3673,
    "le ": 4160,
    " rep": 585,
    "rept": 5984,
    "epti": 2772,
    "ptil": 5768,
    "tile": 6785,
    "ile ": 3674,
    " s": 607,
    "sn": 6492,
    "na": 4686,
    "ak": 1261,
    "ke": 3993,
    " sn": 645,
    "sna": 6493,
    "nak": 4696,
    "ake": 1264,
    "ke ": 3994,
    " sna": 646,
    "snak": 6494,
    "nake": 4697,
    "ake ": 1265,
    " c": 99,
    "ca": 1856,
    "ar": 1467,
    "rn": 6129,
    "ni": 4861,
    "iv": 3932,
    "vo": 7286,
    "or": 5351,
    " ca": 100,
    "car": 1891,
    "arn": 1522,
    "rni": 6135,
    "niv": 4896,
    "ivo": 3943,
    "vor": 7291,
    "ore": 5367,
    "re ": 5944,
    " car": 108,
    "carn": 1898,
    "arni": 1523,
    "rniv": 6140,
    "nivo": 4897,
    "ivor": 3944,
    "vore": 7293,
    "ore ": 5368,
    " t": 675,
    "te": 6682,
    "er": 2776,
    "rr": 6215,
    "es": 2860,
    "st": 6549,
    "tr": 6886,
    "ri": 6026,
    "ia": 3511,
    " te": 683,
    "ter": 6716,
    "err": 2835,
    "rre": 6218,
    "res": 5985,
    "est": 2884,
    "str": 6576,
    "tri": 6897,
    "ria": 6028,
    "ial": 3515,
    "al ": 1271,
    " ter": 688,
    "terr": 6725,
    "erre": 2837,
    "rres": 6221,
    "rest": 5989,
    "estr": 2887,
    "stri": 6578,
    "tria": 6898,
    "rial": 6030,
    "ial ": 3516,
    "lm": 4310,
    "m ": 4438,
    "cal": 1867,
    "alm": 1314,
    "lm ": 4311,
    " cal": 104,
    "calm": 1873,
    "alm ": 1315,
    " e": 196,
    "ea": 2439,
    "as": 1542,
    "sy": 6611,
    "y ": 7398,
    " ea": 197,
    "eas": 2461,
    "asy": 1566,
    "sy ": 6612,
    " eas": 199,
    "easy": 2463,
    "asy ": 1567,
    " l": 377,
    "lo": 4322,
    "ow": 5513,
    "w ": 7307,
    " lo": 400,
    "low": 4364,
    "ow ": 5514,
    " low": 408,
    "low ": 4365,
    " n": 459,
    "no": 4922,
    "o ": 5041,
    " no": 472,
    "no ": 4923,
    " no ": 473,
    " y": 760,
    "ye": 7439,
    " ye": 761,
    "yes": 7447,
    "es ": 2861,
    " yes": 763,
    "yes ": 7448,
    "so": 6496,
    "ol": 5175,
    "li": 4224,
    "it": 3882,
    "ta": 6633,
    "ry": 6301,
    " so": 647,
    "sol": 6504,
    "oli": 5190,
    "lit": 4266,
    "ita": 3888,
    "tar": 6665,
    "ary": 1539,
    "ry ": 6302,
    " sol": 650,
    "soli": 6505,
    "olit": 5195,
    "lita": 4267,
    "itar": 3892,
    "tary": 6670,
    "ary ": 1540,
    "o_": 5042,
    "_d": 1069,
    "di": 2289,
    "ir": 3841,
    "ec": 2484,
    "ct": 2132,
    "t_": 6628,
    "_w": 1095,
    "wi": 7342,
    "ld": 4143,
    "dl": 2325,
    "if": 3621,
    "fe": 2992,
    "e_": 2434,
    "_p": 1081,
    "pe": 5577,
    "rm": 6114,
    "mi": 4547,
    "_s": 1087,
    "si": 6443,
    "ig": 3634,
    "gn": 3189,
    "no_": 4924,
    "o_d": 5043,
    "_di": 1070,
    "dir": 2315,
    "ire": 3849,
    "rec": 5952,
    "ect": 2507,
    "ct_": 2134,
    "t_w": 6631,
    "_wi": 1096,
    "wil": 7343,
    "ild": 3668,
    "ldl": 4155,
    "dli": 2332,
    "lif": 4241,
    "ife": 3624,
    "fe_": 2993,
    "e_p": 2437,
    "_pe": 1082,
    "per": 5598,
    "erm": 2817,
    "rmi": 6123,
    "mit": 4569,
    "it_": 3886,
    "t_s": 6629,
    "_si": 1088,
    "sig": 6452,
    "ign": 3651,
    "gna": 3190,
    "nal": 4698,
    " no_": 474,
    "no_d": 4925,
    "o_di": 5044,
    "_dir": 1071,
    "dire": 2316,
    "irec": 3852,
    "rect": 5954,
    "ect_": 2508,
    "ct_w": 2135,
    "t_wi": 6632,
    "_wil": 1097,
    "wild": 7344,
    "ildl": 3671,
    "ldli": 4156,
    "dlif": 2334,
    "life": 4242,
    "ife_": 3625,
    "fe_p": 2994,
    "e_pe": 2438,
    "_per": 1083,
    "perm": 5600,
    "ermi": 2819,
    "rmit": 6124,
    "mit_": 4570,
    "it_s": 3887,
    "t_si": 6630,
    "_sig": 1089,
    "sign": 6453,
    "igna": 3652,
    "gnal": 3191,
    "nal ": 4699,
    "et": 2889,
    "ic": 3540,
    "cu": 2155,
    "ul": 7070,
    "la": 4071,
    "at": 1568,
    "ed": 2514,
    "d ": 2190,
    "ret": 5990,
    "eti": 2898,
    "tic": 6772,
    "icu": 3574,
    "cul": 2159,
    "ula": 7072,
    "lat": 4109,
    "ate": 1578,
    "ted": 6695,
    "ed ": 2515,
    " ret": 587,
    "reti": 5992,
    "etic": 2900,
    "ticu": 6776,
    "icul": 3575,
    "cula": 2160,
    "ulat": 7076,
    "late": 4111,
    "ated": 1580,
    "ted ": 6696,
    " ง": 787,
    "งู": 7874,
    "ูเ": 9877,
    "เห": 10045,
    "หล": 9207,
    "ลื": 9018,
    "ือ": 9799,
    "อม": 9271,
    "มต": 8638,
    "ตา": 8140,
    "าข": 9467,
    "ข่": 7704,
    "่า": 10306,
    "าย": 9543,
    "ย ": 8724,
    " งู": 788,
    "งูเ": 7892,
    "ูเห": 9882,
    "เหล": 10046,
    "หลื": 9213,
    "ลือ": 9019,
    "ือม": 9800,
    "อมต": 9272,
    "มตา": 8639,
    "ตาข": 8141,
    "าข่": 9473,
    "ข่า": 7705,
    "่าย": 10326,
    "าย ": 9544,
    " งูเ": 796,
    "งูเห": 7894,
    "ูเหล": 9883,
    "เหลื": 10047,
    "หลือ": 9214,
    "ลือม": 9020,
    "ือมต": 9801,
    "อมตา": 9273,
    "มตาข": 8640,
    "ตาข่": 8142,
    "าข่า": 9474,
    "ข่าย": 7707,
    "่าย ": 10327,
    " m": 413,
    "ma": 4442,
    "ay": 1666,
    "yo": 7497,
    "op": 5315,
    " ma": 414,
    "mal": 4457,
    "ala": 1278,
    "lay": 4124,
    "ayo": 1677,
    "yop": 7500,
    "opy": 5348,
    " mal": 417,
    "mala": 4459,
    "alay": 1287,
    "layo": 4126,
    "ayop": 1678,
    "yopy": 7503,
    "opyt": 5350,
    "tu": 6936,
    "atu": 1614,
    "tus": 6949,
    "latu": 4114,
    "atus": 1617,
    "tus ": 6950,
    "po": 5693,
    "we": 7329,
    "rf": 6000,
    "fu": 3070,
    " po": 538,
    "pow": 5719,
    "owe": 5520,
    "wer": 7334,
    "erf": 2798,
    "rfu": 6004,
    "ful": 3071,
    "ul ": 7071,
    " pow": 547,
    "powe": 5720,
    "ower": 5521,
    "werf": 7335,
    "erfu": 2800,
    "rful": 6005,
    "ful ": 3072,
    " h": 306,
    "ha": 3269,
    "rd": 5929,
    " ha": 307,
    "har": 3296,
    "ard": 1487,
    "rd ": 5930,
    " har": 311,
    "hard": 3297,
    "ard ": 1488,
    "hi": 3352,
    "gh": 3156,
    "h ": 3268,
    " hi": 320,
    "hig": 3360,
    "igh": 3645,
    "gh ": 3157,
    " hig": 321,
    "high": 3361,
    "igh ": 3646,
    "pr": 5732,
    "ro": 6143,
    "ot": 5441,
    "d_": 2212,
    "sp": 6518,
    "ci": 1994,
    "ie": 3594,
    "s_": 6333,
    "_h": 1072,
    "t ": 6617,
    " pr": 548,
    "pro": 5744,
    "rot": 6196,
    "ote": 5447,
    "tec": 6693,
    "cte": 2138,
    "ed_": 2522,
    "d_s": 2213,
    "_sp": 1090,
    "spe": 6523,
    "pec": 5584,
    "eci": 2492,
    "cie": 2002,
    "ies": 3611,
    "es_": 2864,
    "s_h": 6334,
    "_hi": 1073,
    "hit": 3382,
    "it ": 3883,
    " pro": 552,
    "prot": 5748,
    "rote": 6199,
    "otec": 5448,
    "tect": 6694,
    "ecte": 2510,
    "cted": 2139,
    "ted_": 6697,
    "ed_s": 2523,
    "d_sp": 2214,
    "_spe": 1091,
    "spec": 6524,
    "peci": 5585,
    "ecie": 2493,
    "cies": 2003,
    "ies_": 3613,
    "es_h": 2865,
    "s_hi": 6335,
    "_hit": 1074,
    "hit ": 3383,
    "bu": 1830,
    "ur": 7143,
    "me": 4513,
    "se": 6386,
    " bu": 92,
    "bur": 1838,
    "urm": 7167,
    "rme": 6121,
    "mes": 4534,
    "ese": 2871,
    "se ": 6387,
    " bur": 96,
    "burm": 1839,
    "urme": 7168,
    "rmes": 6122,
    "mese": 4535,
    "ese ": 2872,
    "ูห": 9869,
    "ลา": 8987,
    "าม": 9534,
    "มพ": 8659,
    "พม": 8532,
    "ม่": 8717,
    "า ": 9458,
    "งูห": 7887,
    "ูหล": 9872,
    "หลา": 9210,
    "ลาม": 8991,
    "ามพ": 9535,
    "มพม": 8660,
    "พม่": 8533,
    "ม่า": 8718,
    "่า ": 10307,
    " งูห": 794,
    "งูหล": 7889,
    "ูหลา": 9873,
    "หลาม": 9212,
    "ลามพ": 8992,
    "ามพม": 9536,
    "มพม่": 8661,
    "พม่า": 8534,
    "ม่า ": 8719,
    "bi": 1739,
    "vi": 7265,
    "tt": 6919,
    " bi": 71,
    "biv": 1759,
    "ivi": 3939,
    "vit": 7284,
    "itt": 3916,
    "tta": 6922,
    "tat": 6671,
    " biv": 75,
    "bivi": 1761,
    "ivit": 3942,
    "vitt": 7285,
    "itta": 3917,
    "ttat": 6925,
    "tatu": 6674,
    "ut": 7209,
    "but": 1844,
    "ut ": 7210,
    " but": 98,
    "but ": 1845,
    " g": 265,
    "an": 1371,
    "nt": 4979,
    " gi": 279,
    "gia": 3162,
    "ian": 3521,
    "ant": 1422,
    "nt ": 4980,
    " gia": 280,
    "gian": 3164,
    "iant": 3525,
    "ant ": 1423,
    "bl": 1763,
    "oo": 5301,
    "od": 5100,
    " bl": 76,
    "blo": 1770,
    "loo": 4341,
    "ood": 5303,
    "od ": 5101,
    " blo": 78,
    "bloo": 1771,
    "lood": 4342,
    "ood ": 5304,
    "ูบ": 9850,
    "บล": 8436,
    "ลั": 8984,
    "ัด": 9396,
    "ดไ": 8088,
    "งูบ": 7883,
    "ูบล": 9851,
    "บลั": 8442,
    "ลัด": 8985,
    "ัดไ": 9399,
    "ดไพ": 8089,
    " งูบ": 792,
    "งูบล": 7884,
    "ูบลั": 9852,
    "บลัด": 8443,
    "ลัดไ": 8986,
    "ัดไพ": 9400,
    "ดไพธ": 8090,
    "br": 1808,
    "ng": 4830,
    "ge": 3118,
    "rs": 6236,
    "sm": 6487,
    "ai": 1235,
    "i ": 3503,
    " br": 87,
    "bro": 1824,
    "ron": 6176,
    "ong": 5265,
    "nge": 4841,
    "ger": 3140,
    "ers": 2841,
    "rsm": 6247,
    "sma": 6488,
    "mai": 4453,
    "ai ": 1236,
    " bro": 91,
    "bron": 1826,
    "rong": 6177,
    "onge": 5269,
    "nger": 4844,
    "gers": 3146,
    "ersm": 2843,
    "rsma": 6248,
    "smai": 6489,
    "mai ": 4454,
    " d": 161,
    "de": 2248,
    "ef": 2564,
    "en": 2682,
    "ns": 4965,
    "ve": 7242,
    " de": 167,
    "def": 2255,
    "efe": 2567,
    "fen": 2999,
    "ens": 2722,
    "nsi": 4972,
    "siv": 6473,
    "ive": 3935,
    "ve ": 7243,
    " def": 168,
    "defe": 2256,
    "efen": 2568,
    "fens": 3001,
    "ensi": 2725,
    "nsiv": 4976,
    "sive": 6474,
    "ive ": 3936,
    "um": 7096,
    " me": 427,
    "med": 4517,
    "edi": 2532,
    "diu": 2323,
    "ium": 3924,
    "um ": 7097,
    " med": 428,
    "medi": 4518,
    "ediu": 2534,
    "dium": 2324,
    "ium ": 3925,
    "ra": 5828,
    "in": 3726,
    "nb": 4722,
    "bo": 1774,
    " ra": 573,
    "rai": 5851,
    "ain": 1246,
    "inb": 3736,
    "nbo": 4725,
    "bow": 1804,
    " rai": 575,
    "rain": 5852,
    "ainb": 1247,
    "inbo": 3737,
    "nbow": 4726,
    "bow ": 1805,
    "oa": 5045,
    "a ": 1098,
    " bo": 80,
    "boa": 1775,
    "oa ": 5046,
    " boa": 81,
    "boa ": 1776,
    "เร": 10015,
    "รน": 8798,
    "นโ": 8400,
    "โบ": 10183,
    "บว": 8449,
    "ว์": 9120,
    "์โ": 10503,
    "อา": 9326,
    "ูเร": 9880,
    "เรน": 10024,
    "รนโ": 8799,
    "นโบ": 8405,
    "โบว": 10188,
    "บว์": 8450,
    "ว์โ": 9124,
    "์โบ": 10509,
    "โบอ": 10190,
    "บอา": 8456,
    "อา ": 9327,
    "งูเร": 7893,
    "ูเรน": 9881,
    "เรนโ": 10025,
    "รนโบ": 8800,
    "นโบว": 8406,
    "โบว์": 10189,
    "บว์โ": 8451,
    "ว์โบ": 9125,
    "์โบอ": 10510,
    "โบอา": 10191,
    "บอา ": 8457,
    "pi": 5651,
    "cr": 2110,
    " ep": 217,
    "epi": 2763,
    "pic": 5655,
    "icr": 3567,
    "cra": 2111,
    "rat": 5884,
    "tes": 6728,
    " epi": 218,
    "epic": 2764,
    "picr": 5656,
    "icra": 3568,
    "crat": 2114,
    "rate": 5887,
    "ates": 1584,
    "tes ": 6729,
    "ce": 1923,
    "nc": 4727,
    "ch": 1950,
    "hr": 3437,
    " ce": 113,
    "cen": 1934,
    "enc": 2692,
    "nch": 4730,
    "chr": 1980,
    "hri": 3442,
    "ia ": 3512,
    " cen": 115,
    "cenc": 1935,
    "ench": 2693,
    "nchr": 4733,
    "chri": 1982,
    "hria": 3443,
    "ria ": 6029,
    " k": 362,
    "ny": 5032,
    "ya": 7409,
    " ke": 363,
    "ken": 4001,
    "eny": 2733,
    "nya": 5033,
    "yan": 7413,
    "an ": 1372,
    " ken": 364,
    "keny": 4002,
    "enya": 2734,
    "nyan": 5034,
    "yan ": 7414,
    "sa": 6338,
    "nd": 4751,
    " sa": 608,
    "san": 6349,
    "and": 1383,
    "nd ": 4752,
    " san": 612,
    "sand": 6350,
    "and ": 1384,
    "ูท": 9843,
    "ทร": 8205,
    "รา": 8839,
    "ยเ": 8766,
    "เค": 9917,
    "คน": 7727,
    "นย": 8334,
    "ยา": 8756,
    "งูท": 7881,
    "ูทร": 9844,
    "ทรา": 8206,
    "ราย": 8846,
    "ายเ": 9549,
    "ยเค": 8767,
    "เคน": 9918,
    "คนย": 7729,
    "นยา": 8335,
    "ยา ": 8757,
    " งูท": 791,
    "งูทร": 7882,
    "ูทรา": 9845,
    "ทราย": 8207,
    "รายเ": 8848,
    "ายเค": 9550,
    "ยเคน": 8768,
    "เคนย": 9919,
    "คนยา": 7730,
    "นยา ": 8336,
    "yx": 7550,
    "x ": 7362,
    " er": 219,
    "ery": 2856,
    "ryx": 6319,
    "yx ": 7551,
    " ery": 222,
    "eryx": 2859,
    "ryx ": 6320,
    "co": 2064,
    "lu": 4397,
    "ub": 6982,
    "nu": 5013,
    " co": 133,
    "col": 2081,
    "olu": 5208,
    "lub": 4398,
    "ubr": 6992,
    "bri": 1818,
    "rin": 6062,
    "inu": 3789,
    "nus": 5023,
    " col": 138,
    "colu": 2084,
    "olub": 5209,
    "lubr": 4399,
    "ubri": 6993,
    "brin": 1821,
    "rinu": 6068,
    "inus": 3791,
    "nus ": 5024,
    "g ": 3079,
    "urr": 7177,
    "rro": 6230,
    "row": 6206,
    "owi": 5522,
    "win": 7345,
    "ing": 3757,
    "ng ": 4831,
    "burr": 1840,
    "urro": 7180,
    "rrow": 6233,
    "rowi": 6209,
    "owin": 5523,
    "wing": 7346,
    "ing ": 3758,
    "cor": 2099,
    "orn": 5381,
    "rn ": 6130,
    " cor": 141,
    "corn": 2102,
    "orn ": 5382,
    "ูค": 9827,
    "คอ": 7772,
    "อร": 9283,
    "ร์": 8889,
    "์น": 10434,
    "นส": 8340,
    "สเ": 9165,
    "เน": 9974,
    "นก": 8273,
    "ก ": 7579,
    "งูค": 7877,
    "ูคอ": 9828,
    "คอร": 7776,
    "อร์": 9284,
    "ร์น": 8907,
    "์นส": 10436,
    "นสเ": 8344,
    "สเน": 9173,
    "เนก": 9975,
    "นก ": 8274,
    " งูค": 790,
    "งูคอ": 7878,
    "ูคอร": 9829,
    "คอร์": 7777,
    "อร์น": 9290,
    "ร์นส": 8909,
    "์นสเ": 10437,
    "นสเน": 8345,
    "สเนก": 9174,
    "เนก ": 9976,
    "pa": 5545,
    "he": 3306,
    "ph": 5612,
    "is": 3865,
    " pa": 510,
    "pan": 5561,
    "nth": 4990,
    "the": 6745,
    "her": 3337,
    "ero": 2824,
    "rop": 6181,
    "oph": 5323,
    "phi": 5624,
    "his": 3380,
    "is ": 3866,
    " pan": 515,
    "pant": 5565,
    "anth": 1426,
    "nthe": 4992,
    "ther": 6749,
    "hero": 3345,
    "erop": 2829,
    "roph": 6184,
    "ophi": 5326,
    "phis": 5629,
    "his ": 3381,
    "gu": 3243,
    " gu": 300,
    "gut": 3263,
    "utt": 7216,
    " gut": 303,
    "gutt": 3264,
    "utta": 7217,
    "do": 2337,
    "oc": 5069,
    " do": 179,
    "doc": 2341,
    "oci": 5082,
    "cil": 2007,
    " doc": 180,
    "doci": 2342,
    "ocil": 5085,
    "cile": 2008,
    "fo": 3042,
    "ali": 1301,
    "ifo": 3630,
    "for": 3048,
    "nia": 4863,
    "cali": 1871,
    "alif": 1305,
    "lifo": 4243,
    "ifor": 3631,
    "forn": 3050,
    "orni": 5384,
    "rnia": 6136,
    "nia ": 4864,
    "ki": 4008,
    "gs": 3240,
    " ki": 365,
    "kin": 4016,
    "ngs": 4855,
    "gsn": 3241,
    " kin": 367,
    "king": 4019,
    "ings": 3766,
    "ngsn": 4856,
    "gsna": 3242,
    "คิ": 7803,
    "ิง": 9647,
    "งส": 7855,
    "กแ": 7665,
    "แค": 10069,
    "คล": 7759,
    "ลิ": 9006,
    "ิฟ": 9682,
    "ฟอ": 8597,
    "์เ": 10469,
    "นี": 8371,
    "ีย": 9753,
    "ูคิ": 9832,
    "คิง": 7804,
    "ิงส": 9652,
    "งสเ": 7858,
    "นกแ": 8281,
    "กแค": 7668,
    "แคล": 10083,
    "คลิ": 7762,
    "ลิฟ": 9007,
    "ิฟอ": 9683,
    "ฟอร": 8598,
    "ร์เ": 8920,
    "์เน": 10480,
    "เนี": 9980,
    "นีย": 8372,
    "ีย ": 9754,
    "งูคิ": 7880,
    "ูคิง": 9833,
    "คิงส": 7805,
    "ิงสเ": 9653,
    "งสเน": 7859,
    "เนกแ": 9979,
    "นกแค": 8282,
    "กแคล": 7669,
    "แคลิ": 10084,
    "คลิฟ": 7763,
    "ลิฟอ": 9008,
    "ิฟอร": 9684,
    "ฟอร์": 8599,
    "อร์เ": 9296,
    "ร์เน": 8925,
    "์เนี": 10481,
    "เนีย": 9981,
    "นีย ": 8373,
    "am": 1334,
    "mp": 4620,
    "el": 2607,
    "lt": 4387,
    " la": 378,
    "lam": 4087,
    "amp": 1360,
    "mpr": 4633,
    "ope": 5320,
    "pel": 5589,
    "elt": 2653,
    "lti": 4391,
    "tis": 6801,
    " lam": 381,
    "lamp": 4089,
    "ampr": 1364,
    "mpro": 4634,
    "prop": 5747,
    "rope": 6183,
    "opel": 5322,
    "pelt": 5593,
    "elti": 2654,
    "ltis": 4392,
    "tis ": 6802,
    "ae": 1181,
    "iae": 3513,
    "ae ": 1182,
    "niae": 4865,
    "iae ": 3514,
    "io": 3795,
    "ou": 5478,
    " cu": 150,
    "cur": 2167,
    "uri": 7158,
    "rio": 6069,
    "iou": 3821,
    "ous": 5497,
    " cur": 153,
    "curi": 2168,
    "urio": 7161,
    "riou": 6073,
    "ious": 3822,
    "ous ": 5498,
    "lk": 4274,
    "k ": 3979,
    " mi": 438,
    "mil": 4554,
    "ilk": 3687,
    "lk ": 4275,
    " mil": 440,
    "milk": 4557,
    "ilk ": 3688,
    "ูม": 9859,
    "มิ": 8686,
    "ิล": 9690,
    "ลค": 8942,
    "ค์": 7825,
    "์ส": 10454,
    "งูม": 7885,
    "ูมิ": 9860,
    "มิล": 8687,
    "ิลค": 9692,
    "ลค์": 8945,
    "ค์ส": 7826,
    "์สเ": 10455,
    " งูม": 793,
    "งูมิ": 7886,
    "ูมิล": 9861,
    "มิลค": 8688,
    "ิลค์": 9693,
    "ลค์ส": 8946,
    "ค์สเ": 7827,
    "์สเน": 10456,
    " tr": 709,
    "ang": 1395,
    "ngu": 4857,
    "gul": 3256,
    "ulu": 7093,
    "lum": 4412,
    " tri": 712,
    "rian": 6031,
    "iang": 3524,
    "angu": 1397,
    "ngul": 4860,
    "gulu": 3258,
    "ulum": 7094,
    "lum ": 4413,
    " a": 2,
    "ac": 1109,
    " ac": 3,
    "act": 1151,
    "cti": 2141,
    "tiv": 6807,
    " act": 6,
    "acti": 1152,
    "ctiv": 2142,
    "tive": 6809,
    " w": 743,
    " we": 748,
    "wes": 7337,
    "ste": 6556,
    "ern": 2820,
    " wes": 750,
    "west": 7338,
    "este": 2885,
    "ster": 6561,
    "tern": 6723,
    "ern ": 2821,
    "og": 5142,
    "os": 5408,
    " ho": 324,
    "hog": 3411,
    "ogn": 5151,
    "gno": 3195,
    "nos": 4951,
    "ose": 5416,
    " hog": 325,
    "hogn": 3414,
    "ogno": 5152,
    "gnos": 3196,
    "nose": 4952,
    "ose ": 5417,
    "ูฮ": 9874,
    "ฮอ": 9369,
    "อก": 9222,
    "กโ": 7670,
    "โน": 10180,
    "ส ": 9128,
    "งูฮ": 7890,
    "ูฮอ": 9875,
    "ฮอก": 9370,
    "อกโ": 9232,
    "กโน": 7678,
    "โนส": 10181,
    "นส ": 8341,
    " งูฮ": 795,
    "งูฮอ": 7891,
    "ูฮอก": 9876,
    "ฮอกโ": 9372,
    "อกโน": 9234,
    "กโนส": 7679,
    "โนส ": 10182,
    " he": 312,
    "het": 3348,
    "ete": 2895,
    "rod": 6157,
    "odo": 5116,
    "don": 2353,
    " het": 319,
    "hete": 3349,
    "eter": 2897,
    "tero": 6724,
    "erod": 2825,
    "rodo": 6160,
    "odon": 5117,
    "don ": 2354,
    " na": 460,
    "nas": 4711,
    "asi": 1546,
    "sic": 6447,
    "cus": 2171,
    " nas": 462,
    "nasi": 4712,
    "asic": 1548,
    "sicu": 6449,
    "icus": 3576,
    "cus ": 2172,
    "dr": 2372,
    "c ": 1852,
    " dr": 186,
    "dra": 2373,
    "ram": 5860,
    "ama": 1336,
    "mat": 4482,
    "ati": 1590,
    "ic ": 3541,
    " dra": 187,
    "dram": 2376,
    "rama": 5861,
    "amat": 1340,
    "mati": 4485,
    "atic": 1591,
    "tic ": 6773,
    "d-": 2191,
    "-t": 1032,
    "to": 6829,
    "ox": 5528,
    "xi": 7374,
    "ld-": 4145,
    "d-t": 2208,
    "-to": 1037,
    "tox": 6883,
    "oxi": 5532,
    "xic": 7375,
    "mild": 4555,
    "ild-": 3670,
    "ld-t": 4147,
    "d-to": 2209,
    "-tox": 1040,
    "toxi": 6884,
    "oxic": 5533,
    "xic ": 7376,
    "rp": 6211,
    "arp": 1526,
    "rpe": 6213,
    "pet": 5607,
    "et ": 2890,
    "carp": 1899,
    "arpe": 1528,
    "rpet": 6214,
    "pet ": 5608,
    "คา": 7785,
    "าร": 9553,
    "เพ": 9993,
    "พ็": 8563,
    "็ต": 10270,
    "ตไ": 8162,
    "ูคา": 9830,
    "คาร": 7796,
    "าร์": 9563,
    "์เพ": 10485,
    "เพ็": 9996,
    "พ็ต": 8564,
    "็ตไ": 10275,
    "ตไพ": 8163,
    "งูคา": 7879,
    "ูคาร": 9831,
    "คาร์": 7797,
    "าร์เ": 9567,
    "ร์เพ": 8927,
    "์เพ็": 10486,
    "เพ็ต": 9997,
    "พ็ตไ": 8565,
    "็ตไพ": 10276,
    "ตไพธ": 8164,
    "mo": 4589,
    " mo": 444,
    "mor": 4605,
    "rel": 5972,
    "eli": 2628,
    "lia": 4226,
    " mor": 448,
    "more": 4607,
    "orel": 5370,
    "reli": 5974,
    "elia": 2629,
    "lia ": 4227,
    " sp": 653,
    "spi": 6526,
    "pil": 5663,
    "ilo": 3695,
    "lot": 4355,
    "ota": 5443,
    "ta ": 6634,
    " spi": 656,
    "spil": 6528,
    "pilo": 5665,
    "ilot": 3698,
    "lota": 4356,
    "ota ": 5444,
    "em": 2659,
    "i-": 3504,
    "-a": 976,
    "rb": 5907,
    " se": 621,
    "sem": 6400,
    "emi": 2667,
    "mi-": 4549,
    "i-a": 3505,
    "-ar": 983,
    "arb": 1482,
    "rbo": 5914,
    "bor": 1791,
    "rea": 5949,
    "eal": 2449,
    " sem": 624,
    "semi": 6401,
    "emi-": 2668,
    "mi-a": 4550,
    "i-ar": 3508,
    "-arb": 984,
    "arbo": 1484,
    "rbor": 5916,
    "bore": 1792,
    "orea": 5369,
    "real": 5951,
    "eal ": 2450,
    "rt": 6252,
    " al": 17,
    "ale": 1295,
    "ler": 4194,
    "ert": 2845,
    "rt ": 6253,
    " ale": 20,
    "aler": 1299,
    "lert": 4197,
    "ert ": 2846,
    "gr": 3221,
    "ee": 2545,
    " gr": 295,
    "gre": 3230,
    "ree": 5962,
    "een": 2555,
    "en ": 2683,
    " gre": 297,
    "gree": 3231,
    "reen": 5966,
    "een ": 2556,
    "tre": 6895,
    "ee ": 2546,
    " tre": 711,
    "tree": 6896,
    "ree ": 5963,
    "ูก": 9820,
    "กร": 7596,
    "รี": 8859,
    "ีน": 9735,
    "นท": 8307,
    "ีไ": 9770,
    "งูก": 7875,
    "ูกร": 9821,
    "กรี": 7601,
    "รีน": 8860,
    "ีนท": 9739,
    "นทร": 8308,
    "ทรี": 8208,
    "รีไ": 8868,
    "ีไพ": 9771,
    " งูก": 789,
    "งูกร": 7876,
    "ูกรี": 9822,
    "กรีน": 7602,
    "รีนท": 8862,
    "ีนทร": 9740,
    "นทรี": 8309,
    "ทรีไ": 8210,
    "รีไพ": 8869,
    "ีไพธ": 9772,
    " v": 726,
    "id": 3577,
    " vi": 734,
    "vir": 7279,
    "iri": 3855,
    "rid": 6044,
    "idi": 3583,
    "dis": 2317,
    " vir": 736,
    "viri": 7281,
    "irid": 3857,
    "ridi": 6047,
    "idis": 3585,
    "dis ": 2318,
    " ar": 38,
    " arb": 40,
    "sen": 6402,
    "sit": 6469,
    "iti": 3906,
    " sen": 625,
    "sens": 6404,
    "nsit": 4975,
    "siti": 6471,
    "itiv": 3909,
    "r ": 5809,
    "con": 2088,
    "ons": 5285,
    "nst": 4977,
    "ric": 6038,
    "ict": 3570,
    "cto": 2143,
    "tor": 6868,
    "or ": 5352,
    " con": 140,
    "cons": 2089,
    "onst": 5287,
    "nstr": 4978,
    "tric": 6900,
    "rict": 6042,
    "icto": 3572,
    "ctor": 2147,
    "tor ": 6869,
    "ูโ": 9893,
    "าค": 9475,
    "สต": 9144,
    "ตร": 8124,
    "ริ": 8849,
    "ิก": 9635,
    "กเ": 7656,
    "เต": 9957,
    "ตอ": 8130,
    "์ ": 10405,
    "งูโ": 7897,
    "ูโบ": 9896,
    "อาค": 9328,
    "าคอ": 9476,
    "คอน": 7773,
    "อนส": 9256,
    "นสต": 8342,
    "สตร": 9145,
    "ตริ": 8125,
    "ริก": 8850,
    "ิกเ": 9642,
    "กเต": 7659,
    "เตอ": 9958,
    "ตอร": 8131,
    "ร์ ": 8890,
    " งูโ": 798,
    "งูโบ": 7899,
    "ูโบอ": 9898,
    "บอาค": 8458,
    "อาคอ": 9329,
    "าคอน": 9477,
    "คอนส": 7774,
    "อนสต": 9257,
    "นสตร": 8343,
    "สตริ": 9146,
    "ตริก": 8126,
    "ริกเ": 8852,
    "ิกเต": 9644,
    "กเตอ": 7660,
    "เตอร": 9959,
    "ตอร์": 8132,
    "อร์ ": 9285,
    " i": 339,
    "im": 3707,
    " im": 344,
    "imp": 3719,
    "mpe": 4624,
    "era": 2782,
    "ato": 1603,
    " imp": 346,
    "impe": 3721,
    "mper": 4625,
    "pera": 5599,
    "erat": 2786,
    "rato": 5889,
    "ator": 1607,
    "go": 3197,
    " go": 288,
    "gop": 3212,
    "phe": 5619,
    "er ": 2777,
    " gop": 293,
    "goph": 3213,
    "ophe": 5325,
    "pher": 5623,
    "her ": 3338,
    "โก": 10144,
    "เฟ": 9998,
    "ูโก": 9894,
    "โกเ": 10147,
    "กเฟ": 7661,
    "เฟอ": 10001,
    "งูโก": 7898,
    "ูโกเ": 9895,
    "โกเฟ": 10148,
    "กเฟอ": 7662,
    "เฟอร": 10002,
    "uo": 7129,
    " pi": 528,
    "pit": 5681,
    "itu": 3919,
    "tuo": 6944,
    "uop": 7130,
    " pit": 533,
    "pitu": 5682,
    "ituo": 3920,
    "tuop": 6945,
    "uoph": 7131,
    "cat": 1902,
    "ten": 6710,
    "eni": 2706,
    "nif": 4874,
    "fer": 3002,
    " cat": 110,
    "cate": 1904,
    "aten": 1582,
    "teni": 6711,
    "enif": 2710,
    "nife": 4875,
    "ifer": 3627,
    "fer ": 3003,
    " j": 352,
    "ja": 3953,
    "ap": 1440,
    "ne": 4784,
    " ja": 353,
    "jap": 3962,
    "apa": 1442,
    "ane": 1391,
    "nes": 4816,
    " jap": 357,
    "japa": 3963,
    "apan": 1443,
    "pane": 5563,
    "anes": 1393,
    "nese": 4818,
    "at ": 1569,
    " rat": 578,
    "rat ": 5885,
    "หน": 9192,
    "นู": 8376,
    "ูญ": 9837,
    "ญี": 8021,
    "ี่": 9773,
    "่ป": 10294,
    "ปุ": 8510,
    "ุ่": 9808,
    "่น": 10292,
    "ูหน": 9870,
    "หนู": 9193,
    "นูญ": 8377,
    "ูญี": 9838,
    "ญี่": 8022,
    "ี่ป": 9777,
    "่ปุ": 10295,
    "ปุ่": 8511,
    "ุ่น": 9809,
    "่น ": 10293,
    "งูหน": 7888,
    "ูหนู": 9871,
    "หนูญ": 9194,
    "นูญี": 8378,
    "ูญี่": 9839,
    "ญี่ป": 8023,
    "ี่ปุ": 9778,
    "่ปุ่": 10296,
    "ปุ่น": 8512,
    "ุ่น ": 9810,
    " el": 207,
    "ela": 2609,
    "lap": 4097,
    "aph": 1446,
    "he ": 3307,
    " ela": 208,
    "elap": 2612,
    "laph": 4098,
    "aphe": 1447,
    "phe ": 5620,
    "cl": 2045,
    " cl": 129,
    "cli": 2055,
    "lim": 4250,
    "ima": 3708,
    "mac": 4444,
    "aco": 1144,
    "cop": 2096,
    "pho": 5632,
    "hor": 3422,
    "ora": 5357,
    "ra ": 5829,
    " cli": 131,
    "clim": 2056,
    "lima": 4251,
    "imac": 3709,
    "maco": 4446,
    "acop": 1147,
    "coph": 2097,
    "opho": 5327,
    "phor": 5635,
    "hora": 3423,
    "ora ": 5358,
    " ro": 595,
    "ros": 6190,
    "osy": 5439,
    " ros": 601,
    "rosy": 6195,
    "osy ": 5440,
    "โร": 10200,
    "รซ": 8783,
    "ซี": 7998,
    "่โ": 10339,
    "ูโร": 9899,
    "โรซ": 10201,
    "รซี": 8784,
    "ซี่": 8006,
    "ี่โ": 9781,
    "่โบ": 10340,
    "งูโร": 7900,
    "ูโรซ": 9900,
    "โรซี": 10202,
    "รซี่": 8785,
    "ซี่โ": 8007,
    "ี่โบ": 9782,
    "่โบอ": 10341,
    " li": 393,
    "lic": 4230,
    "ich": 3555,
    "cha": 1952,
    "han": 3292,
    "anu": 1431,
    "nur": 5020,
    "ura": 7147,
    " lic": 394,
    "lich": 4232,
    "icha": 3556,
    "chan": 1954,
    "hanu": 3295,
    "anur": 1434,
    "nura": 5021,
    "ura ": 7148,
    "rg": 6006,
    "ga": 3088,
    "riv": 6091,
    "irg": 3853,
    "rga": 6007,
    "gat": 3108,
    "ata": 1572,
    "triv": 6905,
    "rivi": 6093,
    "ivir": 3941,
    "virg": 7280,
    "irga": 3854,
    "rgat": 6008,
    "gata": 3109,
    "ata ": 1573,
    "n'": 4673,
    "'s": 972,
    " ch": 117,
    "chi": 1964,
    "hil": 3362,
    "ldr": 4157,
    "dre": 2377,
    "ren": 5979,
    "en'": 2684,
    "n's": 4674,
    "'s ": 973,
    " chi": 120,
    "chil": 1966,
    "hild": 3363,
    "ildr": 3672,
    "ldre": 4158,
    "dren": 2378,
    "ren'": 5980,
    "en's": 2685,
    "n's ": 4675,
    "ูไ": 9902,
    "นเ": 8383,
    "เด": 9947,
    "ด็": 8091,
    "็ก": 10250,
    "งูไ": 7901,
    "ูไพ": 9903,
    "อนเ": 9262,
    "นเด": 8386,
    "เด็": 9954,
    "ด็ก": 8092,
    "็ก ": 10251,
    " งูไ": 799,
    "งูไพ": 7902,
    "ูไพธ": 9904,
    "ธอนเ": 8266,
    "อนเด": 9263,
    "นเด็": 8388,
    "เด็ก": 9955,
    "ด็ก ": 8093,
    " an": 28,
    "nta": 4981,
    "are": 1493,
    "esi": 2875,
    "sia": 6444,
    " ant": 33,
    "anta": 1424,
    "ntar": 4983,
    "tare": 6667,
    "ares": 1497,
    "resi": 5987,
    "esia": 2876,
    "sia ": 6445,
    "ni ": 4862,
    "reni": 5981,
    "eni ": 2707,
    "su": 6586,
    "un": 7109,
    "be": 1716,
    " su": 666,
    "sun": 6601,
    "unb": 7113,
    "nbe": 4723,
    "bea": 1717,
    "eam": 2452,
    "am ": 1335,
    " sun": 670,
    "sunb": 6603,
    "unbe": 7114,
    "nbea": 4724,
    "beam": 1718,
    "eam ": 2453,
    "ูแ": 9884,
    "แส": 10129,
    "สง": 9141,
    "งอ": 7867,
    "าท": 9498,
    "ทิ": 8230,
    "ิต": 9661,
    "ตย": 8121,
    "ย์": 8772,
    "งูแ": 7895,
    "ูแส": 9889,
    "แสง": 10130,
    "สงอ": 9142,
    "งอา": 7868,
    "อาท": 9330,
    "าทิ": 9501,
    "ทิต": 8231,
    "ิตย": 9662,
    "ตย์": 8122,
    "ย์ ": 8773,
    " งูแ": 797,
    "งูแส": 7896,
    "ูแสง": 9890,
    "แสงอ": 10131,
    "สงอา": 9143,
    "งอาท": 7869,
    "อาทิ": 9331,
    "าทิต": 9502,
    "ทิตย": 8232,
    "ิตย์": 9663,
    "ตย์ ": 8123,
    " x": 757,
    "xe": 7367,
    " xe": 758,
    "xen": 7368,
    "eno": 2715,
    "nop": 4943,
    " xen": 759,
    "xeno": 7370,
    "enop": 2717,
    "nope": 4944,
    " u": 717,
    " un": 720,
    "uni": 7125,
    "nic": 4867,
    "ico": 3565,
    "olo": 5199,
    "lor": 4348,
    " uni": 723,
    "unic": 7126,
    "nico": 4869,
    "icol": 3566,
    "colo": 2083,
    "olor": 5202,
    "lor ": 4349,
    "sec": 6391,
    "ecr": 2505,
    "cre": 2116,
    " sec": 623,
    "secr": 6392,
    "ecre": 2506,
    "cret": 2118,
    "etiv": 2901,
    "eo": 2735,
    " le": 385,
    "leo": 4185,
    "eop": 2747,
    "opa": 5317,
    "par": 5566,
    " leo": 388,
    "leop": 4188,
    "eopa": 2748,
    "opar": 5319,
    "pard": 5568,
    "ck": 2029,
    "ko": 4035,
    " ge": 270,
    "gec": 3120,
    "eck": 2495,
    "cko": 2041,
    "ko ": 4036,
    " gec": 271,
    "geck": 3121,
    "ecko": 2497,
    "cko ": 2042,
    " เ": 901,
    "เล": 10030,
    "ลพ": 8956,
    "พเ": 8560,
    "พิ": 8552,
    "ิร": 9687,
    "์ด": 10419,
    "ดเ": 8081,
    "เก": 9905,
    "ก็": 7680,
    "โค": 10149,
    "ค ": 7709,
    " เล": 921,
    "เลพ": 10031,
    "ลพเ": 8959,
    "พเพ": 8561,
    "เพิ": 9994,
    "พิร": 8558,
    "ิร์": 9688,
    "ร์ด": 8899,
    "์ดเ": 10425,
    "ดเก": 8082,
    "เก็": 9912,
    "ก็ก": 7681,
    "็กโ": 10254,
    "กโค": 7671,
    "โค ": 10150,
    " เลพ": 922,
    "เลพเ": 10032,
    "ลพเพ": 8960,
    "พเพิ": 8562,
    "เพิร": 9995,
    "พิร์": 8559,
    "ิร์ด": 9689,
    "ร์ดเ": 8903,
    "์ดเก": 10426,
    "ดเก็": 8083,
    "เก็ก": 9913,
    "ก็กโ": 7682,
    "็กโค": 10255,
    "กโค ": 7672,
    "eu": 2919,
    " eu": 223,
    "eub": 2920,
    "ubl": 6990,
    "ble": 1766,
    "lep": 4190,
    "eph": 2758,
    "pha": 5613,
    "ari": 1504,
    "ris": 6078,
    " eub": 224,
    "eubl": 2921,
    "uble": 6991,
    "blep": 1769,
    "leph": 4191,
    "epha": 2759,
    "phar": 5617,
    "hari": 3298,
    "aris": 1511,
    "ris ": 6079,
    "acu": 1156,
    "lar": 4100,
    "riu": 6088,
    " mac": 415,
    "macu": 4448,
    "acul": 1157,
    "ular": 7075,
    "lari": 4103,
    "ariu": 1512,
    "rius": 6090,
    "iz": 3950,
    "za": 7557,
    "liz": 4272,
    "iza": 3951,
    "zar": 7558,
    " liz": 399,
    "liza": 4273,
    "izar": 3952,
    "zard": 7559,
    " in": 347,
    "ins": 3782,
    "nse": 4969,
    " ins": 349,
    "inse": 3785,
    "nsec": 4971,
    "sect": 6393,
    "ecti": 2511,
    "tivo": 6810,
    " cr": 143,
    " cre": 145,
    "cres": 2117,
    "sted": 6558,
    "คร": 7747,
    "รส": 8819,
    "ต็": 8165,
    "็ด": 10263,
    " เค": 902,
    "เคร": 9922,
    "ครส": 7752,
    "รสเ": 8820,
    "สเต": 9170,
    "เต็": 9962,
    "ต็ด": 8166,
    "็ดเ": 10268,
    " เคร": 903,
    "เครส": 9924,
    "ครสเ": 7753,
    "รสเต": 8821,
    "สเต็": 9172,
    "เต็ด": 9963,
    "ต็ดเ": 8168,
    "็ดเก": 10269,
    "hu": 3460,
    "orr": 5389,
    "elo": 2644,
    "lop": 4343,
    "phu": 5644,
    "hus": 3469,
    "corr": 2103,
    "orre": 5390,
    "rrel": 6220,
    "relo": 5976,
    "elop": 2648,
    "loph": 4344,
    "ophu": 5330,
    "phus": 5646,
    "hus ": 3470,
    " ci": 123,
    "ili": 3680,
    "iat": 3527,
    " cil": 125,
    "cili": 2009,
    "ilia": 3681,
    "liat": 4229,
    "iatu": 3529,
    " o": 483,
    "om": 5214,
    "mn": 4584,
    " om": 492,
    "omn": 5231,
    "mni": 4585,
    " omn": 493,
    "omni": 5232,
    "mniv": 4586,
    "oy": 5539,
    "yl": 7468,
    " ga": 266,
    "gar": 3103,
    "arg": 1501,
    "rgo": 6011,
    "goy": 3219,
    "oyl": 5540,
    "yle": 7472,
    " gar": 269,
    "garg": 3105,
    "argo": 1503,
    "rgoy": 6012,
    "goyl": 3220,
    "oyle": 5541,
    "yle ": 7473,
    " ก": 768,
    "กา": 7635,
    "์ก": 10406,
    "กอ": 7614,
    "อย": 9274,
    "ยล": 8747,
    "ล์": 9064,
    " กา": 772,
    "การ": 7636,
    "ร์ก": 8891,
    "์กอ": 10407,
    "กอย": 7615,
    "อยล": 9279,
    "ยล์": 8748,
    "ล์เ": 9065,
    "์เก": 10470,
    " การ": 773,
    "การ์": 7637,
    "าร์ก": 9565,
    "ร์กอ": 8892,
    "์กอย": 10408,
    "กอยล": 7616,
    "อยล์": 9280,
    "ยล์เ": 8749,
    "ล์เก": 9066,
    "์เก็": 10471,
    "rh": 6013,
    "da": 2215,
    "ty": 6951,
    " rh": 588,
    "rha": 6014,
    "hac": 3270,
    "cod": 2074,
    "oda": 5104,
    "dac": 2219,
    "cty": 2153,
    "tyl": 6955,
    "ylu": 7480,
    "lus": 4418,
    " rha": 589,
    "rhac": 6015,
    "haco": 3271,
    "acod": 1146,
    "coda": 2075,
    "odac": 5105,
    "dact": 2220,
    "acty": 1155,
    "ctyl": 2154,
    "tylu": 6958,
    "ylus": 7481,
    "lus ": 4419,
    "au": 1621,
    " au": 54,
    "aur": 1631,
    " aur": 55,
    "auri": 1634,
    "uric": 7159,
    "ricu": 6043,
    "ok": 5171,
    "ka": 3983,
    " to": 701,
    "tok": 6848,
    "oka": 5173,
    "kay": 3991,
    "ay ": 1667,
    " tok": 704,
    "toka": 6849,
    "okay": 5174,
    "kay ": 3992,
    " ต": 828,
    "ตุ": 8153,
    "ุ๊": 9816,
    "๊ก": 10402,
    "แก": 10064,
    "โท": 10168,
    "ทเ": 8239,
    "คย": 7742,
    " ตุ": 829,
    "ตุ๊": 8154,
    "ุ๊ก": 9817,
    "๊กแ": 10403,
    "กแก": 7666,
    "แกโ": 10065,
    "กโท": 7676,
    "โทเ": 10174,
    "ทเค": 8242,
    "เคย": 9920,
    "คย์": 7745,
    " ตุ๊": 830,
    "ตุ๊ก": 8155,
    "ุ๊กแ": 9818,
    "๊กแก": 10404,
    "กแกโ": 7667,
    "แกโท": 10066,
    "กโทเ": 7677,
    "โทเค": 10175,
    "ทเคย": 8243,
    "เคย์": 9921,
    "คย์ ": 7746,
    "ek": 2601,
    "kk": 4025,
    "gek": 3126,
    "ekk": 2603,
    "kko": 4026,
    " gek": 272,
    "gekk": 3127,
    "ekko": 2604,
    "kko ": 4027,
    " da": 162,
    "day": 2231,
    " day": 166,
    "day ": 2232,
    "ดย": 8052,
    "ยั": 8753,
    "ัก": 9388,
    "กษ": 7608,
    "ษ์": 9126,
    " เด": 907,
    "เดย": 9950,
    "ดย์": 8053,
    "ย์เ": 8778,
    "โคย": 10155,
    "คยั": 7743,
    "ยัก": 8754,
    "ักษ": 9389,
    "กษ์": 7609,
    "ษ์ ": 9127,
    " เดย": 909,
    "เดย์": 9951,
    "ดย์เ": 8054,
    "ย์เก": 8779,
    "กโคย": 7673,
    "โคยั": 10156,
    "คยัก": 7744,
    "ยักษ": 8755,
    "ักษ์": 9390,
    "กษ์ ": 7610,
    "ls": 4380,
    " ph": 522,
    "hel": 3320,
    "els": 2651,
    "lsu": 4385,
    "sum": 6598,
    "uma": 7100,
    "ma ": 4443,
    " phe": 523,
    "phel": 5621,
    "hels": 3324,
    "elsu": 2652,
    "lsum": 4386,
    "suma": 6600,
    "uma ": 7101,
    "gra": 3222,
    "ran": 5866,
    "ndi": 4766,
    " gra": 296,
    "gran": 3227,
    "rand": 5868,
    "andi": 1388,
    "ndis": 4771,
    "af": 1201,
    "fr": 3055,
    " af": 12,
    "afr": 1202,
    "fri": 3058,
    "ica": 3544,
    "can": 1878,
    " afr": 13,
    "afri": 1203,
    "fric": 3059,
    "rica": 6040,
    "ican": 3547,
    "can ": 1879,
    " f": 232,
    "fa": 2977,
    "t-": 6621,
    " fa": 233,
    "fat": 2990,
    "at-": 1570,
    "t-t": 6626,
    "-ta": 1033,
    "tai": 6644,
    "ail": 1237,
    "led": 4173,
    " fat": 238,
    "fat-": 2991,
    "at-t": 1571,
    "t-ta": 6627,
    "-tai": 1034,
    "tail": 6645,
    "aile": 1240,
    "iled": 3677,
    "led ": 4174,
    " แ": 931,
    "แอ": 10132,
    "อฟ": 9266,
    "ฟร": 8580,
    "กั": 7621,
    "ัน": 9404,
    "นแ": 8393,
    "แฟ": 10110,
    "ฟต": 8566,
    "ตเ": 8156,
    "เท": 9966,
    "ทล": 8211,
    "ลเ": 9030,
    " แอ": 944,
    "แอฟ": 10139,
    "อฟร": 9267,
    "ฟริ": 8583,
    "ิกั": 9639,
    "กัน": 7624,
    "ันแ": 9423,
    "นแฟ": 8396,
    "แฟต": 10111,
    "ฟตเ": 8567,
    "ตเท": 8157,
    "เทล": 9967,
    "ทลเ": 8213,
    "ลเก": 9031,
    " แอฟ": 947,
    "แอฟร": 10140,
    "อฟริ": 9268,
    "ฟริก": 8584,
    "ริกั": 8851,
    "ิกัน": 9640,
    "กันแ": 7629,
    "ันแฟ": 9424,
    "นแฟต": 8397,
    "แฟตเ": 10112,
    "ฟตเท": 8568,
    "ตเทล": 8158,
    "เทลเ": 9969,
    "ทลเก": 8214,
    "ลเก็": 9032,
    "hem": 3327,
    "ith": 3902,
    "hec": 3311,
    "eco": 2500,
    "ony": 5298,
    "nyx": 5039,
    " hem": 316,
    "hemi": 3329,
    "emit": 2671,
    "mith": 4573,
    "ithe": 3904,
    "thec": 6746,
    "heco": 3312,
    "econ": 2503,
    "cony": 2093,
    "onyx": 5300,
    "nyx ": 5040,
    "ud": 7012,
    "cau": 1909,
    "aud": 1624,
    "udi": 7019,
    "dic": 2295,
    "ici": 3561,
    "cin": 2011,
    "inc": 3738,
    "nct": 4746,
    "ctu": 2151,
    " cau": 111,
    "caud": 1910,
    "audi": 1626,
    "udic": 7020,
    "dici": 2297,
    "icin": 3563,
    "cinc": 2012,
    "inct": 3743,
    "nctu": 4748,
    "ctus": 2152,
    " be": 67,
    "ear": 2456,
    "rde": 5934,
    "ded": 2253,
    " bea": 68,
    "bear": 1719,
    "eard": 2458,
    "arde": 1490,
    "rded": 5936,
    "ded ": 2254,
    "ag": 1204,
    "rag": 5846,
    "ago": 1215,
    "gon": 3204,
    "drag": 2375,
    "rago": 5848,
    "agon": 1217,
    "gon ": 3205,
    "เบ": 9984,
    "บี": 8476,
    "ยร": 8743,
    "ดด": 8040,
    "ดร": 8055,
    "าก": 9459,
    "ก้": 7683,
    "้อ": 10374,
    " เบ": 912,
    "เบี": 9991,
    "บีย": 8478,
    "ียร": 9759,
    "ยร์": 8744,
    "์เด": 10478,
    "ด็ด": 8094,
    "็ดด": 10266,
    "ดดร": 8041,
    "ดรา": 8056,
    "ราก": 8840,
    "าก้": 9464,
    "ก้อ": 7686,
    "้อน": 10377,
    " เบี": 913,
    "เบีย": 9992,
    "บียร": 8480,
    "ียร์": 9760,
    "ยร์เ": 8745,
    "ร์เด": 8924,
    "์เด็": 10479,
    "เด็ด": 9956,
    "ด็ดด": 8095,
    "็ดดร": 10267,
    "ดดรา": 8042,
    "ดราก": 8057,
    "ราก้": 8841,
    "าก้อ": 9465,
    "ก้อน": 7687,
    "้อน ": 10378,
    "pog": 5699,
    "ogo": 5153,
    "ona": 5250,
    "na ": 4687,
    " pog": 540,
    "pogo": 5700,
    "ogon": 5154,
    "gona": 3206,
    "ona ": 5251,
    "ps": 5749,
    "tti": 6926,
    "ice": 3552,
    "cep": 1938,
    "eps": 2768,
    "ps ": 5750,
    " vit": 737,
    "itti": 3918,
    "ttic": 6927,
    "tice": 6775,
    "icep": 3553,
    "ceps": 1940,
    "eps ": 2769,
    "ly": 4426,
    " fr": 259,
    "rie": 6048,
    "ien": 3604,
    "end": 2694,
    "ndl": 4772,
    "dly": 2335,
    "ly ": 4427,
    " fri": 261,
    "frie": 3060,
    "rien": 6051,
    "iend": 3605,
    "endl": 2697,
    "ndly": 4773,
    "dly ": 2336,
    " ur": 724,
    "uro": 7171,
    "rom": 6171,
    "oma": 5215,
    "mas": 4480,
    "ast": 1557,
    "sty": 6584,
    "tyx": 6963,
    " uro": 725,
    "urom": 7175,
    "roma": 6172,
    "omas": 5217,
    "mast": 4481,
    "asty": 1563,
    "styx": 6585,
    "tyx ": 6964,
    " ย": 871,
    "ยู": 8763,
    "รม": 8803,
    "มา": 8673,
    "าส": 9581,
    "ติ": 8143,
    "กซ": 7584,
    "ซ์": 8017,
    " ยู": 872,
    "ยูโ": 8764,
    "โรม": 10203,
    "รมา": 8804,
    "มาส": 8681,
    "าสต": 9582,
    "สติ": 9149,
    "ติก": 8144,
    "ิกซ": 9637,
    "กซ์": 7587,
    "ซ์ ": 8018,
    " ยูโ": 873,
    "ยูโร": 8765,
    "ูโรม": 9901,
    "โรมา": 10204,
    "รมาส": 8805,
    "มาสต": 8682,
    "าสติ": 9583,
    "สติก": 9150,
    "ติกซ": 8145,
    "ิกซ์": 9638,
    "กซ์ ": 7588,
    "ey": 2960,
    "yr": 7521,
    "gey": 3151,
    "eyr": 2969,
    "yri": 7522,
    "ri ": 6027,
    " gey": 276,
    "geyr": 3152,
    "eyri": 2970,
    "yri ": 7523,
    "erb": 2788,
    "rbi": 5908,
    " her": 318,
    "herb": 3340,
    "erbi": 2789,
    "rbiv": 5911,
    "bivo": 1762,
    "ue": 7025,
    "e-": 2416,
    "blu": 1772,
    "lue": 4405,
    "ue-": 7027,
    "e-t": 2431,
    "ton": 6857,
    "gue": 3250,
    "ued": 7032,
    " blu": 79,
    "blue": 1773,
    "lue-": 4407,
    "ue-t": 7031,
    "e-to": 2433,
    "-ton": 1038,
    "tong": 6861,
    "ongu": 5271,
    "ngue": 4858,
    "gued": 3251,
    "ued ": 7033,
    "sk": 6475,
    "nk": 4901,
    " sk": 638,
    "ski": 6477,
    "ink": 3771,
    "nk ": 4902,
    " ski": 639,
    "skin": 6480,
    "kink": 4020,
    "ink ": 3772,
    "ลู": 9021,
    "ทั": 8222,
    "ัง": 9391,
    "สก": 9129,
    "กิ": 7638,
    "ิ้": 9720,
    "้ง": 10345,
    "ง ": 7830,
    " บล": 840,
    "บลู": 8444,
    "ลูท": 9022,
    "ูทั": 9846,
    "ทัง": 8223,
    "ังส": 9394,
    "งสก": 7856,
    "สกิ": 9134,
    "กิ้": 7641,
    "ิ้ง": 9721,
    "้ง ": 10346,
    " บลู": 841,
    "บลูท": 8445,
    "ลูทั": 9023,
    "ูทัง": 9847,
    "ทังส": 8224,
    "ังสก": 9395,
    "งสกิ": 7857,
    "สกิ้": 9135,
    "กิ้ง": 7642,
    "ิ้ง ": 9722,
    "iq": 3837,
    "qu": 5798,
    "ua": 6966,
    " ti": 694,
    "liq": 4262,
    "iqu": 3838,
    "qua": 5799,
    "ua ": 6967,
    " til": 696,
    "tili": 6786,
    "iliq": 3684,
    "liqu": 4263,
    "iqua": 3839,
    "qua ": 5800,
    "sc": 6363,
    "oi": 5158,
    " sc": 615,
    "sci": 6372,
    "nco": 4742,
    "coi": 2079,
    "oid": 5163,
    "ide": 3579,
    "des": 2281,
    " sci": 618,
    "scin": 6374,
    "inco": 3742,
    "ncoi": 4743,
    "coid": 2080,
    "oide": 5165,
    "ides": 3582,
    "des ": 2282,
    "ack": 1134,
    "cki": 2037,
    "kie": 4010,
    "ie ": 3595,
    " ack": 5,
    "acki": 1138,
    "ckie": 2038,
    "kie ": 4011,
    "mon": 4597,
    "oni": 5272,
    "nit": 4891,
    "ito": 3912,
    " mon": 447,
    "moni": 4602,
    "onit": 5277,
    "nito": 4893,
    "itor": 3915,
    "อค": 9235,
    "คก": 7710,
    "กี": 7643,
    "ี้": 9783,
    "้ม": 10365,
    "มอ": 8665,
    "นิ": 8364,
    "ิเ": 9710,
    "แอค": 10135,
    "อคก": 9236,
    "คกี": 7711,
    "กี้": 7644,
    "ี้ม": 9784,
    "้มอ": 10367,
    "มอน": 8666,
    "อนิ": 9260,
    "นิเ": 8367,
    "ิเต": 9715,
    " แอค": 946,
    "แอคก": 10136,
    "อคกี": 9237,
    "คกี้": 7712,
    "กี้ม": 7645,
    "ี้มอ": 9785,
    "้มอน": 10368,
    "มอนิ": 8668,
    "อนิเ": 9261,
    "นิเต": 8368,
    "ิเตอ": 9716,
    "va": 7226,
    " va": 727,
    "var": 7237,
    "ara": 1471,
    " var": 729,
    "vara": 7238,
    "aran": 1478,
    "ranu": 5873,
    "anus": 1435,
    "ru": 6271,
    "aca": 1110,
    "thu": 6761,
    "hur": 3465,
    "uru": 7183,
    "rus": 6288,
    " aca": 4,
    "acan": 1112,
    "cant": 1882,
    "nthu": 4995,
    "thur": 6762,
    "huru": 3468,
    "urus": 7184,
    "rus ": 6289,
    "int": 3786,
    "nte": 4984,
    "tel": 6702,
    "ell": 2632,
    "lli": 4293,
    "lig": 4244,
    "ige": 3642,
    "gen": 3132,
    "ent": 2727,
    " int": 350,
    "inte": 3787,
    "ntel": 4987,
    "tell": 6706,
    "elli": 2636,
    "llig": 4298,
    "lige": 4246,
    "igen": 3643,
    "gent": 3135,
    "ent ": 2728,
    "av": 1640,
    "nn": 4911,
    "ah": 1223,
    "sav": 6359,
    "ava": 1641,
    "van": 7234,
    "ann": 1410,
    "nna": 4914,
    "nah": 4694,
    "ah ": 1224,
    " sav": 614,
    "sava": 6360,
    "avan": 1643,
    "vann": 7236,
    "anna": 1412,
    "nnah": 4915,
    "nah ": 4695,
    " ซ": 809,
    "ซา": 7985,
    "าว": 9574,
    "วั": 9101,
    "นน": 8317,
    "น่": 8413,
    " ซา": 813,
    "ซาว": 7988,
    "าวั": 9577,
    "วัน": 9102,
    "ันน": 9413,
    "นน่": 8320,
    "น่า": 8414,
    "่าม": 10324,
    "ามอ": 9537,
    " ซาว": 814,
    "ซาวั": 7989,
    "าวัน": 9578,
    "วันน": 9103,
    "ันน่": 9414,
    "นน่า": 8321,
    "น่าม": 8416,
    "่ามอ": 10325,
    "ามอน": 9538,
    "ex": 2950,
    "xa": 7363,
    " ex": 227,
    "exa": 2951,
    "xan": 7364,
    "ema": 2660,
    " exa": 228,
    "exan": 2952,
    "xant": 7366,
    "them": 6748,
    "hema": 3328,
    "emat": 2662,
    " st": 661,
    "tro": 6907,
    " str": 665,
    "stro": 6579,
    "tron": 6910,
    "ong ": 5266,
    " ig": 342,
    "igu": 3657,
    "gua": 3245,
    "uan": 6976,
    "ana": 1373,
    " igu": 343,
    "igua": 3658,
    "guan": 3246,
    "uana": 6977,
    "ana ": 1374,
    "นอ": 8351,
    "อิ": 9336,
    "ัว": 9442,
    "วน": 9079,
    " กร": 769,
    "ีนอ": 9741,
    "นอิ": 8354,
    "อิก": 9337,
    "กัว": 7633,
    "ัวน": 9445,
    "วน่": 9080,
    " กรี": 771,
    "รีนอ": 8863,
    "ีนอิ": 9742,
    "นอิก": 8355,
    "อิกั": 9338,
    "ิกัว": 9641,
    "กัวน": 7634,
    "ัวน่": 9446,
    "วน่า": 9081,
    "น่า ": 8415,
    " can": 106,
    "bec": 1722,
    "com": 2085,
    "ome": 5221,
    "me ": 4514,
    " bec": 69,
    "beco": 1723,
    "ecom": 2502,
    "come": 2086,
    "ome ": 5222,
    "ad": 1159,
    "_c": 1064,
    "l_": 4066,
    "_o": 1078,
    "r_": 5823,
    "tra": 6887,
    "rad": 5840,
    "ade": 1168,
    "de_": 2249,
    "e_c": 2435,
    "_co": 1067,
    "ont": 5288,
    "ntr": 5008,
    "rol": 6168,
    "ol_": 5176,
    "l_o": 4067,
    "_or": 1079,
    "or_": 5355,
    "r_c": 5824,
    "_ci": 1065,
    "cit": 2023,
    "ite": 3896,
    "s_s": 6336,
    " tra": 710,
    "trad": 6889,
    "rade": 5842,
    "ade_": 1169,
    "de_c": 2250,
    "e_co": 2436,
    "_con": 1068,
    "cont": 2090,
    "ontr": 5291,
    "ntro": 5010,
    "trol": 6909,
    "rol_": 6169,
    "ol_o": 5177,
    "l_or": 4068,
    "_or_": 1080,
    "or_c": 5356,
    "r_ci": 5825,
    "_cit": 1066,
    "cite": 2024,
    "ites": 3901,
    "tes_": 6730,
    "es_s": 2866,
    "s_si": 6337,
    "cub": 2156,
    "uba": 6983,
    "ban": 1701,
    " cub": 151,
    "cuba": 2157,
    "uban": 6984,
    "ban ": 1702,
    "roc": 6150,
    "ock": 5088,
    "ck ": 2030,
    " roc": 597,
    "rock": 6154,
    "ock ": 5089,
    " ค": 778,
    "ิว": 9700,
    "วบ": 9082,
    "บั": 8459,
    "นร": 8337,
    "ร็": 8879,
    "็อ": 10280,
    " คิ": 782,
    "คิว": 7808,
    "ิวบ": 9703,
    "วบั": 9085,
    "บัน": 8462,
    "ันร": 9417,
    "นร็": 8338,
    "ร็อ": 8880,
    "็อก": 10281,
    "อกอ": 9230,
    "กอิ": 7619,
    " คิว": 784,
    "คิวบ": 7809,
    "ิวบั": 9704,
    "วบัน": 9086,
    "บันร": 8463,
    "ันร็": 9418,
    "นร็อ": 8339,
    "ร็อก": 8881,
    "็อกอ": 10285,
    "อกอิ": 9231,
    "กอิก": 7620,
    "cy": 2175,
    "yc": 7424,
    " cy": 155,
    "cyc": 2179,
    "ycl": 7430,
    "clu": 2059,
    "lur": 4415,
    " cyc": 157,
    "cycl": 2180,
    "yclu": 7431,
    "clur": 2060,
    "lura": 4416,
    " nu": 479,
    "nub": 5016,
    "ubi": 6987,
    "bil": 1749,
    "ila": 3664,
    "la ": 4072,
    " nub": 480,
    "nubi": 5017,
    "ubil": 6989,
    "bila": 1751,
    "ila ": 3665,
    "ham": 3287,
    "ame": 1348,
    "mel": 4522,
    "ele": 2616,
    "eon": 2745,
    " cha": 118,
    "cham": 1953,
    "hame": 3289,
    "amel": 1349,
    "mele": 4524,
    "eleo": 2619,
    "leon": 4187,
    "eon ": 2746,
    "แพ": 10103,
    "พน": 8529,
    "เธ": 9971,
    "์ค": 10411,
    "าเ": 9601,
    "เม": 10004,
    "มเ": 8698,
    "ลี": 9012,
    "ยน": 8737,
    " แพ": 936,
    "แพน": 10106,
    "พนเ": 8530,
    "นเธ": 8389,
    "เธอ": 9972,
    "ธอร": 8267,
    "ร์ค": 8894,
    "์คา": 10412,
    "คาเ": 7798,
    "าเม": 9604,
    "เมเ": 10011,
    "มเล": 8701,
    "เลี": 10035,
    "ลีย": 9014,
    "ียน": 9755,
    "ยน ": 8738,
    " แพน": 938,
    "แพนเ": 10107,
    "พนเธ": 8531,
    "นเธอ": 8390,
    "เธอร": 9973,
    "ธอร์": 8268,
    "อร์ค": 9287,
    "ร์คา": 8895,
    "์คาเ": 10413,
    "คาเม": 7800,
    "าเมเ": 9605,
    "เมเล": 10012,
    "มเลี": 8702,
    "เลีย": 10036,
    "ลียน": 9015,
    "ียน ": 9756,
    "rc": 5919,
    " fu": 263,
    "fur": 3073,
    "urc": 7151,
    "rci": 5924,
    "cif": 2005,
    " fur": 264,
    "furc": 3074,
    "urci": 7152,
    "rcif": 5925,
    "cife": 2006,
    "rda": 5931,
    "dal": 2221,
    "lis": 4264,
    " par": 516,
    "arda": 1489,
    "rdal": 5933,
    "dali": 2222,
    "alis": 1306,
    "lis ": 4265,
    "ei": 2592,
    " ve": 730,
    "vei": 7248,
    "eil": 2598,
    " vei": 731,
    "veil": 7249,
    "eile": 2599,
    " ว": 879,
    "วี": 9109,
    "ีล": 9761,
    "ลด": 8947,
    "ด์": 8098,
    " วี": 882,
    "วีล": 9110,
    "ีลด": 9762,
    "ลด์": 8950,
    "ด์ค": 8100,
    " วีล": 883,
    "วีลด": 9111,
    "ีลด์": 9763,
    "ลด์ค": 8951,
    "ด์คา": 8101,
    "mae": 4451,
    "ael": 1187,
    "eo ": 2736,
    "hama": 3288,
    "amae": 1337,
    "mael": 4452,
    "aele": 1188,
    "leo ": 4186,
    "yp": 7507,
    "aly": 1331,
    "lyp": 4432,
    "ypt": 7518,
    "ptr": 5769,
    "caly": 1874,
    "alyp": 1333,
    "lypt": 4433,
    "yptr": 7520,
    "ptra": 5770,
    "trat": 6892,
    "ratu": 5891,
    "rri": 6226,
    "rit": 6083,
    "ori": 5373,
    "erri": 2838,
    "rrit": 6229,
    "rito": 6086,
    "tori": 6870,
    "oria": 5374,
    "ks": 4042,
    "jac": 3954,
    "cks": 2043,
    "kso": 4045,
    "son": 6509,
    "on'": 5244,
    " jac": 354,
    "jack": 3956,
    "acks": 1139,
    "ckso": 2044,
    "kson": 4046,
    "son'": 6511,
    "on's": 5245,
    "แจ": 10085,
    "จ็": 7932,
    "็ค": 10256,
    "คส": 7769,
    "สั": 9154,
    "นค": 8283,
    " แจ": 934,
    "แจ็": 10086,
    "จ็ค": 7933,
    "็คส": 10261,
    "คสั": 7770,
    "สัน": 9155,
    "ันค": 9406,
    "นคา": 8286,
    " แจ็": 935,
    "แจ็ค": 10087,
    "จ็คส": 7934,
    "็คสั": 10262,
    "คสัน": 7771,
    "สันค": 9156,
    "ันคา": 9408,
    "นคาเ": 8288,
    "ioc": 3797,
    "oce": 5074,
    "cer": 1941,
    "os ": 5409,
    "trio": 6901,
    "rioc": 6070,
    "ioce": 3798,
    "ocer": 5077,
    "cero": 1944,
    "eros": 2831,
    "ros ": 6191,
    "ii": 3660,
    "nii": 4880,
    "ii ": 3661,
    "soni": 6513,
    "onii": 5276,
    "nii ": 4881,
    "lc": 4137,
    "sul": 6595,
    "ulc": 7077,
    "lca": 4138,
    " sul": 669,
    "sulc": 6596,
    "ulca": 7078,
    "lcat": 4139,
    "cata": 1903,
    "ort": 5394,
    "rto": 6267,
    "toi": 6844,
    "ois": 5167,
    "ise": 3870,
    " tor": 706,
    "tort": 6873,
    "orto": 5398,
    "rtoi": 6268,
    "tois": 6847,
    "oise": 5169,
    "ise ": 3871,
    "ซู": 8008,
    "ูล": 9862,
    "าต": 9495,
    "ต้": 8175,
    "้า": 10379,
    " ซู": 819,
    "ซูล": 8009,
    "ูลค": 9863,
    "ลคา": 8943,
    "คาต": 7788,
    "าต้": 9496,
    "ต้า": 8178,
    "้า ": 10380,
    " ซูล": 820,
    "ซูลค": 8010,
    "ูลคา": 9864,
    "ลคาต": 8944,
    "คาต้": 7789,
    "าต้า": 9497,
    "ต้า ": 8179,
    "ys": 7528,
    "och": 5078,
    "che": 1956,
    "ely": 2657,
    "lys": 4434,
    "ys ": 7529,
    "cent": 1937,
    "entr": 2732,
    "troc": 6908,
    "roch": 6152,
    "oche": 5079,
    "chel": 1960,
    "hely": 3326,
    "elys": 2658,
    "lys ": 4435,
    "ดท": 8046,
    "ทอ": 8217,
    "์ท": 10427,
    "ยส": 8750,
    "ส์": 9183,
    "์ดท": 10421,
    "ดทอ": 8047,
    "ทอร": 8220,
    "ร์ท": 8904,
    "์ทอ": 10432,
    "ทอย": 8218,
    "อยส": 9281,
    "ยส์": 8751,
    "ส์ ": 9184,
    "ร์ดท": 8901,
    "์ดทอ": 10422,
    "ดทอร": 8048,
    "ทอร์": 8221,
    "อร์ท": 9289,
    "ร์ทอ": 8906,
    "์ทอย": 10433,
    "ทอยส": 8219,
    "อยส์": 9282,
    "ยส์ ": 8752,
    "gm": 3184,
    "sti": 6563,
    "tig": 6779,
    "igm": 3649,
    "gmo": 3185,
    "moc": 4592,
    " sti": 664,
    "stig": 6565,
    "tigm": 6781,
    "igmo": 3650,
    "gmoc": 3186,
    "moch": 4593,
    "ss": 6537,
    " ru": 603,
    "uss": 7201,
    "ssi": 6540,
    " rus": 606,
    "russ": 6290,
    "ussi": 7202,
    "ssia": 6541,
    "sian": 6446,
    "ian ": 3522,
    " ร": 874,
    "รั": 8834,
    "ัส": 9453,
    "เซ": 9942,
    " รั": 875,
    "รัส": 8837,
    "ัสเ": 9455,
    "สเซ": 9168,
    "เซี": 9943,
    "ซีย": 8002,
    "ยนท": 8739,
    "นทอ": 8310,
    " รัส": 876,
    "รัสเ": 8838,
    "ัสเซ": 9457,
    "สเซี": 9169,
    "เซีย": 9944,
    "ซียน": 8003,
    "ียนท": 9757,
    "ยนทอ": 8740,
    "นทอร": 8311,
    "stu": 6581,
    "tud": 6939,
    "udo": 7021,
    "do ": 2338,
    " tes": 689,
    "test": 6731,
    "estu": 2888,
    "stud": 6582,
    "tudo": 6940,
    "udo ": 7022,
    "sf": 6423,
    "fi": 3013,
    "ors": 5391,
    "rsf": 6242,
    "sfi": 6424,
    "fie": 3016,
    "iel": 3600,
    "eld": 2614,
    "ldi": 4152,
    "dii": 2299,
    " hor": 328,
    "hors": 3425,
    "orsf": 5393,
    "rsfi": 6243,
    "sfie": 6425,
    "fiel": 3017,
    "ield": 3602,
    "eldi": 2615,
    "ldii": 4154,
    "dii ": 2300,
    "rma": 6115,
    "man": 4464,
    "nn'": 4912,
    "herm": 3343,
    "erma": 2818,
    "rman": 6118,
    "mann": 4468,
    "ann'": 1411,
    "nn's": 4913,
    "เฮ": 10059,
    "์แ": 10493,
    "แม": 10115,
    "มน": 8641,
    " เฮ": 928,
    "เฮอ": 10062,
    "ฮอร": 9373,
    "ร์แ": 8931,
    "์แม": 10497,
    "แมน": 10116,
    "มนท": 8642,
    " เฮอ": 930,
    "เฮอร": 10063,
    "ฮอร์": 9374,
    "อร์แ": 9297,
    "ร์แม": 8933,
    "์แมน": 10498,
    "แมนท": 10117,
    "มนทอ": 8643,
    "nni": 4919,
    "anni": 1413,
    "nni ": 4920,
    "-f": 1003,
    "red": 5955,
    "ed-": 2516,
    "d-f": 2202,
    "-fo": 1006,
    "foo": 3045,
    "oot": 5312,
    " red": 581,
    "red-": 5957,
    "ed-f": 2520,
    "d-fo": 2203,
    "-foo": 1007,
    "foot": 3047,
    "oote": 5313,
    "oted": 5449,
    "รด": 8786,
    "ดฟ": 8049,
    "ฟุ": 8612,
    "ุต": 9802,
    "ตท": 8115,
    " เร": 919,
    "เรด": 10016,
    "รดฟ": 8790,
    "ดฟุ": 8050,
    "ฟุต": 8613,
    "ุตท": 9803,
    "ตทอ": 8116,
    " เรด": 920,
    "เรดฟ": 10019,
    "รดฟุ": 8791,
    "ดฟุต": 8051,
    "ฟุตท": 8614,
    "ุตทอ": 9804,
    "ตทอร": 8117,
    "lon": 4336,
    "ono": 5281,
    "noi": 4936,
    " che": 119,
    "helo": 3323,
    "elon": 2647,
    "lono": 4340,
    "onoi": 5283,
    "noid": 4937,
    "oidi": 5166,
    "bon": 1785,
    "nar": 4707,
    "carb": 1894,
    "rbon": 5915,
    "bona": 1786,
    "onar": 5253,
    "nari": 4708,
    "ab": 1099,
    "ald": 1292,
    "lda": 4148,
    "dab": 2217,
    "abr": 1105,
    "bra": 1809,
    " ald": 19,
    "alda": 1294,
    "ldab": 4149,
    "dabr": 2218,
    "abra": 1106,
    "bra ": 1810,
    " อ": 893,
    "อั": 9320,
    "ัล": 9431,
    "ดา": 8068,
    "าบ": 9516,
    "บร": 8426,
    " อั": 896,
    "อัล": 9323,
    "ัลด": 9433,
    "ลดา": 8948,
    "ดาบ": 8069,
    "าบร": 9519,
    "บรา": 8431,
    "ายั": 9547,
    " อัล": 898,
    "อัลด": 9324,
    "ัลดา": 9434,
    "ลดาบ": 8949,
    "ดาบร": 8070,
    "าบรา": 9520,
    "บราย": 8433,
    "รายั": 8847,
    "ายัก": 9548,
    "rac": 5832,
    "ach": 1124,
    "brac": 1811,
    "rach": 5835,
    "ache": 1126,
    "gig": 3167,
    "iga": 3638,
    "gan": 3098,
    "tea": 6688,
    "ea ": 2440,
    " gig": 281,
    "giga": 3168,
    "igan": 3639,
    "gant": 3100,
    "ante": 1425,
    "ntea": 4985,
    "tea ": 6689,
    "-e": 998,
    "d-e": 2199,
    "-ea": 999,
    "ed-e": 2519,
    "d-ea": 2200,
    "-ear": 1000,
    "eare": 2459,
    "ared": 1496,
    "red ": 5956,
    "sl": 6484,
    " sl": 641,
    "sli": 6485,
    "lid": 4233,
    "der": 2275,
    " sli": 642,
    "slid": 6486,
    "lide": 4235,
    "ider": 3581,
    "der ": 2276,
    "ต่": 8169,
    "าแ": 9607,
    "มแ": 8705,
    "แด": 10093,
    "ดง": 8033,
    " เต": 910,
    "เต่": 9964,
    "ต่า": 8170,
    "่าแ": 10335,
    "าแก": 9608,
    "แก้": 10067,
    "ก้ม": 7684,
    "้มแ": 10369,
    "มแด": 8706,
    "แดง": 10094,
    "ดง ": 8034,
    " เต่": 911,
    "เต่า": 9965,
    "ต่าแ": 8174,
    "่าแก": 10336,
    "าแก้": 9609,
    "แก้ม": 10068,
    "ก้มแ": 7685,
    "้มแด": 10370,
    "มแดง": 8707,
    "แดง ": 10095,
    "my": 4657,
    "emy": 2680,
    "mys": 4670,
    "trac": 6888,
    "chem": 1961,
    "hemy": 3330,
    "emys": 2681,
    "mys ": 4671,
    "ip": 3823,
    "scr": 6380,
    "cri": 2119,
    "rip": 6074,
    "ipt": 3833,
    "pta": 5761,
    " scr": 620,
    "scri": 6381,
    "crip": 2122,
    "ript": 6077,
    "ipta": 3834,
    "pta ": 5762,
    "leg": 4175,
    "ega": 2577,
    "ans": 1420,
    "ns ": 4966,
    " ele": 209,
    "eleg": 2618,
    "lega": 4177,
    "egan": 2579,
    "gans": 3099,
    "ans ": 1421,
    "tl": 6812,
    " tu": 713,
    "tur": 6946,
    "urt": 7181,
    "rtl": 6265,
    "tle": 6816,
    " tur": 714,
    "turt": 6947,
    "urtl": 7182,
    "rtle": 6266,
    "tle ": 6817,
    "sh": 6426,
    "hw": 3471,
    "wa": 7313,
    "fre": 3056,
    "esh": 2873,
    "shw": 6439,
    "hwa": 3472,
    "wat": 7324,
    " fre": 260,
    "fres": 3057,
    "resh": 5986,
    "eshw": 2874,
    "shwa": 6440,
    "hwat": 3473,
    "wate": 7325,
    "ater": 1583,
    "ter ": 6717,
    " mat": 423,
    "mata": 4483,
    " ม": 865,
    "ทา": 8225,
    "ท่": 8252,
    " มา": 866,
    "มาท": 8676,
    "าทา": 9499,
    "ทาม": 8226,
    "ามา": 9539,
    "าท่": 9505,
    "ท่า": 8253,
    " มาท": 867,
    "มาทา": 8677,
    "าทาม": 9500,
    "ทามา": 8227,
    "ามาท": 9540,
    "มาท่": 8678,
    "าท่า": 9506,
    "ท่า ": 8254,
    "elu": 2655,
    "helu": 3325,
    "elus": 2656,
    "mb": 4492,
    " fi": 243,
    "fim": 3022,
    "imb": 3712,
    "mbr": 4505,
    " fim": 246,
    "fimb": 3023,
    "imbr": 3714,
    "mbri": 4507,
    "bria": 1819,
    "riat": 6032,
    "iata": 3528,
    " all": 21,
    "alli": 1312,
    "liga": 4245,
    "igat": 3641,
    "gato": 3111,
    "pp": 5721,
    "nap": 4705,
    "app": 1456,
    "ppi": 5728,
    "pin": 5666,
    "snap": 6495,
    "napp": 4706,
    "appi": 1459,
    "ppin": 5729,
    "ping": 5669,
    "สแ": 9175,
    "แน": 10097,
    "นป": 8325,
    "ปป": 8495,
    "ปิ": 8507,
    "งย": 7852,
    "่าส": 10328,
    "าสแ": 9588,
    "สแน": 9176,
    "แนป": 10098,
    "นปป": 8326,
    "ปปิ": 8496,
    "ปิ้": 8508,
    "้งย": 10355,
    "งยั": 7853,
    "ต่าส": 8173,
    "่าสแ": 10330,
    "าสแน": 9589,
    "สแนป": 9177,
    "แนปป": 10099,
    "นปปิ": 8327,
    "ปปิ้": 8497,
    "ปิ้ง": 8509,
    "ิ้งย": 9723,
    "้งยั": 10356,
    "งยัก": 7854,
    "acr": 1148,
    "cro": 2123,
    "macr": 4447,
    "acro": 1150,
    "croc": 2124,
    "mm": 4576,
    "tem": 6707,
    "emm": 2672,
    "mmi": 4579,
    "min": 4558,
    "nck": 4738,
    "kii": 4012,
    " tem": 686,
    "temm": 6708,
    "emmi": 2673,
    "mmin": 4580,
    "minc": 4560,
    "inck": 3741,
    "ncki": 4739,
    "ckii": 2039,
    "kii ": 4013,
    "dan": 2223,
    "rou": 6200,
    " dan": 163,
    "dang": 2224,
    "ange": 1396,
    "gero": 3145,
    "erou": 2832,
    "rous": 6203,
    "bit": 1757,
    "te ": 6683,
    " bit": 74,
    "bite": 1758,
    "ite ": 3897,
    "hin": 3368,
    "ine": 3748,
    "chin": 1967,
    "hine": 3371,
    "ines": 3755,
    "of": 5132,
    "ft": 3065,
    "ts": 6916,
    "sof": 6502,
    "oft": 5137,
    "fts": 3068,
    "tsh": 6917,
    "she": 6433,
    " sof": 649,
    "soft": 6503,
    "ofts": 5139,
    "ftsh": 3069,
    "tshe": 6918,
    "shel": 6434,
    "hell": 3321,
    "ell ": 2633,
    "าน": 9507,
    "ิ่": 9717,
    "่ม": 10300,
    "มจ": 8630,
    "จี": 7924,
    "่าน": 10320,
    "านิ": 9510,
    "นิ่": 8369,
    "ิ่ม": 9718,
    "่มจ": 10301,
    "มจี": 8631,
    "จีน": 7925,
    "ีน ": 9736,
    "ต่าน": 8172,
    "่านิ": 10321,
    "านิ่": 9511,
    "นิ่ม": 8370,
    "ิ่มจ": 9719,
    "่มจี": 10302,
    "มจีน": 8632,
    "จีน ": 7926,
    " pe": 518,
    "lod": 4329,
    "odi": 5112,
    "isc": 3867,
    "scu": 6382,
    " pel": 520,
    "pelo": 5592,
    "elod": 2645,
    "lodi": 4331,
    "odis": 5114,
    "disc": 2319,
    "iscu": 3869,
    "scus": 6385,
    " si": 633,
    "sin": 6460,
    "nen": 4804,
    "sis": 6467,
    " sin": 636,
    "sine": 6461,
    "inen": 3752,
    "nens": 4806,
    "nsis": 4974,
    "sis ": 6468,
    "g-": 3083,
    "-n": 1021,
    "pig": 5660,
    "ig-": 3636,
    "g-n": 3084,
    "-no": 1022,
    "sed": 6394,
    " pig": 529,
    "pig-": 5662,
    "ig-n": 3637,
    "g-no": 3085,
    "-nos": 1023,
    "osed": 5419,
    "sed ": 6395,
    "าจ": 9483,
    "จม": 7918,
    "มู": 8694,
    "กห": 7611,
    "หม": 9197,
    "ู ": 9819,
    "่าจ": 10316,
    "าจม": 9484,
    "จมู": 7919,
    "มูก": 8696,
    "ูกห": 9823,
    "กหม": 7612,
    "หมู": 9200,
    "มู ": 8695,
    "ต่าจ": 8171,
    "่าจม": 10317,
    "าจมู": 9485,
    "จมูก": 7920,
    "มูกห": 8697,
    "ูกหม": 9824,
    "กหมู": 7613,
    "หมู ": 9201,
    "ett": 2909,
    "tto": 6931,
    "toc": 6833,
    "care": 1895,
    "aret": 1498,
    "rett": 5993,
    "etto": 2912,
    "ttoc": 6932,
    "toch": 6836,
    "lp": 4369,
    "nsc": 4967,
    "ulp": 7089,
    "lpt": 4378,
    "insc": 3784,
    "nscu": 4968,
    "scul": 6383,
    "culp": 2161,
    "ulpt": 7092,
    "lpta": 4379,
    "cta": 2136,
    "tac": 6635,
    "acl": 1140,
    "cle": 2049,
    " spe": 655,
    "pect": 5586,
    "ecta": 2509,
    "ctac": 2137,
    "tacl": 6638,
    "acle": 1141,
    "cled": 2052,
    "cai": 1862,
    "aim": 1243,
    " cai": 103,
    "caim": 1863,
    "aima": 1244,
    "iman": 3710,
    "man ": 4465,
    " ไ": 960,
    "ไค": 10215,
    "คแ": 7819,
    "แว": 10124,
    "ว่": 9117,
    " ไค": 961,
    "ไคแ": 10218,
    "คแม": 7820,
    "มนแ": 8648,
    "นแว": 8398,
    "แว่": 10127,
    "ว่น": 9118,
    " ไคแ": 963,
    "ไคแม": 10219,
    "คแมน": 7821,
    "แมนแ": 10120,
    "มนแว": 8650,
    "นแว่": 8399,
    "แว่น": 10128,
    "ว่น ": 9119,
    "oco": 5091,
    "dil": 2301,
    "ilu": 3702,
    " cro": 147,
    "roco": 6155,
    "ocod": 5093,
    "codi": 2076,
    "odil": 5113,
    "dilu": 2305,
    "ilus": 3704,
    "dili": 2303,
    "lian": 4228,
    "aq": 1464,
    "-aq": 981,
    "aqu": 1465,
    "uat": 6980,
    "i-aq": 3507,
    "-aqu": 982,
    "aqua": 1466,
    "quat": 5803,
    "uati": 6981,
    "uv": 7223,
    "r'": 5810,
    "cuv": 2173,
    "uvi": 7224,
    "vie": 7275,
    "ier": 3608,
    "er'": 2778,
    "r's": 5811,
    " cuv": 154,
    "cuvi": 2174,
    "uvie": 7225,
    "vier": 7276,
    "ier'": 3609,
    "er's": 2779,
    "r's ": 5812,
    "dw": 2405,
    "f ": 2976,
    " dw": 192,
    "dwa": 2406,
    "war": 7321,
    "arf": 1499,
    "rf ": 6001,
    " dwa": 193,
    "dwar": 2407,
    "warf": 7322,
    "arf ": 1500,
    "ระ": 8830,
    "ะ ": 9378,
    "นแค": 8394,
    "แคร": 10079,
    "คระ": 7754,
    "ระ ": 8831,
    "มนแค": 8649,
    "นแคร": 8395,
    "แคระ": 10081,
    "คระ ": 7755,
    "uc": 6996,
    "pal": 5557,
    "eos": 2752,
    "osu": 5435,
    "suc": 6591,
    "uch": 7001,
    "chu": 1986,
    " pal": 514,
    "pale": 5558,
    "aleo": 1298,
    "leos": 4189,
    "eosu": 2754,
    "osuc": 5436,
    "such": 6592,
    "uchu": 7004,
    "chus": 1988,
    "eb": 2472,
    "alp": 1318,
    "lpe": 4370,
    "peb": 5582,
    "ebr": 2479,
    "sus": 6609,
    "palp": 5559,
    "alpe": 1319,
    "lpeb": 4371,
    "pebr": 5583,
    "ebro": 2481,
    "bros": 1827,
    "rosu": 6194,
    "osus": 5438,
    "sus ": 6610,
    "ax": 1661,
    "xo": 7384,
    " ax": 59,
    "axo": 1663,
    "xol": 7385,
    "otl": 5460,
    "tl ": 6813,
    " axo": 60,
    "axol": 1664,
    "xolo": 7386,
    "olot": 5203,
    "lotl": 4358,
    "otl ": 5461,
    "โซ": 10157,
    "ซล": 7971,
    "ลอ": 8979,
    "อเ": 9346,
    "ล ": 8939,
    "แอก": 10133,
    "กโซ": 7674,
    "โซล": 10158,
    "ซลอ": 7974,
    "ลอเ": 8982,
    "อเต": 9349,
    "เติ": 9960,
    "ติล": 8148,
    "ิล ": 9691,
    " แอก": 945,
    "แอกโ": 10134,
    "อกโซ": 9233,
    "กโซล": 7675,
    "โซลอ": 10159,
    "ซลอเ": 7975,
    "ลอเต": 8983,
    "อเติ": 9350,
    "เติล": 9961,
    "ติล ": 8149,
    "by": 1846,
    " am": 23,
    "amb": 1342,
    "mby": 4511,
    "bys": 1850,
    "yst": 7536,
    "sto": 6572,
    "tom": 6852,
    " amb": 25,
    "amby": 1347,
    "mbys": 4512,
    "byst": 1851,
    "ysto": 7538,
    "stom": 6574,
    "toma": 6853,
    "oma ": 5216,
    "mex": 4542,
    "exi": 2953,
    "num": 5018,
    " mex": 436,
    "mexi": 4543,
    "exic": 2954,
    "xica": 7378,
    "canu": 1883,
    "anum": 1433,
    "num ": 5019,
    "ib": 3530,
    "mph": 4626,
    "hib": 3353,
    "ibi": 3535,
    "bia": 1740,
    " amp": 27,
    "amph": 1362,
    "mphi": 4628,
    "phib": 5625,
    "hibi": 3354,
    "ibia": 3536,
    "bian": 1741,
    "sal": 6345,
    "nde": 4761,
    " sal": 611,
    "sala": 6346,
    "alam": 1284,
    "lama": 4088,
    "aman": 1338,
    "mand": 4467,
    "ande": 1387,
    "nder": 4765,
    " tig": 695,
    "tige": 6780,
    "iger": 3644,
    "ger ": 3141,
    "ไท": 10220,
    "์ซ": 10414,
    "าล": 9570,
    "ดอ": 8058,
    " ไท": 964,
    "ไทเ": 10223,
    "ทเก": 8240,
    "เกอ": 9908,
    "กอร": 7617,
    "ร์ซ": 8896,
    "์ซา": 10415,
    "ซาล": 7986,
    "าลา": 9571,
    "ลาแ": 9002,
    "าแม": 9614,
    "มนเ": 8646,
    "เดอ": 9952,
    "ดอร": 8059,
    " ไทเ": 965,
    "ไทเก": 10224,
    "ทเกอ": 8241,
    "เกอร": 9909,
    "กอร์": 7618,
    "อร์ซ": 9288,
    "ร์ซา": 8897,
    "์ซาล": 10416,
    "ซาลา": 7987,
    "าลาแ": 9573,
    "ลาแม": 9003,
    "าแมน": 9615,
    "แมนเ": 10119,
    "มนเด": 8647,
    "นเดอ": 8387,
    "เดอร": 9953,
    "ดอร์": 8060,
    "igr": 3653,
    "gri": 3234,
    "tigr": 6782,
    "igri": 3655,
    "grin": 3235,
    "inum": 3790,
    "c-": 1853,
    "-s": 1027,
    "ic-": 3542,
    "c-s": 1854,
    "-sk": 1028,
    "in ": 3727,
    " tox": 708,
    "xic-": 7377,
    "ic-s": 3543,
    "c-sk": 1855,
    "-ski": 1029,
    "kin ": 4017,
    "fir": 3029,
    " fir": 248,
    "fire": 3030,
    "ire ": 3850,
    "ไฟ": 10234,
    " ไฟ": 966,
    "ไฟร": 10239,
    "ฟร์": 8587,
    " ไฟร": 967,
    "ไฟร์": 10240,
    "ฟร์ซ": 8589,
    "ndr": 4777,
    "andr": 1389,
    "ndra": 4778,
    "dra ": 2374,
    "wh": 7339,
    "e'": 2413,
    " wh": 751,
    "whi": 7340,
    "te'": 6684,
    "e's": 2414,
    " whi": 752,
    "whit": 7341,
    "hite": 3385,
    "ite'": 3898,
    "te's": 6685,
    "e's ": 2415,
    "fro": 3062,
    "rog": 6164,
    "og ": 5143,
    " fro": 262,
    "frog": 3063,
    "rog ": 6165,
    "ไว": 10241,
    "วท": 9075,
    "ท์": 8258,
    "ีฟ": 9748,
    " ไว": 968,
    "ไวท": 10242,
    "วท์": 9076,
    "ท์ท": 8259,
    "์ทร": 10430,
    "รีฟ": 8864,
    "ีฟร": 9749,
    "ฟร็": 8585,
    "อก ": 9223,
    " ไวท": 969,
    "ไวท์": 10243,
    "วท์ท": 9077,
    "ท์ทร": 8260,
    "์ทรี": 10431,
    "ทรีฟ": 8209,
    "รีฟร": 8865,
    "ีฟร็": 9750,
    "ฟร็อ": 8586,
    "็อก ": 10282,
    " lit": 397,
    "lito": 4269,
    "cae": 1860,
    "aer": 1193,
    "eru": 2849,
    "rul": 6281,
    "ule": 7082,
    "lea": 4163,
    " cae": 102,
    "caer": 1861,
    "aeru": 1194,
    "erul": 2850,
    "rule": 6282,
    "ulea": 7083,
    "lea ": 4164,
    " sm": 643,
    " sma": 644,
    "smal": 6490,
    "mall": 4461,
    "up": 7132,
    "gro": 3237,
    "oup": 5490,
    "ups": 7141,
    " gro": 299,
    "grou": 3239,
    "roup": 6202,
    "oups": 5492,
    "ups ": 7142,
    "-ey": 1001,
    "eye": 2966,
    "yed": 7440,
    "d-ey": 2201,
    "-eye": 1002,
    "eyed": 2967,
    "yed ": 7441,
    "ยด": 8733,
    "รดอ": 8792,
    "ดอา": 8061,
    "อาย": 9332,
    "ายด": 9545,
    "ยด์": 8734,
    "ด์ท": 8102,
    "เรดอ": 10020,
    "รดอา": 8793,
    "ดอาย": 8062,
    "อายด": 9333,
    "ายด์": 9546,
    "ยด์ท": 8736,
    "ด์ทร": 8103,
    "hn": 3399,
    " ag": 14,
    "aga": 1205,
    "gal": 3090,
    "lyc": 4428,
    "ych": 7428,
    "chn": 1975,
    "hni": 3404,
    "nis": 4888,
    " aga": 15,
    "agal": 1207,
    "galy": 3095,
    "alyc": 1332,
    "lych": 4429,
    "ychn": 7429,
    "chni": 1977,
    "hnis": 3405,
    "nis ": 4889,
    "idr": 3590,
    "dry": 2386,
    "rya": 6306,
    "yas": 7417,
    "as ": 1543,
    "call": 1872,
    "llid": 4296,
    "lidr": 4236,
    "idry": 3591,
    "drya": 2387,
    "ryas": 6307,
    "yas ": 7418,
    "cm": 2061,
    "pac": 5547,
    "acm": 1142,
    "cma": 2062,
    " pac": 511,
    "pacm": 5549,
    "acma": 1143,
    "cman": 2063,
    "พค": 8523,
    "นฟ": 8331,
    "แพค": 10104,
    "พคแ": 8524,
    "มนฟ": 8644,
    "นฟร": 8332,
    " แพค": 937,
    "แพคแ": 10105,
    "พคแม": 8525,
    "แมนฟ": 10118,
    "มนฟร": 8645,
    "นฟร็": 8333,
    "top": 6864,
    "phr": 5637,
    "hry": 3454,
    "rys": 6314,
    " cer": 116,
    "cera": 1942,
    "atop": 1606,
    "toph": 6867,
    "ophr": 5328,
    "phry": 5641,
    "hrys": 3455,
    "rys ": 6315,
    " or": 499,
    "rna": 6131,
    "nat": 4714,
    " orn": 501,
    "orna": 5383,
    "rnat": 6134,
    "nata": 4715,
    "-w": 1041,
    "it-": 3884,
    "t-a": 6622,
    "-an": 979,
    "nd-": 4753,
    "d-w": 2210,
    "-wa": 1042,
    "wai": 7314,
    "ait": 1255,
    " sit": 637,
    "sit-": 6470,
    "it-a": 3885,
    "t-an": 6623,
    "-and": 980,
    "and-": 1385,
    "nd-w": 4755,
    "d-wa": 2211,
    "-wai": 1043,
    "wait": 7315,
    "ait ": 1256,
    "to ": 6830,
    " tom": 705,
    "omat": 5218,
    "mato": 4486,
    "ato ": 1604,
    " โ": 950,
    "ทม": 8200,
    "าโ": 9616,
    "โต": 10160,
    "้ฟ": 10362,
    " โท": 951,
    "โทม": 10172,
    "ทมา": 8201,
    "มาโ": 8684,
    "าโต": 9617,
    "โต้": 10166,
    "ต้ฟ": 8176,
    "้ฟร": 10363,
    " โทม": 952,
    "โทมา": 10173,
    "ทมาโ": 8202,
    "มาโต": 8685,
    "าโต้": 9618,
    "โต้ฟ": 10167,
    "ต้ฟร": 8177,
    "้ฟร็": 10364,
    "dy": 2408,
    " dy": 194,
    "dys": 2410,
    "ysc": 7530,
    "sco": 6378,
    " dys": 195,
    "dysc": 2411,
    "ysco": 7531,
    "scop": 6379,
    "ui": 7058,
    "gui": 3253,
    "uin": 7065,
    "net": 4819,
    "ti ": 6768,
    " gui": 301,
    "guin": 3255,
    "uine": 7066,
    "inet": 3756,
    "neti": 4821,
    "eti ": 2899,
    "hy": 3474,
    " sh": 628,
    "shy": 6441,
    "hy ": 3475,
    " shy": 632,
    "shy ": 6442,
    "lf": 4213,
    "bul": 1834,
    "ull": 7087,
    "llf": 4291,
    "lfr": 4219,
    " bul": 94,
    "bull": 1835,
    "ullf": 7088,
    "llfr": 4292,
    "lfro": 4220,
    "นบ": 8322,
    "บู": 8484,
    "ลฟ": 8961,
    "ันบ": 9415,
    "นบู": 8323,
    "บูล": 8487,
    "ูลฟ": 9865,
    "ลฟร": 8962,
    "กันบ": 7626,
    "ันบู": 9416,
    "นบูล": 8324,
    "บูลฟ": 8488,
    "ูลฟร": 9866,
    "ลฟร็": 8963,
    "pyx": 5796,
    "yxi": 7552,
    "hal": 3283,
    "alu": 1326,
    " pyx": 568,
    "pyxi": 5797,
    "yxic": 7553,
    "xice": 7379,
    "ceph": 1939,
    "phal": 5615,
    "halu": 3286,
    "alus": 1328,
    "ds": 2390,
    " ad": 7,
    "ads": 1177,
    "dsp": 2391,
    "rsu": 6249,
    " ads": 8,
    "adsp": 1178,
    "dspe": 2392,
    "sper": 6525,
    "pers": 5602,
    "ersu": 2844,
    "rsus": 6251,
    "gg": 3153,
    "agg": 1213,
    "ggr": 3154,
    "ess": 2881,
    " agg": 16,
    "aggr": 1214,
    "ggre": 3155,
    "gres": 3232,
    "ress": 5988,
    "essi": 2883,
    "ssiv": 6542,
    " fe": 239,
    "fee": 2995,
    "eed": 2547,
    "ede": 2528,
    " fee": 240,
    "feed": 2996,
    "eede": 2548,
    "eder": 2529,
    "poi": 5701,
    "iso": 3877,
    " poi": 541,
    "pois": 5703,
    "oiso": 5170,
    "ison": 3878,
    "son ": 6510,
    "dar": 2225,
    "art": 1533,
    " dar": 164,
    "dart": 2227,
    "art ": 1534,
    " พ": 855,
    "พอ": 8542,
    "ยซ": 8730,
    "ซั": 7979,
    "นด": 8299,
    "ทฟ": 8195,
    " พอ": 856,
    "พอย": 8543,
    "อยซ": 9275,
    "ยซั": 8731,
    "ซัน": 7980,
    "ันด": 9409,
    "นดา": 8300,
    "ดาร": 8071,
    "์ทฟ": 10428,
    "ทฟร": 8196,
    " พอย": 857,
    "พอยซ": 8544,
    "อยซั": 9276,
    "ยซัน": 8732,
    "ซันด": 7982,
    "ันดา": 9410,
    "นดาร": 8301,
    "ดาร์": 8072,
    "าร์ท": 9566,
    "ร์ทฟ": 8905,
    "์ทฟร": 10429,
    "ทฟร็": 8197,
    "ob": 5056,
    "den": 2267,
    "dro": 2383,
    "rob": 6147,
    "oba": 5059,
    "bat": 1709,
    " den": 172,
    "dend": 2269,
    "endr": 2699,
    "ndro": 4780,
    "drob": 2384,
    "roba": 6148,
    "obat": 5061,
    "bate": 1710,
    "tin": 6791,
    " tin": 697,
    "tinc": 6792,
    "ncto": 4747,
    "oriu": 5378,
    "del": 2259,
    " del": 170,
    "deli": 2262,
    "elic": 2630,
    "lica": 4231,
    "icat": 3550,
    "ate ": 1579,
    "s/": 6330,
    "/g": 1051,
    "pai": 5555,
    "air": 1250,
    "irs": 3862,
    "rs/": 6238,
    "s/g": 6331,
    "/gr": 1052,
    " pai": 513,
    "pair": 5556,
    "airs": 1254,
    "irs/": 3864,
    "rs/g": 6239,
    "s/gr": 6332,
    "/gro": 1053,
    "-b": 985,
    "re-": 5945,
    "e-b": 2421,
    "-be": 988,
    "bel": 1728,
    "lie": 4237,
    "ied": 3596,
    "ire-": 3851,
    "re-b": 5947,
    "e-be": 2422,
    "-bel": 989,
    "bell": 1729,
    "llie": 4297,
    "lied": 4238,
    "ied ": 3597,
    "toa": 6831,
    "oad": 5050,
    "ad ": 1160,
    " toa": 702,
    "toad": 6832,
    "oad ": 5051,
    "ลล": 8968,
    "ีโ": 9767,
    "ทด": 8187,
    "ด ": 8024,
    "์เบ": 10482,
    "เบล": 9987,
    "บลล": 8439,
    "ลลี": 8973,
    "ลีโ": 9016,
    "ีโท": 9768,
    "โทด": 10170,
    "ทด ": 8188,
    "ฟร์เ": 8590,
    "ร์เบ": 8926,
    "์เบล": 10483,
    "เบลล": 9988,
    "บลลี": 8440,
    "ลลีโ": 8974,
    "ลีโท": 9017,
    "ีโทด": 9769,
    "โทด ": 10171,
    "bom": 1783,
    "omb": 5219,
    "mbi": 4498,
    "bin": 1753,
    "ina": 3730,
    " bom": 83,
    "bomb": 1784,
    "ombi": 5220,
    "mbin": 4500,
    "bina": 1754,
    "ina ": 3731,
    "tal": 6648,
    " ori": 500,
    "orie": 5376,
    "ient": 3607,
    "enta": 2729,
    "ntal": 4982,
    "tali": 6652,
    "dg": 2284,
    "t'": 6618,
    "bud": 1832,
    "udg": 7017,
    "dge": 2285,
    "get": 3149,
    "tt'": 6920,
    "t's": 6619,
    " bud": 93,
    "budg": 1833,
    "udge": 7018,
    "dget": 2288,
    "gett": 3150,
    "ett'": 2910,
    "tt's": 6921,
    "t's ": 6620,
    "เจ": 9932,
    "ตต": 8112,
    "ต์": 8180,
    "์ฟ": 10446,
    " บั": 844,
    "บัด": 8460,
    "ัดเ": 9397,
    "ดเจ": 8084,
    "เจ็": 9935,
    "จ็ต": 7935,
    "็ตต": 10271,
    "ตต์": 8113,
    "ต์ฟ": 8182,
    "์ฟร": 10447,
    " บัด": 845,
    "บัดเ": 8461,
    "ัดเจ": 9398,
    "ดเจ็": 8085,
    "เจ็ต": 9936,
    "จ็ตต": 7936,
    "็ตต์": 10272,
    "ตต์ฟ": 8114,
    "ต์ฟร": 8183,
    "์ฟร็": 10448,
    "pid": 5657,
    "ido": 3587,
    "dob": 2339,
    "atr": 1608,
    " lep": 389,
    "lepi": 4192,
    "epid": 2765,
    "pido": 5659,
    "idob": 3588,
    "doba": 2340,
    "batr": 1711,
    "atra": 1609,
    "achu": 1128,
    "ev": 2936,
    "lae": 4081,
    "aev": 1197,
    "evi": 2940,
    "vis": 7282,
    " lae": 380,
    "laev": 4082,
    "aevi": 1198,
    "evis": 2943,
    "vis ": 7283,
    "dd": 2242,
    " od": 487,
    "odd": 5106,
    "dd ": 2243,
    " odd": 488,
    "odd ": 5107,
    "rdy": 5941,
    "dy ": 2409,
    "ardy": 1492,
    "rdy ": 5942,
    "lly": 4308,
    " bel": 70,
    "elly": 2639,
    "lly ": 4309,
    "ew": 2946,
    "wt": 7360,
    " ne": 464,
    "new": 4825,
    "ewt": 2948,
    "wt ": 7361,
    " new": 469,
    "newt": 4826,
    "ewt ": 2949,
    " น": 834,
    "์ไ": 10515,
    "ฟท": 8569,
    "ท้": 8255,
    "อง": 9240,
    "ส้": 9180,
    "ม ": 8629,
    " นิ": 837,
    "นิว": 8365,
    "ิวท": 9701,
    "ท์ไ": 8261,
    "์ไฟ": 10518,
    "ไฟท": 10235,
    "ฟท้": 8570,
    "ท้อ": 8256,
    "้อง": 10375,
    "องส": 9241,
    "งส้": 7860,
    "ส้ม": 9181,
    "้ม ": 10366,
    " นิว": 838,
    "นิวท": 8366,
    "ิวท์": 9702,
    "วท์ไ": 9078,
    "ท์ไฟ": 8262,
    "์ไฟท": 10519,
    "ไฟท้": 10236,
    "ฟท้อ": 8571,
    "ท้อง": 8257,
    "้องส": 10376,
    "องส้": 9242,
    "งส้ม": 7861,
    "ส้ม ": 9182,
    "yn": 7487,
    "cyn": 2181,
    "yno": 7494,
    "ops": 5339,
    " cyn": 158,
    "cyno": 2182,
    "ynop": 7496,
    "nops": 4945,
    "ops ": 5340,
    "ill": 3689,
    "lla": 4282,
    "hinc": 3370,
    "inch": 3739,
    "nchi": 4732,
    "hill": 3366,
    "illa": 3691,
    "lla ": 4283,
    " ช": 800,
    "ชิ": 7950,
    "ิน": 9664,
    "นช": 8289,
    "ล่": 9052,
    " ชิ": 805,
    "ชิน": 7951,
    "ินช": 9668,
    "นชิ": 8290,
    "ชิล": 7954,
    "ิล่": 9698,
    "ล่า": 9053,
    " ชิน": 806,
    "ชินช": 7953,
    "ินชิ": 9669,
    "นชิล": 8291,
    "ชิล่": 7956,
    "ิล่า": 9699,
    "ล่า ": 9054,
    "lan": 4091,
    "ani": 1398,
    "nig": 4877,
    " lan": 382,
    "lani": 4094,
    "anig": 1401,
    "nige": 4878,
    "gera": 3142,
    "era ": 2783,
    "mam": 4462,
    "amm": 1353,
    "mma": 4577,
    " mam": 418,
    "mamm": 4463,
    "amma": 1354,
    "mmal": 4578,
    "mal ": 4458,
    "ode": 5108,
    " rod": 598,
    "rode": 6158,
    "oden": 5110,
    "dent": 2272,
    "pra": 5733,
    " pra": 549,
    "prai": 5734,
    "rair": 5853,
    "airi": 1253,
    "irie": 3858,
    "rie ": 6049,
    "dog": 2345,
    " dog": 181,
    "dog ": 2346,
    "พร": 8535,
    "่ด": 10289,
    "แพร": 10108,
    "พรี": 8536,
    "รี่": 8870,
    "ี่ด": 9775,
    "่ด็": 10290,
    "ด็อ": 8096,
    " แพร": 939,
    "แพรี": 10109,
    "พรี่": 8537,
    "รี่ด": 8872,
    "ี่ด็": 9776,
    "่ด็อ": 10291,
    "ด็อก": 8097,
    "nom": 4940,
    "omy": 5238,
    "ynom": 7495,
    "nomy": 4942,
    "omys": 5241,
    "ov": 5503,
    " lu": 409,
    "lud": 4402,
    "dov": 2367,
    "ovi": 5509,
    "vic": 7268,
    "cia": 1995,
    " lud": 410,
    "ludo": 4404,
    "udov": 7024,
    "dovi": 2369,
    "ovic": 5510,
    "vici": 7270,
    "icia": 3562,
    "cian": 1998,
    "ianu": 3526,
    "soc": 6497,
    " soc": 648,
    "soci": 6498,
    "ocia": 5083,
    "cial": 1997,
    "u ": 6965,
    "deg": 2257,
    "egu": 2584,
    "gu ": 3244,
    " deg": 169,
    "degu": 2258,
    "egu ": 2585,
    "ดก": 8025,
    "กู": 7652,
    "เดก": 9948,
    "ดกู": 8026,
    "กู ": 7653,
    " เดก": 908,
    "เดกู": 9949,
    "ดกู ": 8027,
    " oc": 484,
    "oct": 5096,
    "tod": 6838,
    " oct": 486,
    "octo": 5097,
    "ctod": 2145,
    "todo": 6839,
    "gus": 3261,
    "egus": 2586,
    "gus ": 3262,
    "fan": 2985,
    "anc": 1378,
    "ncy": 4749,
    "cy ": 2176,
    " fan": 236,
    "fanc": 2986,
    "ancy": 1382,
    "ncy ": 4750,
    " ห": 888,
    "ฟน": 8572,
    "นซ": 8296,
    "ี ": 9724,
    " หน": 891,
    "นูแ": 8381,
    "ูแฟ": 9887,
    "แฟน": 10113,
    "ฟนซ": 8573,
    "นซี": 8297,
    "ซี ": 7999,
    " หนู": 892,
    "หนูแ": 9196,
    "นูแฟ": 8382,
    "ูแฟน": 9888,
    "แฟนซ": 10114,
    "ฟนซี": 8574,
    "นซี ": 8298,
    "att": 1611,
    "ttu": 6934,
    "ratt": 5890,
    "attu": 1613,
    "ttus": 6935,
    "rv": 6294,
    "nor": 4948,
    "orv": 5403,
    "rve": 6297,
    "veg": 7246,
    "gic": 3165,
    " nor": 476,
    "norv": 4950,
    "orve": 5404,
    "rveg": 6298,
    "vegi": 7247,
    "egic": 2582,
    "gicu": 3166,
    "dom": 2351,
    "ca ": 1857,
    " dom": 183,
    "dome": 2352,
    "omes": 5225,
    "mest": 4537,
    "esti": 2886,
    "stic": 6564,
    "tica": 6774,
    "ica ": 3545,
    "ngo": 4850,
    "gol": 3201,
    "mong": 4601,
    "ongo": 5270,
    "ngol": 4851,
    "goli": 3203,
    "olia": 5191,
    "il ": 3663,
    " ger": 275,
    "gerb": 3143,
    "rbil": 5910,
    "bil ": 1750,
    "จอ": 7921,
    "์บ": 10440,
    "บิ": 8467,
    "นูเ": 8379,
    "ูเจ": 9878,
    "เจอ": 9933,
    "จอร": 7922,
    "ร์บ": 8910,
    "์บิ": 10441,
    "บิล": 8472,
    "หนูเ": 9195,
    "นูเจ": 8380,
    "ูเจอ": 9879,
    "เจอร": 9934,
    "จอร์": 7923,
    "อร์บ": 9291,
    "ร์บิ": 8911,
    "์บิล": 10442,
    "บิล ": 8473,
    "mer": 4531,
    "eri": 2803,
    "ion": 3806,
    "one": 5259,
    " mer": 433,
    "meri": 4533,
    "erio": 2810,
    "rion": 6071,
    "ione": 3808,
    "ones": 5262,
    "nes ": 4817,
    "ung": 7122,
    "uic": 7059,
    " ung": 722,
    "ungu": 7124,
    "ngui": 4859,
    "guic": 3254,
    "uicu": 7060,
    " sy": 672,
    "syr": 6615,
    " syr": 674,
    "syri": 6616,
    "yria": 7524,
    "ms": 4639,
    "ams": 1366,
    "mst": 4644,
    " ham": 310,
    "hams": 3291,
    "amst": 1368,
    "mste": 4645,
    "แฮ": 10141,
    "ฮม": 9363,
    "มส": 8662,
    "ีเ": 9764,
    " แฮ": 948,
    "แฮม": 10142,
    "ฮมส": 9364,
    "มสเ": 8663,
    "์ซี": 10417,
    "ซีเ": 8004,
    "ีเร": 9765,
    "เรี": 10028,
    "รีย": 8866,
    " แฮม": 949,
    "แฮมส": 10143,
    "ฮมสเ": 9365,
    "มสเต": 8664,
    "สเตอ": 9171,
    "ร์ซี": 8898,
    "์ซีเ": 10418,
    "ซีเร": 8005,
    "ีเรี": 9766,
    "เรีย": 10029,
    "รียน": 8867,
    "eso": 2879,
    "ocr": 5094,
    "cet": 1947,
    "etu": 2913,
    " mes": 434,
    "meso": 4536,
    "esoc": 2880,
    "socr": 6499,
    "ocri": 5095,
    "cric": 2120,
    "rice": 6041,
    "icet": 3554,
    "cetu": 1949,
    "etus": 2915,
    "aura": 1632,
    "urat": 7150,
    "vs": 7296,
    "obo": 5064,
    "oro": 5385,
    "rov": 6204,
    "ovs": 5511,
    "vsk": 7297,
    "ki ": 4009,
    " rob": 596,
    "robo": 6149,
    "obor": 5065,
    "boro": 1794,
    "orov": 5388,
    "rovs": 6205,
    "ovsk": 5512,
    "vski": 7298,
    "ski ": 6478,
    "รโ": 8876,
    "รอ": 8822,
    "ฟส": 8594,
    "้แ": 10397,
    " โร": 958,
    "โรโ": 10208,
    "รโบ": 8877,
    "โบร": 10184,
    "บรอ": 8429,
    "รอฟ": 8828,
    "อฟส": 9269,
    "ฟสก": 8595,
    "สกี": 9136,
    "ี้แ": 9788,
    "้แฮ": 10400,
    " โรโ": 959,
    "โรโบ": 10209,
    "รโบร": 8878,
    "โบรอ": 10185,
    "บรอฟ": 8430,
    "รอฟส": 8829,
    "อฟสก": 9270,
    "ฟสกี": 8596,
    "สกี้": 9137,
    "กี้แ": 7646,
    "ี้แฮ": 9790,
    "้แฮม": 10401,
    "pu": 5771,
    "hod": 3409,
    "dop": 2355,
    "opu": 5345,
    "pus": 5783,
    " pho": 525,
    "phod": 5634,
    "hodo": 3410,
    "odop": 5118,
    "dopu": 2356,
    "opus": 5347,
    "pus ": 5784,
    "skii": 6479,
    "fas": 2987,
    "st ": 6550,
    " fas": 237,
    "fast": 2989,
    "ast ": 1558,
    "y/": 7404,
    "/p": 1054,
    "ry/": 6303,
    "y/p": 7407,
    "/pa": 1055,
    "rs ": 6237,
    "ary/": 1541,
    "ry/p": 6305,
    "y/pa": 7408,
    "/pai": 1056,
    "irs ": 3863,
    "pb": 5574,
    "l'": 4056,
    "cam": 1875,
    "mpb": 4622,
    "pbe": 5575,
    "ll'": 4280,
    "l's": 4057,
    " cam": 105,
    "camp": 1877,
    "ampb": 1361,
    "mpbe": 4623,
    "pbel": 5576,
    "ell'": 2634,
    "ll's": 4281,
    "l's ": 4058,
    "คม": 7737,
    "มป": 8656,
    "ป์": 8516,
    " แค": 932,
    "แคม": 10076,
    "คมป": 7740,
    "มป์": 8657,
    "ป์เ": 8517,
    "ลล์": 8977,
    "ล์แ": 9067,
    "์แฮ": 10501,
    " แคม": 933,
    "แคมป": 10078,
    "คมป์": 7741,
    "มป์เ": 8658,
    "ป์เบ": 8518,
    "บลล์": 8441,
    "ลล์แ": 8978,
    "ล์แฮ": 9068,
    "์แฮม": 10502,
    "li ": 4225,
    "lli ": 4294,
    "yg": 7454,
    "pyg": 5789,
    "ygm": 7457,
    "gmy": 3187,
    "my ": 4658,
    " pyg": 565,
    "pygm": 5791,
    "ygmy": 7458,
    "gmy ": 3188,
    "dor": 2357,
    "orm": 5379,
    "rmo": 6125,
    "mou": 4617,
    "use": 7193,
    " dor": 184,
    "dorm": 2360,
    "ormo": 5380,
    "rmou": 6128,
    "mous": 4619,
    "ouse": 5500,
    "use ": 7194,
    " ด": 821,
    " ดอ": 822,
    "์เม": 10487,
    "เมา": 10007,
    "าส์": 9591,
    "ส์แ": 9187,
    "์แอ": 10499,
    "ัน ": 9405,
    " ดอร": 823,
    "ร์เม": 8928,
    "์เมา": 10488,
    "เมาส": 10008,
    "มาส์": 8683,
    "าส์แ": 9592,
    "ส์แอ": 9188,
    "์แอฟ": 10500,
    "กัน ": 7625,
    "rap": 5876,
    "hiu": 3387,
    "iur": 3926,
    "grap": 3228,
    "raph": 5877,
    "aphi": 1448,
    "phiu": 5631,
    "hiur": 3388,
    "iuru": 3929,
    "mu": 4646,
    " mu": 452,
    "mur": 4649,
    " mur": 453,
    "muri": 4651,
    "urin": 7160,
    "nea": 4788,
    "inea": 3751,
    "nea ": 4789,
    "ig ": 3635,
    "pig ": 5661,
    "่พ": 10297,
    " กิ": 774,
    "กิน": 7639,
    "ินน": 9673,
    "นนี": 8318,
    "นี่": 8374,
    "ี่พ": 9779,
    "่พิ": 10298,
    "พิก": 8553,
    "ิก ": 9636,
    " กิน": 775,
    "กินน": 7640,
    "ินนี": 9674,
    "นนี่": 8319,
    "นี่พ": 8375,
    "ี่พิ": 9780,
    "่พิก": 10299,
    "พิก ": 8554,
    "cav": 1911,
    "avi": 1646,
    "via": 7266,
    " cav": 112,
    "cavi": 1913,
    "avia": 1647,
    "via ": 7267,
    "por": 5708,
    "orc": 5364,
    "rce": 5920,
    "cel": 1930,
    "llu": 4305,
    " por": 544,
    "porc": 5709,
    "orce": 5365,
    "rcel": 5921,
    "cell": 1931,
    "ellu": 2638,
    "llus": 4307,
    "ntl": 5001,
    " gen": 273,
    "entl": 2731,
    "ntle": 5002,
    "fl": 3035,
    "yi": 7461,
    " fl": 250,
    "fly": 3040,
    "lyi": 4430,
    "yin": 7463,
    " fly": 253,
    "flyi": 3041,
    "lyin": 4431,
    "ying": 7464,
    "sq": 6534,
    " sq": 659,
    "squ": 6535,
    "qui": 5806,
    "uir": 7068,
    "irr": 3859,
    "el ": 2608,
    " squ": 660,
    "squi": 6536,
    "quir": 5808,
    "uirr": 7069,
    "irre": 3860,
    "rel ": 5973,
    "ะร": 9382,
    "กบ": 7590,
    "กระ": 7599,
    "ระร": 8832,
    "ะรอ": 9383,
    "รอก": 8823,
    "อกบ": 9228,
    "กบิ": 7591,
    "บิน": 8468,
    "ิน ": 9665,
    " กระ": 770,
    "กระร": 7600,
    "ระรอ": 8833,
    "ะรอก": 9384,
    "รอกบ": 8824,
    "อกบิ": 9229,
    "กบิน": 7592,
    "บิน ": 8469,
    " pt": 556,
    "pte": 5764,
    "myi": 4663,
    "ini": 3767,
    " pte": 557,
    "pter": 5766,
    "erom": 2827,
    "romy": 6175,
    "omyi": 5240,
    "myin": 4664,
    "yini": 7465,
    "ini ": 3768,
    "p.": 5543,
    ". ": 1046,
    "spp": 6530,
    "pp.": 5722,
    "p. ": 5544,
    " spp": 657,
    "spp.": 6531,
    "pp. ": 5723,
    "ner": 4812,
    "erv": 2853,
    "rvo": 6299,
    "vou": 7294,
    " ner": 468,
    "nerv": 4815,
    "ervo": 2855,
    "rvou": 6300,
    "vous": 7295,
    "n_": 4683,
    "_u": 1092,
    "_m": 1075,
    "_r": 1084,
    " ta": 676,
    "tax": 6677,
    "xon": 7387,
    "on_": 5248,
    "n_u": 4684,
    "_un": 1093,
    "unc": 7115,
    "ncl": 4740,
    "ar_": 1469,
    "r_m": 5826,
    "_ma": 1076,
    "nua": 5014,
    "ual": 6974,
    "al_": 1276,
    "l_r": 4069,
    "_re": 1085,
    "rev": 5996,
    "iew": 3619,
    "ew ": 2947,
    " tax": 682,
    "taxo": 6678,
    "axon": 1665,
    "xon_": 7388,
    "on_u": 5249,
    "n_un": 4685,
    "_unc": 1094,
    "uncl": 7116,
    "ncle": 4741,
    "clea": 2050,
    "lear": 4167,
    "ear_": 2457,
    "ar_m": 1470,
    "r_ma": 5827,
    "_man": 1077,
    "manu": 4469,
    "anua": 1432,
    "nual": 5015,
    "ual_": 6975,
    "al_r": 1277,
    "l_re": 4070,
    "_rev": 1086,
    "revi": 5997,
    "evie": 2942,
    "view": 7278,
    "iew ": 3620,
    " fer": 242,
    "ferr": 3005,
    "rret": 6222,
    "ret ": 5991,
    "รท": 8796,
    "ท ": 8186,
    " เฟ": 914,
    "ฟอเ": 8600,
    "อเร": 9351,
    "เรท": 10022,
    "รท ": 8797,
    " เฟอ": 916,
    "เฟอเ": 10003,
    "ฟอเร": 8601,
    "อเรท": 9352,
    "เรท ": 10023,
    "mus": 4652,
    "ust": 7203,
    " mus": 454,
    "must": 4656,
    "uste": 7206,
    "stel": 6559,
    "tela": 6703,
    "ela ": 2610,
    " pu": 558,
    "put": 5786,
    "uto": 7213,
    " put": 563,
    "puto": 5787,
    "utor": 7215,
    "ro ": 6144,
    "furo": 3075,
    "uro ": 7172,
    "exo": 2956,
    "xot": 7389,
    "oti": 5455,
    " exo": 230,
    "exot": 2957,
    "xoti": 7391,
    "otic": 5457,
    "pl": 5683,
    "yf": 7449,
    " pl": 534,
    "pla": 5684,
    "ayf": 1672,
    "yfu": 7452,
    " pla": 535,
    "play": 5686,
    "layf": 4125,
    "ayfu": 1674,
    "yful": 7453,
    "eh": 2587,
    "hed": 3313,
    "edg": 2530,
    "geh": 3124,
    "eho": 2590,
    " hed": 314,
    "hedg": 3315,
    "edge": 2531,
    "dgeh": 2286,
    "geho": 3125,
    "ehog": 2591,
    "hog ": 3412,
    "ฮด": 9360,
    "ดจ": 8037,
    "จ์": 7937,
    "์ฮ": 10465,
    "เฮด": 10060,
    "ฮดจ": 9361,
    "ดจ์": 8038,
    "จ์ฮ": 7938,
    "์ฮอ": 10466,
    " เฮด": 929,
    "เฮดจ": 10061,
    "ฮดจ์": 9362,
    "ดจ์ฮ": 8039,
    "จ์ฮอ": 7939,
    "์ฮอก": 10467,
    "ฮอก ": 9371,
    "ix": 3948,
    " at": 50,
    "rix": 6095,
    "ix ": 3949,
    " ate": 51,
    "atel": 1581,
    "tele": 6704,
    "eler": 2621,
    "leri": 4195,
    "erix": 2812,
    "rix ": 6096,
    "lb": 4127,
    "alb": 1288,
    "lbi": 4130,
    "ven": 7250,
    " alb": 18,
    "albi": 1290,
    "lbiv": 4132,
    "bive": 1760,
    "iven": 3937,
    "vent": 7253,
    "ntri": 5009,
    "tris": 6903,
    "ug": 7049,
    "sug": 6593,
    "uga": 7050,
    "ar ": 1468,
    " sug": 668,
    "suga": 6594,
    "ugar": 7051,
    "gar ": 3104,
    "gl": 3177,
    " gl": 283,
    "gli": 3180,
    " gli": 285,
    "glid": 3181,
    "ชู": 7963,
    "ไก": 10212,
    "กล": 7603,
    " ชู": 807,
    "ชูก": 7964,
    "ูกา": 9825,
    "ร์ไ": 8937,
    "์ไก": 10516,
    "ไกล": 10213,
    "กลเ": 7606,
    "ลเด": 9033,
    " ชูก": 808,
    "ชูกา": 7965,
    "ูการ": 9826,
    "าร์ไ": 9569,
    "ร์ไก": 8938,
    "์ไกล": 10517,
    "ไกลเ": 10214,
    "กลเด": 7607,
    "ลเดอ": 9034,
    "eta": 2891,
    "tau": 6675,
    " pet": 521,
    "peta": 5609,
    "etau": 2894,
    "taur": 6676,
    "auru": 1635,
    "bre": 1814,
    " bre": 89,
    "brev": 1817,
    "evic": 2941,
    "vice": 7269,
    "rk": 6097,
    "mee": 4520,
    "eer": 2558,
    "erk": 2813,
    "rka": 6099,
    "kat": 3987,
    " mee": 429,
    "meer": 4521,
    "eerk": 2559,
    "erka": 2814,
    "rkat": 6100,
    "kat ": 3988,
    "มี": 8689,
    "คต": 7718,
    "ต ": 8108,
    " เม": 917,
    "เมี": 10009,
    "มีย": 8692,
    "์แค": 10494,
    "แคต": 10070,
    "คต ": 7719,
    " เมี": 918,
    "เมีย": 10010,
    "มียร": 8693,
    "ยร์แ": 8746,
    "ร์แค": 8932,
    "์แคต": 10495,
    "แคต ": 10071,
    "sur": 6607,
    " sur": 671,
    "suri": 6608,
    "catt": 1907,
    "atta": 1612,
    "tta ": 6923,
    "xp": 7392,
    "exp": 2958,
    "xpe": 7393,
    " exp": 231,
    "expe": 2959,
    "xper": 7394,
    "pert": 5603,
    "enn": 2713,
    "nne": 4916,
    "nec": 4791,
    "ec ": 2485,
    " fen": 241,
    "fenn": 3000,
    "enne": 2714,
    "nnec": 4917,
    "nec ": 4792,
    " fo": 254,
    "fox": 3053,
    "ox ": 5529,
    " fox": 258,
    "fox ": 3054,
    "กฟ": 7593,
    "ฟ็": 8623,
    "เฟน": 9999,
    "ฟนเ": 8575,
    "นเน": 8391,
    "นกฟ": 8275,
    "กฟ็": 7594,
    "ฟ็อ": 8624,
    "อกซ": 9226,
    " เฟน": 915,
    "เฟนเ": 10000,
    "ฟนเน": 8576,
    "นเนก": 8392,
    "เนกฟ": 9977,
    "นกฟ็": 8276,
    "กฟ็อ": 7595,
    "ฟ็อก": 8625,
    "็อกซ": 10284,
    "อกซ์": 9227,
    "vu": 7299,
    " vu": 741,
    "vul": 7300,
    "pes": 5604,
    " vul": 742,
    "vulp": 7302,
    "ulpe": 7090,
    "lpes": 4372,
    "pes ": 5605,
    " z": 764,
    "ze": 7560,
    " ze": 765,
    "zer": 7565,
    "erd": 2793,
    "da ": 2216,
    " zer": 767,
    "zerd": 7566,
    "erda": 2794,
    "rda ": 5932,
    "cc": 1916,
    "acc": 1117,
    "cco": 1921,
    "coo": 2094,
    "oon": 5308,
    " rac": 574,
    "racc": 5834,
    "acco": 1119,
    "ccoo": 1922,
    "coon": 2095,
    "oon ": 5309,
    "แร": 10121,
    "รค": 8780,
    "คค": 7713,
    "คู": 7813,
    "ูน": 9848,
    " แร": 940,
    "แรค": 10122,
    "รคค": 8781,
    "คคู": 7716,
    "คูน": 7814,
    "ูน ": 9849,
    " แรค": 941,
    "แรคค": 10123,
    "รคคู": 8782,
    "คคูน": 7717,
    "คูน ": 7815,
    "ocy": 5098,
    "cyo": 2183,
    "yon": 7498,
    "proc": 5745,
    "rocy": 6156,
    "ocyo": 5099,
    "cyon": 2184,
    "yon ": 7499,
    "oto": 5462,
    " lot": 405,
    "loto": 4359,
    "otor": 5465,
    "mis": 4566,
    "sch": 6369,
    "hie": 3358,
    "iev": 3617,
    "evo": 2944,
    " mis": 442,
    "misc": 4568,
    "isch": 3868,
    "schi": 6370,
    "chie": 1965,
    "hiev": 3359,
    "ievo": 3618,
    "evou": 2945,
    "ipe": 3826,
    "ped": 5587,
    "trip": 6902,
    "ripe": 6075,
    "iped": 3827,
    "ped ": 5588,
    "ku": 4050,
    "sku": 6482,
    "kun": 4053,
    "unk": 7127,
    " sku": 640,
    "skun": 6483,
    "kunk": 4054,
    "unk ": 7128,
    " ส": 884,
    "งก": 7831,
    "ก์": 7690,
    " สก": 885,
    "สกั": 9130,
    "กัง": 7622,
    "ังก": 9392,
    "งก์": 7832,
    "ก์ ": 7691,
    " สกั": 886,
    "สกัง": 9131,
    "กังก": 7623,
    "ังก์": 9393,
    "งก์ ": 7833,
    "mep": 4529,
    " mep": 432,
    "meph": 4530,
    "ephi": 2760,
    "phit": 5630,
    "hiti": 3386,
    "itis": 3908,
    "y-": 7399,
    "-r": 1024,
    "spr": 6532,
    "ray": 5900,
    "ay-": 1668,
    "y-r": 7400,
    "-ri": 1025,
    "isk": 3875,
    "sk ": 6476,
    " spr": 658,
    "spra": 6533,
    "pray": 5736,
    "ray-": 5902,
    "ay-r": 1669,
    "y-ri": 7401,
    "-ris": 1026,
    "risk": 6081,
    "isk ": 3876,
    " wa": 744,
    "wal": 7316,
    "lab": 4073,
    "aby": 1107,
    "by ": 1847,
    " wal": 745,
    "wall": 7317,
    "alla": 1311,
    "llab": 4284,
    "laby": 4076,
    "aby ": 1108,
    "วอ": 9096,
    " วอ": 880,
    "วอล": 9099,
    "อลล": 9301,
    "ลลา": 8969,
    "ลาบ": 8988,
    "าบี": 9521,
    "บี ": 8477,
    " วอล": 881,
    "วอลล": 9100,
    "อลลา": 9302,
    "ลลาบ": 8970,
    "ลาบี": 8990,
    "าบี ": 9522,
    "crop": 2126,
    "ropu": 6186,
    "uf": 7038,
    "ruf": 6276,
    "ufo": 7047,
    "fog": 3043,
    "ogr": 5155,
    "seu": 6416,
    "eus": 2934,
    " ruf": 605,
    "rufo": 6280,
    "ufog": 7048,
    "fogr": 3044,
    "ogri": 5157,
    "gris": 3236,
    "rise": 6080,
    "iseu": 3872,
    "seus": 6418,
    "eus ": 2935,
    "omm": 5229,
    "mmo": 4581,
    " com": 139,
    "comm": 2087,
    "ommo": 5230,
    "mmon": 4582,
    "mon ": 4598,
    "mar": 4473,
    "arm": 1519,
    "mos": 4609,
    "set": 6414,
    " mar": 421,
    "marm": 4477,
    "armo": 1521,
    "rmos": 6127,
    "mose": 4610,
    "oset": 5423,
    "set ": 6415,
    "โม": 10195,
    "เส": 10042,
    "สท": 9152,
    "มาร": 8679,
    "ร์โ": 8934,
    "์โม": 10511,
    "โมเ": 10196,
    "มเส": 8703,
    "เสท": 10043,
    "สท ": 9153,
    " มาร": 868,
    "มาร์": 8680,
    "าร์โ": 9568,
    "ร์โม": 8935,
    "์โมเ": 10512,
    "โมเส": 10197,
    "มเสท": 8704,
    "เสท ": 10044,
    "thr": 6756,
    "llit": 4300,
    "lith": 4268,
    "ithr": 3905,
    "thri": 6758,
    "hrix": 3446,
    "cch": 1919,
    "jacc": 3955,
    "acch": 1118,
    "cchu": 1920,
    "cap": 1886,
    "apu": 1462,
    "puc": 5774,
    " cap": 107,
    "capu": 1890,
    "apuc": 1463,
    "puch": 5775,
    "uchi": 7003,
    "hin ": 3369,
    "onk": 5279,
    "nke": 4905,
    "key": 4005,
    "ey ": 2961,
    "monk": 4603,
    "onke": 5280,
    "nkey": 4906,
    "key ": 4006,
    "าป": 9523,
    "ปู": 8513,
    "ูช": 9834,
    " คา": 779,
    "คาป": 7794,
    "าปู": 9524,
    "ปูช": 8514,
    "ูชิ": 9835,
    " คาป": 781,
    "คาปู": 7795,
    "าปูช": 9525,
    "ปูชิ": 8515,
    "ูชิน": 9836,
    "ชิน ": 7952,
    "ceb": 1926,
    "ebu": 2482,
    "bus": 1841,
    " ceb": 114,
    "cebu": 1927,
    "ebus": 2483,
    "bus ": 1842,
    "uci": 7005,
    "puci": 5776,
    "ucin": 7007,
    "cinu": 2015,
    "civ": 2027,
    "vet": 7263,
    " civ": 128,
    "cive": 2028,
    "ivet": 3938,
    "vet ": 7264,
    "ชะ": 7947,
    "ะม": 9379,
    "มด": 8636,
    " ชะ": 803,
    "ชะม": 7948,
    "ะมด": 9380,
    "มด ": 8637,
    " ชะม": 804,
    "ชะมด": 7949,
    "ะมด ": 9381,
    "xu": 7395,
    "ado": 1173,
    "dox": 2370,
    "oxu": 5537,
    "xur": 7396,
    "para": 5567,
    "arad": 1474,
    "rado": 5843,
    "adox": 1174,
    "doxu": 2371,
    "oxur": 5538,
    "xuru": 7397,
    "map": 4470,
    "hro": 3447,
    "dit": 2320,
    "rmap": 6119,
    "maph": 4472,
    "aphr": 1449,
    "phro": 5639,
    "hrod": 3449,
    "rodi": 6159,
    "odit": 5115,
    "ditu": 2322,
    "itus": 3922,
    "ind": 3744,
    "dep": 2273,
    "epe": 2756,
    "pen": 5595,
    " ind": 348,
    "inde": 3745,
    "ndep": 4764,
    "depe": 2274,
    "epen": 2757,
    "pend": 5596,
    "ende": 2696,
    "nden": 4763,
    "aj": 1257,
    "jo": 3974,
    "nka": 4903,
    "kaj": 3985,
    "ajo": 1258,
    "jou": 3977,
    "ou ": 5479,
    "inka": 3773,
    "nkaj": 4904,
    "kajo": 3986,
    "ajou": 1260,
    "jou ": 3978,
    "จู": 7930,
    "คิน": 7806,
    "ินค": 9666,
    "คาจ": 7786,
    "าจู": 9486,
    "จู ": 7931,
    " คิน": 783,
    "คินค": 7807,
    "ินคา": 9667,
    "นคาจ": 8287,
    "คาจู": 7787,
    "าจู ": 9487,
    "pot": 5714,
    "tos": 6875,
    " pot": 545,
    "poto": 5716,
    "otos": 5466,
    "tos ": 6876,
    "fla": 3036,
    "lav": 4118,
    "avu": 1649,
    "vus": 7303,
    " fla": 251,
    "flav": 3037,
    "lavu": 4119,
    "avus": 1650,
    "vus ": 7304,
    "coc": 2070,
    "cka": 2033,
    "tie": 6777,
    " coc": 136,
    "cock": 2073,
    "ocka": 5090,
    "ckat": 2034,
    "kati": 3989,
    "atie": 1592,
    "tiel": 6778,
    "iel ": 3601,
    "ค็": 7822,
    "กค": 7580,
    " ค็": 785,
    "ค็อ": 7823,
    "อกค": 9224,
    "กคา": 7581,
    "าเท": 9602,
    "ทล ": 8212,
    " ค็อ": 786,
    "ค็อก": 7824,
    "็อกค": 10283,
    "อกคา": 9225,
    "กคาเ": 7583,
    "คาเท": 7799,
    "าเทล": 9603,
    "เทล ": 9968,
    "ym": 7482,
    " ny": 481,
    "nym": 5035,
    "ymp": 7485,
    "hic": 3355,
    " nym": 482,
    "nymp": 5036,
    "ymph": 7486,
    "phic": 5626,
    "hicu": 3357,
    "hol": 3415,
    "oll": 5196,
    " hol": 326,
    "holl": 3416,
    "olla": 5197,
    "llan": 4285,
    "land": 4093,
    "ndic": 4769,
    "dicu": 2298,
    "bir": 1755,
    "ird": 3845,
    " bir": 73,
    "bird": 1756,
    "ird ": 3846,
    "arr": 1529,
    "ot ": 5442,
    "parr": 5569,
    "arro": 1530,
    "rrot": 6232,
    "rot ": 6197,
    "rey": 5998,
    "grey": 3233,
    "rey ": 5999,
    "รย": 8806,
    "ันเ": 9421,
    "นเก": 8384,
    "เกร": 9906,
    "กรย": 7597,
    "รย์": 8807,
    "กันเ": 7628,
    "ันเก": 9422,
    "นเกร": 8385,
    "เกรย": 9907,
    "กรย์": 7598,
    "รย์ ": 8808,
    " ps": 553,
    "psi": 5757,
    " psi": 555,
    "psit": 5759,
    "sitt": 6472,
    "ttac": 6924,
    "tacu": 6639,
    "acus": 1158,
    "tha": 6741,
    " eri": 220,
    "erit": 2811,
    "rith": 6085,
    "itha": 3903,
    "thac": 6742,
    "hacu": 3272,
    "-g": 1012,
    "e-a": 2419,
    "d-g": 2204,
    "-go": 1013,
    "old": 5183,
    "ld ": 4144,
    "ue-a": 7028,
    "e-an": 2420,
    "nd-g": 4754,
    "d-go": 2205,
    "-gol": 1014,
    "gold": 3202,
    "old ": 5184,
    "aw": 1653,
    "caw": 1914,
    "aw ": 1654,
    "maca": 4445,
    "acaw": 1116,
    "caw ": 1915,
    "์ม": 10451,
    "อว": 9305,
    "ลูแ": 9026,
    "ูแอ": 9891,
    "แอน": 10137,
    "อนด": 9250,
    "นด์": 8302,
    "ด์โ": 8106,
    "์โก": 10504,
    "โกล": 10145,
    "กลด": 7604,
    "ด์ม": 8104,
    "์มา": 10452,
    "มาค": 8674,
    "คอว": 7778,
    "อว์": 9306,
    "ว์ ": 9121,
    "บลูแ": 8447,
    "ลูแอ": 9027,
    "ูแอน": 9892,
    "แอนด": 10138,
    "อนด์": 9251,
    "นด์โ": 8303,
    "ด์โก": 8107,
    "์โกล": 10505,
    "โกลด": 10146,
    "กลด์": 7605,
    "ลด์ม": 8952,
    "ด์มา": 8105,
    "์มาค": 10453,
    "มาคอ": 8675,
    "าคอว": 9478,
    "คอว์": 7779,
    "อว์ ": 9307,
    " ara": 39,
    "ara ": 1472,
    "rar": 5880,
    "rau": 5892,
    "aun": 1629,
    "una": 7111,
    "arar": 1479,
    "rara": 5881,
    "arau": 1481,
    "raun": 5893,
    "auna": 1630,
    "una ": 7112,
    "rl": 6105,
    "sca": 6364,
    "arl": 1516,
    "rle": 6106,
    "let": 4201,
    " sca": 616,
    "scar": 6366,
    "carl": 1897,
    "arle": 1517,
    "rlet": 6108,
    "let ": 4202,
    "ล็": 9047,
    "ตม": 8118,
    "สกา": 9132,
    "์เล": 10489,
    "เล็": 10037,
    "ล็ต": 9050,
    "็ตม": 10273,
    "ตมา": 8119,
    " สกา": 887,
    "สการ": 9133,
    "ร์เล": 8929,
    "์เล็": 10490,
    "เล็ต": 10038,
    "ล็ตม": 9051,
    "็ตมา": 10274,
    "ตมาค": 8120,
    "ao": 1436,
    "cao": 1884,
    "ao ": 1437,
    "acao": 1113,
    "cao ": 1885,
    "lou": 4360,
    "oud": 5483,
    "ud ": 7013,
    " lou": 406,
    "loud": 4361,
    "oud ": 5484,
    " hy": 333,
    "hya": 3476,
    "yac": 7411,
    "aci": 1130,
    "th ": 6740,
    " hya": 334,
    "hyac": 3477,
    "yaci": 7412,
    "acin": 1132,
    "cint": 2014,
    "inth": 3788,
    "nth ": 4991,
    "ไฮ": 10247,
    "ฮย": 9366,
    "าซ": 9488,
    "ซิ": 7990,
    "นธ": 8314,
    "ธ์": 8269,
    " ไฮ": 970,
    "ไฮย": 10248,
    "ฮยา": 9367,
    "ยาซ": 8758,
    "าซิ": 9489,
    "ซิน": 7993,
    "ินธ": 9671,
    "นธ์": 8315,
    "ธ์ม": 8270,
    " ไฮย": 971,
    "ไฮยา": 10249,
    "ฮยาซ": 9368,
    "ยาซิ": 8759,
    "าซิน": 9490,
    "ซินธ": 7994,
    "ินธ์": 9672,
    "นธ์ม": 8316,
    "ธ์มา": 8271,
    "ano": 1414,
    "nod": 4933,
    "orh": 5371,
    "rhy": 6024,
    "hyn": 3488,
    "ync": 7490,
    " ano": 32,
    "anod": 1416,
    "nodo": 4935,
    "odor": 5119,
    "dorh": 2359,
    "orhy": 5372,
    "rhyn": 6025,
    "hync": 3489,
    "ynch": 7491,
    "nchu": 4734,
    "thi": 6750,
    "nthi": 4993,
    "thin": 6751,
    "hinu": 3374,
    " hu": 330,
    "hug": 3463,
    "uge": 7052,
    "ge ": 3119,
    " hug": 332,
    "huge": 3464,
    "uge ": 7053,
    "un ": 7110,
    "sun ": 6602,
    "onu": 5292,
    "ure": 7153,
    "conu": 2091,
    "onur": 5294,
    "nure": 5022,
    "ure ": 7154,
    "นั": 8358,
    "วร": 9090,
    " ซั": 810,
    "นคอ": 8284,
    "อนั": 9258,
    "นัว": 8359,
    "ัวร": 9447,
    "วร์": 9091,
    " ซัน": 811,
    "ซันค": 7981,
    "ันคอ": 9407,
    "นคอน": 8285,
    "คอนั": 7775,
    "อนัว": 9259,
    "นัวร": 8360,
    "ัวร์": 9448,
    "วร์ ": 9092,
    "nga": 4836,
    "ga ": 3089,
    "arat": 1480,
    "rati": 5888,
    "atin": 1594,
    "ting": 6794,
    "inga": 3761,
    "nga ": 4837,
    "ols": 5204,
    "lst": 4383,
    "tit": 6804,
    "tia": 6769,
    "sols": 6506,
    "olst": 5205,
    "lsti": 4384,
    "stit": 6568,
    "titi": 6805,
    "itia": 3907,
    "tial": 6771,
    "iali": 3518,
    "ver": 7254,
    " ver": 733,
    "very": 7259,
    "ery ": 2857,
    "n-": 4676,
    "-c": 990,
    "en-": 2686,
    "n-c": 4677,
    "-ch": 993,
    "hee": 3316,
    "eek": 2551,
    "ek ": 2602,
    "een-": 2557,
    "en-c": 2687,
    "n-ch": 4678,
    "-che": 994,
    "chee": 1958,
    "heek": 3317,
    "eek ": 2552,
    "ชี": 7957,
    "ีค": 9725,
    "ีนช": 9737,
    "นชี": 8292,
    "ชีค": 7958,
    "ีคค": 9726,
    "คคอ": 7714,
    "รีนช": 8861,
    "ีนชี": 9738,
    "นชีค": 8293,
    "ชีคค": 7959,
    "ีคคอ": 9727,
    "คคอน": 7715,
    "pyr": 5792,
    "yrr": 7526,
    "rrh": 6223,
    "rhu": 6022,
    " pyr": 566,
    "pyrr": 5793,
    "yrrh": 7527,
    "rrhu": 6225,
    "rhur": 6023,
    "hura": 3467,
    "mol": 4594,
    "lin": 4252,
    "nae": 4690,
    " mol": 446,
    "moli": 4595,
    "olin": 5193,
    "lina": 4253,
    "inae": 3732,
    "nae ": 4691,
    "lov": 4362,
    "ove": 5506,
    "veb": 7244,
    "ebi": 2477,
    " lov": 407,
    "love": 4363,
    "oveb": 5508,
    "vebi": 7245,
    "ebir": 2478,
    "ฟเ": 8615,
    "เลิ": 10033,
    "ิฟเ": 9685,
    "ฟเบ": 8616,
    "เบิ": 9989,
    "บิร": 8470,
    "์ด ": 10420,
    " เลิ": 923,
    "เลิฟ": 10034,
    "ลิฟเ": 9009,
    "ิฟเบ": 9686,
    "ฟเบิ": 8617,
    "เบิร": 9990,
    "บิร์": 8471,
    "ร์ด ": 8900,
    "gap": 3101,
    "apo": 1454,
    "agap": 1208,
    "gapo": 3102,
    "apor": 1455,
    "porn": 5710,
    "rnis": 6139,
    "sei": 6396,
    "eic": 2593,
    "rose": 6193,
    "osei": 5420,
    "seic": 6397,
    "eico": 2595,
    "coll": 2082,
    "olli": 5198,
    "llis": 4299,
    "rig": 6052,
    "dger": 2287,
    "geri": 3144,
    "erig": 2807,
    "riga": 6053,
    "igar": 3640,
    "หง": 9189,
    "์ห": 10457,
    "หย": 9202,
    "ยก": 8725,
    " หง": 889,
    "หงส": 9190,
    "งส์": 7862,
    "ส์ห": 9185,
    "์หย": 10458,
    "หยก": 9203,
    "ยก ": 8726,
    " หงส": 890,
    "หงส์": 9191,
    "งส์ห": 7863,
    "ส์หย": 9186,
    "์หยก": 10459,
    "หยก ": 9204,
    " mel": 430,
    "melo": 4525,
    "lops": 4347,
    "opsi": 5342,
    "du": 2396,
    "und": 7117,
    "ndu": 4781,
    "dul": 2399,
    " und": 721,
    "undu": 7119,
    "ndul": 4783,
    "dula": 2400,
    " ec": 200,
    "ecl": 2498,
    "lec": 4170,
    " ecl": 202,
    "ecle": 2499,
    "clec": 2051,
    "lect": 4172,
    "ectu": 2513,
    "เอ": 10048,
    "คเ": 7816,
    "ตั": 8133,
    " เอ": 924,
    "เอค": 10049,
    "อคเ": 9238,
    "คเค": 7817,
    "เคล": 9925,
    "คล็": 7764,
    "ล็ค": 9048,
    "็คต": 10257,
    "คตั": 7720,
    "ตัส": 8138,
    "ัส ": 9454,
    " เอค": 925,
    "เอคเ": 10050,
    "อคเค": 9239,
    "คเคล": 7818,
    "เคล็": 9926,
    "คล็ค": 7765,
    "ล็คต": 9049,
    "็คตั": 10258,
    "คตัส": 7721,
    "ตัส ": 8139,
    "ror": 6187,
    " ror": 600,
    "rora": 6189,
    "orat": 5361,
    "e-f": 2425,
    "-fr": 1008,
    "ue-f": 7029,
    "e-fr": 2426,
    "-fro": 1009,
    "fron": 3064,
    "ront": 6180,
    "onte": 5289,
    "nted": 4986,
    "az": 1679,
    "zo": 7573,
    "maz": 4490,
    "azo": 1682,
    "zon": 7574,
    " ama": 24,
    "amaz": 1341,
    "mazo": 4491,
    "azon": 1683,
    "zon ": 7575,
    "ูฟ": 9856,
    "นต": 8304,
    "์อ": 10460,
    "อะ": 9317,
    "ะเ": 9385,
    "มซ": 8633,
    "ซอ": 7976,
    "ลูฟ": 9024,
    "ูฟร": 9857,
    "ฟรอ": 8581,
    "รอน": 8825,
    "อนต": 9252,
    "นต์": 8305,
    "ต์อ": 8184,
    "์อะ": 10461,
    "อะเ": 9318,
    "ะเม": 9386,
    "เมซ": 10005,
    "มซอ": 8634,
    "ซอน": 7977,
    "บลูฟ": 8446,
    "ลูฟร": 9025,
    "ูฟรอ": 9858,
    "ฟรอน": 8582,
    "รอนต": 8826,
    "อนต์": 9253,
    "นต์อ": 8306,
    "ต์อะ": 8185,
    "์อะเ": 10462,
    "อะเม": 9319,
    "ะเมซ": 9387,
    "เมซอ": 10006,
    "มซอน": 8635,
    "ซอน ": 7978,
    "zona": 7576,
    " ae": 9,
    "aes": 1195,
    "iva": 3933,
    "va ": 7227,
    " aes": 11,
    "aest": 1196,
    "stiv": 6569,
    "tiva": 6808,
    "iva ": 3934,
    "alk": 1307,
    "lka": 4276,
    " tal": 679,
    "talk": 6653,
    "alka": 1308,
    "lkat": 4277,
    "ativ": 1597,
    " um": 718,
    "umb": 7102,
    " umb": 719,
    "umbr": 7104,
    "mbre": 4506,
    "brel": 1816,
    "rell": 5975,
    "ella": 2635,
    "too": 6862,
    "oo ": 5302,
    "kato": 3990,
    "atoo": 1605,
    "too ": 6863,
    "ัม": 9428,
    "รล": 8811,
    "ทู": 8233,
    "อัม": 9321,
    "ัมเ": 9429,
    "มเบ": 8699,
    "เบร": 9985,
    "บรล": 8427,
    "รลล": 8812,
    "ลล่": 8975,
    "่าค": 10314,
    "าค็": 9481,
    "คาท": 7790,
    "าทู": 9503,
    "ทู ": 8234,
    " อัม": 897,
    "อัมเ": 9322,
    "ัมเบ": 9430,
    "มเบร": 8700,
    "เบรล": 9986,
    "บรลล": 8428,
    "รลล่": 8813,
    "ลล่า": 8976,
    "ล่าค": 9057,
    "่าค็": 10315,
    "าค็อ": 9482,
    "กคาท": 7582,
    "คาทู": 7791,
    "าทู ": 9504,
    "cac": 1858,
    "tua": 6937,
    " cac": 101,
    "caca": 1859,
    "acat": 1115,
    "catu": 1908,
    "atua": 1615,
    "tua ": 6938,
    "lba": 4128,
    "ba ": 1690,
    "alba": 1289,
    "lba ": 4129,
    "dem": 2264,
    "din": 2306,
    " dem": 171,
    "dema": 2265,
    "eman": 2661,
    "ndin": 4770,
    "ding": 2309,
    "r-": 5813,
    "lph": 4373,
    "ur-": 7145,
    "r-c": 5816,
    "-cr": 995,
    "sulp": 6597,
    "ulph": 7091,
    "lphu": 4375,
    "phur": 5645,
    "hur-": 3466,
    "ur-c": 7146,
    "r-cr": 5817,
    "-cre": 996,
    "ดค": 8028,
    "ซัล": 7983,
    "ัลเ": 9439,
    "ลเฟ": 9035,
    "์เค": 10472,
    "็ดค": 10264,
    "ดค็": 8031,
    " ซัล": 812,
    "ซัลเ": 7984,
    "ัลเฟ": 9440,
    "ลเฟอ": 9036,
    "ร์เค": 8921,
    "์เคร": 10473,
    "ต็ดค": 8167,
    "็ดค็": 10265,
    "ดค็อ": 8032,
    " gal": 267,
    "gale": 3093,
    "rita": 6084,
    "ita ": 3889,
    "dia": 2291,
    "indi": 3746,
    "ndia": 4768,
    "dian": 2294,
    " ri": 591,
    "ngn": 4848,
    "gne": 3193,
    " rin": 593,
    "ring": 6066,
    "ingn": 3764,
    "ngne": 4849,
    "gnec": 3194,
    "neck": 4793,
    "eck ": 2496,
    "งเ": 7903,
    "น็": 8410,
    "คพ": 7734,
    "พา": 8548,
    "คี": 7810,
    "ีท": 9731,
    " ริ": 877,
    "ริง": 8853,
    "ิงเ": 9654,
    "งเน": 7904,
    "เน็": 9982,
    "น็ค": 8411,
    "็คพ": 10259,
    "คพา": 7735,
    "พาร": 8549,
    "ารา": 9557,
    "ราค": 8842,
    "าคี": 9479,
    "คีท": 7811,
    "ีท ": 9732,
    " ริง": 878,
    "ริงเ": 8854,
    "ิงเน": 9655,
    "งเน็": 7905,
    "เน็ค": 9983,
    "น็คพ": 8412,
    "็คพา": 10260,
    "คพาร": 7736,
    "พารา": 8550,
    "าราค": 9558,
    "ราคี": 8843,
    "าคีท": 9480,
    "คีท ": 7812,
    "ula ": 7073,
    "kr": 4039,
    " kr": 373,
    "kra": 4040,
    " kra": 374,
    "kram": 4041,
    "rame": 5862,
    "amer": 1351,
    "eri ": 2804,
    "k-": 3980,
    "-h": 1015,
    "bla": 1764,
    "lac": 4077,
    "ck-": 2031,
    "k-h": 3981,
    "-he": 1016,
    "hea": 3308,
    "ead": 2443,
    " bla": 77,
    "blac": 1765,
    "lack": 4078,
    "ack-": 1136,
    "ck-h": 2032,
    "k-he": 3982,
    "-hea": 1017,
    "head": 3309,
    "eade": 2445,
    "aded": 1170,
    "aiq": 1248,
    "que": 5804,
    "ue ": 7026,
    "caiq": 1864,
    "aiqu": 1249,
    "ique": 3840,
    "que ": 5805,
    "ิค": 9645,
    "ไคอ": 10216,
    "คอิ": 7780,
    "อิค": 9339,
    "ิค ": 9646,
    " ไคอ": 962,
    "ไคอิ": 10217,
    "คอิค": 7781,
    "อิค ": 9340,
    "pio": 5672,
    " pio": 531,
    "pion": 5673,
    "ioni": 3810,
    "nite": 4892,
    "noc": 4931,
    "mela": 4523,
    "elan": 2611,
    "lano": 4095,
    "anoc": 1415,
    "noce": 4932,
    "ocep": 5076,
    "wn": 7348,
    "clo": 2057,
    "own": 5524,
    "wni": 7352,
    "ish": 3873,
    "sh ": 6427,
    " clo": 132,
    "clow": 2058,
    "lown": 4368,
    "owni": 5527,
    "wnis": 7353,
    "nish": 4890,
    "ish ": 3874,
    "ene": 2700,
    "neg": 4798,
    "sene": 6403,
    "eneg": 2702,
    "nega": 4799,
    "egal": 2578,
    "gal ": 3091,
    "ซเ": 8011,
    "อต": 9243,
    " เซ": 905,
    "เซเ": 9945,
    "ซเน": 8012,
    "นกั": 8277,
    "กัล": 7630,
    "ัลพ": 9435,
    "ลพา": 8957,
    "าร็": 9561,
    "็อต": 10286,
    "อต ": 9244,
    " เซเ": 906,
    "เซเน": 9946,
    "ซเนก": 8013,
    "เนกั": 9978,
    "นกัล": 8278,
    "กัลพ": 7632,
    "ัลพา": 9436,
    "ลพาร": 8958,
    "พาร็": 8551,
    "าร็อ": 9562,
    "ร็อต": 8882,
    "็อต ": 10287,
    "oic": 5160,
    "poic": 5702,
    "oice": 5161,
    "galu": 3094,
    "ady": 1179,
    " ste": 663,
    "stea": 6557,
    "tead": 6690,
    "eady": 2446,
    "ady ": 1180,
    " q": 569,
    " qu": 570,
    "uak": 6972,
    "ker": 4003,
    " qua": 571,
    "quak": 5802,
    "uake": 6973,
    "aker": 1267,
    "ker ": 4004,
    "คว": 7766,
    "วก": 9069,
    "์พ": 10443,
    "เคว": 9927,
    "ควก": 7767,
    "วกเ": 9070,
    "กเก": 7657,
    "ร์พ": 8912,
    "์พา": 10444,
    " เคว": 904,
    "เควก": 9928,
    "ควกเ": 7768,
    "วกเก": 9071,
    "กเกอ": 7658,
    "อร์พ": 9292,
    "ร์พา": 8913,
    "์พาร": 10445,
    " my": 455,
    "yio": 7466,
    "iop": 3812,
    " myi": 456,
    "myio": 4665,
    "yiop": 7467,
    "iops": 3815,
    "nac": 4688,
    "mona": 4599,
    "onac": 5252,
    "nach": 4689,
    "zeb": 7561,
    " zeb": 766,
    "zebr": 7562,
    "ebra": 2480,
    "fin": 3024,
    "ch ": 1951,
    " fin": 247,
    "finc": 3027,
    "nch ": 4731,
    "ีบ": 9745,
    "ร้": 8886,
    "าฟ": 9531,
    "ฟิ": 8605,
    "ช์": 7966,
    " ซี": 817,
    "ซีบ": 8000,
    "ีบร": 9746,
    "บร้": 8434,
    "ร้า": 8887,
    "้าฟ": 10385,
    "าฟิ": 9532,
    "ฟิน": 8610,
    "นช์": 8294,
    "ช์ ": 7967,
    " ซีบ": 818,
    "ซีบร": 8001,
    "ีบร้": 9747,
    "บร้า": 8435,
    "ร้าฟ": 8888,
    "้าฟิ": 10386,
    "าฟิน": 9533,
    "ฟินช": 8611,
    "ินช์": 9670,
    "นช์ ": 8295,
    "tae": 6640,
    "aen": 1189,
    "nio": 4885,
    "ygi": 7455,
    " tae": 677,
    "taen": 6641,
    "aeni": 1190,
    "enio": 2711,
    "niop": 4887,
    "iopy": 3817,
    "opyg": 5349,
    "pygi": 5790,
    "ygia": 7456,
    "gia ": 3163,
    "tata": 6672,
    "jav": 3966,
    " jav": 359,
    "java": 3967,
    "ava ": 1642,
    "spa": 6519,
    " spa": 654,
    "spar": 6521,
    "row ": 6207,
    "ชว": 7941,
    "วา": 9104,
    "แป": 10100,
    "ปร": 8498,
    "รว": 8814,
    " ชว": 801,
    "ชวา": 7942,
    "วาส": 9107,
    "สแป": 9178,
    "แปร": 10101,
    "ปร์": 8499,
    "์โร": 10513,
    "โรว": 10205,
    "รว์": 8817,
    " ชวา": 802,
    "ชวาส": 7943,
    "วาสแ": 9108,
    "าสแป": 9590,
    "สแปร": 9179,
    "แปร์": 10102,
    "ปร์โ": 8500,
    "ร์โร": 8936,
    "์โรว": 10514,
    "โรว์": 10207,
    "รว์ ": 8818,
    "pad": 5550,
    "add": 1165,
    "dda": 2244,
    " pad": 512,
    "padd": 5551,
    "adda": 1166,
    "dda ": 2245,
    "yz": 7554,
    "zi": 7567,
    "ory": 5405,
    "ryz": 6321,
    "yzi": 7555,
    "ziv": 7571,
    " ory": 503,
    "oryz": 5407,
    "ryzi": 6322,
    "yziv": 7556,
    "zivo": 7572,
    "vora": 7292,
    "cana": 1880,
    "anar": 1377,
    "nary": 4710,
    "นา": 8361,
    "่ ": 10288,
    "คาน": 7792,
    "านา": 9508,
    "นาร": 8362,
    "ารี": 9559,
    "ี่ ": 9774,
    " คาน": 780,
    "คานา": 7793,
    "านาร": 9509,
    "นารี": 8363,
    "ารี่": 9560,
    "รี่ ": 8871,
    "ser": 6407,
    " ser": 626,
    "seri": 6409,
    "erin": 2809,
    "aria": 1505,
    "gb": 3112,
    "ngb": 4839,
    "gbi": 3113,
    " son": 651,
    "song": 6512,
    "ongb": 5268,
    "ngbi": 4840,
    "gbir": 3114,
    "co ": 2065,
    " toc": 703,
    "toco": 6837,
    "oco ": 5092,
    "tou": 6881,
    "ouc": 5480,
    "uca": 6997,
    " tou": 707,
    "touc": 6882,
    "ouca": 5481,
    "ucan": 6998,
    "ทโ": 8249,
    "คท": 7722,
    "โทโ": 10178,
    "ทโค": 8250,
    "โคท": 10151,
    "คทู": 7725,
    "ทูแ": 8237,
    "ูแค": 9885,
    "แคน": 10074,
    "คน ": 7728,
    " โทโ": 953,
    "โทโค": 10179,
    "ทโคท": 8251,
    "โคทู": 10152,
    "คทูแ": 7726,
    "ทูแค": 8238,
    "ูแคน": 9886,
    "แคน ": 10075,
    "has": 3301,
    " ram": 576,
    "ramp": 5864,
    "mpha": 4627,
    "phas": 5618,
    "hast": 3302,
    "asto": 1561,
    "stos": 6575,
    " hil": 322,
    "ill ": 3690,
    "myn": 4668,
    "yna": 7488,
    " myn": 458,
    "myna": 4669,
    "yna ": 7489,
    "อี": 9341,
    "้ย": 10371,
    "ยง": 8727,
    "งค": 7836,
    "คำ": 7801,
    "ำ ": 9622,
    " นก": 835,
    "นกเ": 8279,
    "กเอ": 7663,
    "เอี": 10053,
    "อี้": 9344,
    "ี้ย": 9786,
    "้ยง": 10372,
    "ยงค": 8728,
    "งคำ": 7839,
    "คำ ": 7802,
    " นกเ": 836,
    "นกเอ": 8280,
    "กเอี": 7664,
    "เอี้": 10054,
    "อี้ย": 9345,
    "ี้ยง": 9787,
    "้ยงค": 10373,
    "ยงคำ": 8729,
    "งคำ ": 7840,
    "grac": 3224,
    "racu": 5839,
    "igi": 3647,
    "gio": 3171,
    "ios": 3818,
    "osa": 5410,
    "sa ": 6339,
    " rel": 584,
    "elig": 2631,
    "ligi": 4247,
    "igio": 3648,
    "gios": 3172,
    "iosa": 3820,
    "osa ": 5411,
    "sta": 6551,
    "rli": 6110,
    " sta": 662,
    "star": 6555,
    "tarl": 6669,
    "arli": 1518,
    "rlin": 6111,
    "ling": 4255,
    " vo": 738,
    "voc": 7287,
    "oca": 5070,
    " voc": 739,
    "voca": 7288,
    "ocal": 5071,
    "cal ": 1868,
    " as": 45,
    " asi": 46,
    "asia": 1547,
    "aro": 1524,
    "owa": 5518,
    "wan": 7319,
    " aro": 44,
    "arow": 1525,
    "rowa": 6208,
    "owan": 5519,
    "wana": 7320,
    "เช": 9937,
    "อโ": 9354,
    "เอเ": 10055,
    "อเช": 9347,
    "เชี": 9940,
    "ชีย": 7960,
    "ยนอ": 8741,
    "นอโ": 8356,
    "อโร": 9355,
    "รวา": 8815,
    "วาน": 9105,
    "าน่": 9512,
    " เอเ": 926,
    "เอเช": 10056,
    "อเชี": 9348,
    "เชีย": 9941,
    "ชียน": 7961,
    "ียนอ": 9758,
    "ยนอโ": 8742,
    "นอโร": 8357,
    "อโรว": 9356,
    "โรวา": 10206,
    "รวาน": 8816,
    "วาน่": 9106,
    "าน่า": 9513,
    "scl": 6376,
    "pag": 5552,
    "age": 1211,
    "ges": 3147,
    " scl": 619,
    "scle": 6377,
    "cler": 2054,
    "lero": 4196,
    "ropa": 6182,
    "opag": 5318,
    "page": 5553,
    "ages": 1212,
    "ges ": 3148,
    " for": 256,
    "form": 3049,
    "mosu": 4613,
    " aq": 36,
    " aqu": 37,
    "fis": 3031,
    " fis": 249,
    "fish": 3032,
    "pre": 5737,
    "eda": 2524,
    "dat": 2228,
    " pre": 550,
    "pred": 5738,
    "reda": 5958,
    "edat": 2525,
    "dato": 2230,
    "tory": 6874,
    "ory ": 5406,
    "lv": 4421,
    "sil": 6456,
    "ilv": 3705,
    "lve": 4424,
    " sil": 635,
    "silv": 6459,
    "ilve": 3706,
    "lver": 4425,
    "ver ": 7255,
    "เว": 10039,
    " ซิ": 815,
    "ซิล": 7995,
    "ิลเ": 9696,
    "ลเว": 9039,
    "เวอ": 10040,
    "วอร": 9097,
    "ร์อ": 8916,
    "์อโ": 10463,
    " ซิล": 816,
    "ซิลเ": 7997,
    "ิลเว": 9697,
    "ลเวอ": 9040,
    "เวอร": 10041,
    "วอร์": 9098,
    "อร์อ": 9294,
    "ร์อโ": 8917,
    "์อโร": 10464,
    " os": 504,
    "ost": 5430,
    "teo": 6714,
    "eog": 2739,
    "ogl": 5149,
    "glo": 3182,
    "los": 4351,
    "oss": 5426,
    "ssu": 6545,
    " ost": 506,
    "oste": 5432,
    "steo": 6560,
    "teog": 6715,
    "eogl": 2740,
    "oglo": 5150,
    "glos": 3183,
    "loss": 4353,
    "ossu": 5428,
    "ssum": 6546,
    "sum ": 6599,
    "bic": 1743,
    "cir": 2019,
    "rho": 6018,
    "hos": 3427,
    " bic": 72,
    "bici": 1745,
    "icir": 3564,
    "cirr": 2020,
    "irrh": 3861,
    "rrho": 6224,
    "rhos": 6021,
    "hosu": 3430,
    "osum": 5437,
    " di": 174,
    " dis": 178,
    "ดิ": 8078,
    "ิส": 9705,
    "สค": 9138,
    "คั": 7782,
    " ดิ": 826,
    "ดิส": 8079,
    "ิสค": 9706,
    "สคั": 9139,
    "คัส": 7783,
    " ดิส": 827,
    "ดิสค": 8080,
    "ิสคั": 9707,
    "สคัส": 9140,
    "คัส ": 7784,
    "sym": 6613,
    "phy": 5647,
    "hys": 3496,
    "yso": 7534,
    "sod": 6500,
    " sym": 673,
    "symp": 6614,
    "mphy": 4630,
    "phys": 5649,
    "hyso": 3499,
    "ysod": 7535,
    "sodo": 6501,
    "eq": 2773,
    "aeq": 1191,
    "equ": 2774,
    "uif": 7061,
    "ifa": 3622,
    "asc": 1544,
    " aeq": 10,
    "aequ": 1192,
    "equi": 2775,
    "quif": 5807,
    "uifa": 7062,
    "ifas": 3623,
    "fasc": 2988,
    "asci": 1545,
    "scia": 6373,
    "ciat": 1999,
    "flo": 3038,
    "erh": 2801,
    " flo": 252,
    "flow": 3039,
    "lowe": 4367,
    "werh": 7336,
    "erho": 2802,
    "rhor": 6020,
    "horn": 3424,
    " ป": 852,
    "ปล": 8501,
    "าห": 9593,
    "อส": 9309,
    "สี": 9160,
    "ฟล": 8591,
    "วเ": 9112,
    " ปล": 853,
    "ปลา": 8502,
    "ลาห": 9000,
    "าหม": 9594,
    "หมอ": 9198,
    "มอส": 8669,
    "อสี": 9312,
    "สีฟ": 9163,
    "ีฟล": 9751,
    "ฟลา": 8592,
    "ลาว": 8996,
    "าวเ": 9579,
    "วเว": 9115,
    "ร์ฮ": 8918,
    "์น ": 10435,
    " ปลา": 854,
    "ปลาห": 8505,
    "ลาหม": 9001,
    "าหมอ": 9595,
    "หมอส": 9199,
    "มอสี": 8670,
    "อสีฟ": 9313,
    "สีฟล": 9164,
    "ีฟลา": 9752,
    "ฟลาว": 8593,
    "ลาวเ": 8997,
    "าวเว": 9580,
    "วเวอ": 9116,
    "อร์ฮ": 9295,
    "ร์ฮอ": 8919,
    "์ฮอร": 10468,
    "ร์น ": 8908,
    "hl": 3389,
    "cic": 2000,
    "chl": 1970,
    "hla": 3390,
    "las": 4105,
    "aso": 1551,
    "som": 6507,
    " cic": 124,
    "cich": 2001,
    "ichl": 3558,
    "chla": 1971,
    "hlas": 3392,
    "laso": 4108,
    "asom": 1552,
    "soma": 6508,
    "yb": 7419,
    "hyb": 3478,
    "ybr": 7422,
    "id ": 3578,
    " hyb": 335,
    "hybr": 3480,
    "ybri": 7423,
    "brid": 1820,
    "rid ": 6045,
    "osc": 5413,
    " osc": 505,
    "osca": 5414,
    "car ": 1892,
    "ออ": 9314,
    " ออ": 894,
    "ออส": 9315,
    "อสก": 9310,
    " ออส": 895,
    "ออสก": 9316,
    "อสกา": 9311,
    "าร์ ": 9564,
    "not": 4953,
    "otu": 5474,
    " ast": 49,
    "astr": 1562,
    "rono": 6178,
    "onot": 5284,
    "notu": 4957,
    "otus": 5475,
    " oce": 485,
    "ocel": 5075,
    "llat": 4287,
    "nter": 4989,
    "tera": 6720,
    "erac": 2784,
    "ract": 5838,
    "nto": 5005,
    "onto": 5290,
    "ntos": 5007,
    "tosa": 6877,
    " ฟ": 858,
    "ตซ": 8109,
    "ซ่": 8014,
    " ฟร": 859,
    "อนโ": 9264,
    "นโต": 8403,
    "โตซ": 10162,
    "ตซ่": 8110,
    "ซ่า": 8015,
    " ฟรอ": 860,
    "รอนโ": 8827,
    "อนโต": 9265,
    "นโตซ": 8404,
    "โตซ่": 10163,
    "ตซ่า": 8111,
    "ซ่า ": 8016,
    "cyp": 2185,
    "yph": 7510,
    "hot": 3431,
    "api": 1450,
    "pia": 5652,
    " cyp": 159,
    "cyph": 2186,
    "ypho": 7511,
    "phot": 5636,
    "hoti": 3432,
    "otil": 5458,
    "tila": 6784,
    "ilap": 3667,
    "lapi": 4099,
    "apia": 1451,
    "pia ": 5653,
    "mot": 4614,
    " mot": 450,
    "moto": 4615,
    "toro": 6872,
    "oro ": 5386,
    "ngr": 4853,
    "stin": 6567,
    "ingr": 3765,
    "ngra": 4854,
    "gray": 3229,
    "ray ": 5901,
    "มโ": 8708,
    "ตโ": 8159,
    "ร่": 8883,
    "่ส": 10303,
    " โม": 956,
    "โมโ": 10198,
    "มโต": 8709,
    "โตโ": 10164,
    "ตโร": 8160,
    "โร่": 10210,
    "ร่ส": 8884,
    "่สต": 10304,
    "ติง": 8146,
    "งเร": 7908,
    "เรย": 10026,
    " โมโ": 957,
    "โมโต": 10199,
    "มโตโ": 8710,
    "โตโร": 10165,
    "ตโร่": 8161,
    "โร่ส": 10211,
    "ร่สต": 8885,
    "่สติ": 10305,
    "สติง": 9151,
    "ติงเ": 8147,
    "ิงเร": 9656,
    "งเรย": 7909,
    "เรย์": 10027,
    "tam": 6655,
    "amo": 1356,
    "otr": 5468,
    "try": 6914,
    "ryg": 6308,
    "ygo": 7459,
    "pota": 5715,
    "otam": 5446,
    "tamo": 6657,
    "amot": 1359,
    "motr": 4616,
    "otry": 5470,
    "tryg": 6915,
    "rygo": 6309,
    "ygon": 7460,
    "s-": 6327,
    "omo": 5233,
    "us-": 7187,
    "s-s": 6328,
    "-sp": 1030,
    "ne ": 4785,
    " ven": 732,
    "veno": 7252,
    "enom": 2716,
    "nomo": 4941,
    "omou": 5235,
    "ous-": 5499,
    "us-s": 7188,
    "s-sp": 6329,
    "-spi": 1031,
    "spin": 6529,
    "pine": 5668,
    "ine ": 3749,
    " mb": 425,
    "mbu": 4508,
    "bu ": 1831,
    " mbu": 426,
    "mbu ": 4509,
    "ff": 3008,
    "puf": 5777,
    "uff": 7043,
    "ffe": 3009,
    " puf": 559,
    "puff": 5778,
    "uffe": 7044,
    "ffer": 3010,
    "อ็": 9357,
    "็ม": 10277,
    "มบ": 8651,
    "ูพ": 9853,
    "พั": 8545,
    "ัฟ": 9425,
    "เอ็": 10057,
    "อ็ม": 9358,
    "็มบ": 10278,
    "มบู": 8654,
    "บูพ": 8485,
    "ูพั": 9854,
    "พัฟ": 8546,
    "ัฟเ": 9426,
    "ฟเฟ": 8618,
    " เอ็": 927,
    "เอ็ม": 10058,
    "อ็มบ": 9359,
    "็มบู": 10279,
    "มบูพ": 8655,
    "บูพั": 8486,
    "ูพัฟ": 9855,
    "พัฟเ": 8547,
    "ัฟเฟ": 9427,
    "ฟเฟอ": 8619,
    "tet": 6732,
    "etr": 2907,
    "rao": 5874,
    "aod": 1438,
    " tet": 690,
    "tetr": 6733,
    "etra": 2908,
    "trao": 6891,
    "raod": 5875,
    "aodo": 1439,
    "fah": 2979,
    "aha": 1225,
    "hak": 3281,
    "aka": 1262,
    "ka ": 3984,
    " fah": 234,
    "faha": 2980,
    "ahak": 1226,
    "haka": 3282,
    "aka ": 1263,
    "ฟา": 8602,
    "าฮ": 9598,
    "ฮา": 9375,
    "าพ": 9526,
    " ฟา": 861,
    "ฟาฮ": 8603,
    "าฮา": 9599,
    "ฮาก": 9376,
    "ก้า": 7688,
    "้าพ": 10383,
    "าพั": 9527,
    " ฟาฮ": 862,
    "ฟาฮา": 8604,
    "าฮาก": 9600,
    "ฮาก้": 9377,
    "าก้า": 9466,
    "ก้าพ": 7689,
    "้าพั": 10384,
    "าพัฟ": 9528,
    "eat": 2464,
    " lin": 395,
    "line": 4254,
    "neat": 4790,
    "eatu": 2467,
    "-8": 974,
    "8 ": 1063,
    "fig": 3018,
    "gur": 3259,
    "e-8": 2417,
    "-8 ": 975,
    " fig": 244,
    "figu": 3019,
    "igur": 3659,
    "gure": 3260,
    "ure-": 7155,
    "re-8": 5946,
    "e-8 ": 2418,
    "อท": 9245,
    "ทพ": 8192,
    " ฟิ": 863,
    "ฟิก": 8606,
    "์เอ": 10491,
    "เอท": 10051,
    "อทพ": 9246,
    "ทพั": 8193,
    " ฟิก": 864,
    "ฟิกเ": 8607,
    "ิกเก": 9643,
    "ร์เอ": 8930,
    "์เอท": 10492,
    "เอทพ": 10052,
    "อทพั": 9247,
    "ทพัฟ": 8194,
    "cho": 1978,
    "myc": 4659,
    "yct": 7432,
    "ere": 2795,
    " dic": 176,
    "dich": 2296,
    "icho": 3559,
    "chot": 1979,
    "hoto": 3433,
    "otom": 5463,
    "tomy": 6856,
    "omyc": 5239,
    "myct": 4660,
    "ycte": 7433,
    "cter": 2140,
    "tere": 6721,
    "ere ": 2796,
    "kis": 4021,
    " bra": 88,
    "rack": 5837,
    "ckis": 2040,
    "kish": 4022,
    "arc": 1485,
    "rch": 5922,
    "rfi": 6002,
    " arc": 41,
    "arch": 1486,
    "rche": 5923,
    "cher": 1963,
    "herf": 3341,
    "erfi": 2799,
    "rfis": 6003,
    "ชอ": 7944,
    "ิช": 9659,
    "ช ": 7940,
    " อา": 899,
    "อาร": 9334,
    "์เช": 10474,
    "เชอ": 9938,
    "ชอร": 7945,
    "ร์ฟ": 8914,
    "์ฟิ": 10449,
    "ฟิช": 8608,
    "ิช ": 9660,
    " อาร": 900,
    "อาร์": 9335,
    "ร์เช": 8922,
    "์เชอ": 10475,
    "เชอร": 9939,
    "ชอร์": 7946,
    "อร์ฟ": 9293,
    "ร์ฟิ": 8915,
    "์ฟิช": 10450,
    "ฟิช ": 8609,
    "oxo": 5535,
    "toxo": 6885,
    "oxot": 5536,
    "xote": 7390,
    "otes": 5450,
    "jacu": 3957,
    "latr": 4113,
    "atri": 1610,
    "trix": 6906,
    "hir": 3377,
    "ir ": 3842,
    "bich": 1744,
    "ichi": 3557,
    "chir": 1968,
    "hir ": 3378,
    " บิ": 846,
    "บิเ": 8474,
    "ิเช": 9713,
    "์เซ": 10476,
    "ัล ": 9432,
    " บิเ": 847,
    "บิเช": 8475,
    "ิเชี": 9714,
    "ชียร": 7962,
    "ร์เซ": 8923,
    "์เซเ": 10477,
    "กัล ": 7631,
    "pol": 5704,
    "oly": 5211,
    " pol": 542,
    "poly": 5705,
    "olyp": 5212,
    "ypte": 7519,
    "teru": 6727,
    "erus": 2852,
    "ัลล": 9437,
    "ลลิ": 8971,
    "ลิเ": 9010,
    "ิเก": 9711,
    "เกเ": 9910,
    "์กา": 10409,
    "อัลล": 9325,
    "ัลลิ": 9438,
    "ลลิเ": 8972,
    "ลิเก": 9011,
    "ิเกเ": 9712,
    "เกเต": 9911,
    "อร์ก": 9286,
    "ร์กา": 8893,
    "์การ": 10410,
    "teu": 6734,
    " atr": 52,
    "acto": 1153,
    "ctos": 2148,
    "tost": 6878,
    "steu": 6562,
    "teus": 6735,
    "pat": 5570,
    "tul": 6941,
    "spat": 6522,
    "patu": 5573,
    "atul": 1616,
    "tula": 6942,
    "wn ": 7349,
    "own ": 5525,
    "kn": 4028,
    " kn": 368,
    "kni": 4031,
    "fef": 2997,
    "efi": 2569,
    " kni": 369,
    "knif": 4032,
    "ifef": 3626,
    "fefi": 2998,
    "efis": 2570,
    "ีด": 9728,
    "ดต": 8043,
    "วต": 9072,
    "ตล": 8127,
    "ลก": 8940,
    "ามี": 9541,
    "มีด": 8690,
    "ีดต": 9729,
    "ดตั": 8044,
    "ตัว": 8136,
    "ัวต": 9443,
    "วตล": 9073,
    "ตลก": 8128,
    "ลก ": 8941,
    "ปลาม": 8503,
    "ลามี": 8993,
    "ามีด": 9542,
    "มีดต": 8691,
    "ีดตั": 9730,
    "ดตัว": 8045,
    "ตัวต": 8137,
    "ัวตล": 9444,
    "วตลก": 9074,
    "ตลก ": 8129,
    "chit": 1969,
    "hita": 3384,
    "ital": 3890,
    "tala": 6650,
    "ala ": 1279,
    "tn": 6821,
    "atn": 1600,
    "tno": 6826,
    " dat": 165,
    "datn": 2229,
    "atno": 1602,
    "tnoi": 6827,
    "oid ": 5164,
    "ดั": 8065,
    "ัท": 9401,
    "ทน": 8189,
    " ดั": 824,
    "ดัท": 8066,
    "ัทน": 9402,
    "ทนอ": 8190,
    "นอย": 8352,
    "อยด": 9277,
    "ด์ ": 8099,
    " ดัท": 825,
    "ดัทน": 8067,
    "ัทนอ": 9403,
    "ทนอย": 8191,
    "นอยด": 8353,
    "อยด์": 9278,
    "ยด์ ": 8735,
    "tni": 6824,
    "ioi": 3802,
    "atni": 1601,
    "tnio": 6825,
    "nioi": 4886,
    "ioid": 3803,
    "mic": 4552,
    "ole": 5187,
    "pis": 5679,
    " mic": 439,
    "micr": 4553,
    "icro": 3569,
    "crol": 2125,
    "role": 6170,
    "olep": 5188,
    "epis": 2767,
    "pis ": 5680,
    "dt": 2393,
    "edt": 2541,
    "dta": 2394,
    "redt": 5961,
    "edta": 2542,
    "dtai": 2395,
    "ail ": 1238,
    "tf": 6736,
    "atf": 1585,
    "tfi": 6737,
    "catf": 1905,
    "atfi": 1586,
    "tfis": 6738,
    "ลแ": 9041,
    "รดเ": 8794,
    "ดเท": 8086,
    "ทลแ": 8215,
    "ลแค": 9042,
    "แคท": 10072,
    "คทฟ": 7723,
    "ทฟิ": 8198,
    "เรดเ": 10021,
    "รดเท": 8795,
    "ดเทล": 8087,
    "เทลแ": 9970,
    "ทลแค": 8216,
    "ลแคท": 9043,
    "แคทฟ": 10073,
    "คทฟิ": 7724,
    "ทฟิช": 8199,
    "hra": 3438,
    " phr": 526,
    "phra": 5638,
    "hrac": 3440,
    "ctoc": 2144,
    "toce": 6835,
    "mio": 4562,
    "iol": 3804,
    "lio": 4256,
    "opt": 5343,
    "emio": 2670,
    "miol": 4563,
    "ioli": 3805,
    "olio": 5194,
    "liop": 4259,
    "iopt": 3816,
    "opte": 5344,
    "mora": 4606,
    "oray": 5363,
    " ee": 203,
    "eel": 2553,
    " eel": 204,
    "eel ": 2554,
    "าไ": 9619,
    "ไห": 10244,
    "ลม": 8964,
    "น้": 8417,
    "้ำ": 10391,
    "ำจ": 9623,
    "จื": 7927,
    "ืด": 9797,
    "ลาไ": 9004,
    "าไห": 9620,
    "ไหล": 10245,
    "หลม": 9208,
    "ลมอ": 8965,
    "มอเ": 8671,
    "ย์น": 8774,
    "์น้": 10438,
    "น้ำ": 8418,
    "้ำจ": 10393,
    "ำจื": 9624,
    "จืด": 7928,
    "ืด ": 9798,
    "ปลาไ": 8506,
    "ลาไห": 9005,
    "าไหล": 9621,
    "ไหลม": 10246,
    "หลมอ": 9209,
    "ลมอเ": 8967,
    "มอเร": 8672,
    "อเรย": 9353,
    "รย์น": 8809,
    "ย์น้": 8775,
    "์น้ำ": 10439,
    "น้ำจ": 8420,
    "้ำจื": 10394,
    "ำจืด": 9625,
    "จืด ": 7929,
    "gy": 3265,
    " gy": 304,
    "gym": 3266,
    "ymn": 7483,
    "mno": 4587,
    "oth": 5452,
    "rax": 5898,
    "ax ": 1662,
    " gym": 305,
    "gymn": 3267,
    "ymno": 7484,
    "mnot": 4588,
    "noth": 4955,
    "otho": 5454,
    "thor": 6754,
    "orax": 5362,
    "rax ": 5899,
    "yu": 7547,
    "lyu": 4436,
    "yur": 7548,
    "olyu": 5213,
    "lyur": 4437,
    "yura": 7549,
    "uran": 7149,
    "rano": 5871,
    "te-": 6686,
    "e-r": 2429,
    "ite-": 3899,
    "te-r": 6687,
    "e-ri": 2430,
    "aus": 1636,
    "ral": 5856,
    " aus": 56,
    "aust": 1637,
    "ustr": 7207,
    "stra": 6577,
    "tral": 6890,
    "rali": 5858,
    "alia": 1303,
    "dc": 2239,
    "edc": 2526,
    "dcl": 2240,
    "cla": 2046,
    "law": 4120,
    "redc": 5959,
    "edcl": 2527,
    "dcla": 2241,
    "claw": 2048,
    "law ": 4121,
    "yfi": 7450,
    " cra": 144,
    "cray": 2115,
    "rayf": 5903,
    "ayfi": 1673,
    "yfis": 7451,
    "รดค": 8788,
    "ดคล": 8029,
    "คลอ": 7760,
    "ลอว": 8980,
    "ว์เ": 9122,
    "ครย": 7750,
    "ย์ฟ": 8776,
    "เรดค": 10018,
    "รดคล": 8789,
    "ดคลอ": 8030,
    "คลอว": 7761,
    "ลอว์": 8981,
    "อว์เ": 9308,
    "ว์เค": 9123,
    "เครย": 9923,
    "ครย์": 7751,
    "รย์ฟ": 8810,
    "ย์ฟิ": 8777,
    "hera": 3339,
    "erax": 2787,
    "uad": 6968,
    "adr": 1175,
    "dri": 2379,
    "quad": 5801,
    "uadr": 6969,
    "adri": 1176,
    "dric": 2380,
    "icar": 3549,
    "cari": 1896,
    "arin": 1510,
    "rina": 6064,
    "inat": 3734,
    "natu": 4719,
    "cru": 2128,
    "ace": 1120,
    "cea": 1924,
    "ean": 2454,
    " cru": 148,
    "crus": 2129,
    "rust": 6291,
    "usta": 7205,
    "stac": 6552,
    "tace": 6637,
    "acea": 1121,
    "cean": 1925,
    "ean ": 2455,
    "y/g": 7405,
    "ry/g": 6304,
    "y/gr": 7406,
    "mba": 4493,
    "bar": 1705,
    "aru": 1536,
    "roca": 6151,
    "ocam": 5072,
    "camb": 1876,
    "amba": 1343,
    "mbar": 4494,
    "baru": 1708,
    "arus": 1538,
    "โพ": 10192,
    "รแ": 8873,
    "บา": 8464,
    " โพ": 954,
    "โพร": 10193,
    "พรแ": 8538,
    "รแค": 8874,
    "คมบ": 7738,
    "มบา": 8652,
    "บาร": 8465,
    "ารั": 9554,
    "สเค": 9166,
    " โพร": 955,
    "โพรแ": 10194,
    "พรแค": 8539,
    "รแคม": 8875,
    "แคมบ": 10077,
    "คมบา": 7739,
    "มบาร": 8653,
    "บารั": 8466,
    "ารัส": 9556,
    "ัสเค": 9456,
    "สเคร": 9167,
    "ark": 1513,
    "rki": 6103,
    " cla": 130,
    "clar": 2047,
    "lark": 4104,
    "arki": 1515,
    "rkii": 6104,
    "bam": 1699,
    "mbo": 4503,
    "boo": 1787,
    " bam": 64,
    "bamb": 1700,
    "ambo": 1345,
    "mboo": 4504,
    "boo ": 1788,
    "p ": 5542,
    "shr": 6437,
    "rim": 6058,
    "mp ": 4621,
    " shr": 631,
    "shri": 6438,
    "hrim": 3444,
    "rimp": 6060,
    "imp ": 3720,
    "กุ": 7647,
    "ุ้": 9811,
    "งไ": 7913,
    "ไผ": 10225,
    "ผ่": 8519,
    " กุ": 776,
    "กุ้": 7650,
    "ุ้ง": 9812,
    "้งไ": 10359,
    "งไผ": 7914,
    "ไผ่": 10226,
    "ผ่ ": 8520,
    " กุ้": 777,
    "กุ้ง": 7651,
    "ุ้งไ": 9815,
    "้งไผ": 10360,
    "งไผ่": 7915,
    "ไผ่ ": 10227,
    "aty": 1618,
    "tyo": 6961,
    " aty": 53,
    "atyo": 1620,
    "tyop": 6962,
    "yops": 7502,
    "psis": 5758,
    "luc": 4400,
    "ucc": 6999,
    "cce": 1917,
    "molu": 4596,
    "oluc": 5210,
    "lucc": 4401,
    "ucce": 7000,
    "ccen": 1918,
    "cens": 1936,
    "fil": 3020,
    "ilt": 3699,
    "lte": 4389,
    "er-": 2780,
    "r-f": 5818,
    "-fe": 1004,
    " fil": 245,
    "filt": 3021,
    "ilte": 3700,
    "lter": 4390,
    "ter-": 6719,
    "er-f": 2781,
    "r-fe": 5819,
    "-fee": 1005,
    "pea": 5579,
    "eac": 2441,
    "cef": 1928,
    "efu": 2573,
    " pea": 519,
    "peac": 5581,
    "eace": 2442,
    "acef": 1122,
    "cefu": 1929,
    "eful": 2574,
    "cry": 2130,
    " cry": 149,
    "crys": 2131,
    "ryst": 6316,
    "ysta": 7537,
    "stal": 6553,
    "tal ": 6649,
    "้งค": 10347,
    "งคร": 7837,
    "คริ": 7756,
    "ริส": 8857,
    "ิสต": 9708,
    "สตั": 9147,
    "ตัล": 8134,
    "ลเร": 9037,
    "รด ": 8787,
    "ุ้งค": 9813,
    "้งคร": 10348,
    "งคริ": 7838,
    "คริส": 7758,
    "ริสต": 8858,
    "ิสตั": 9709,
    "สตัล": 9148,
    "ตัลเ": 8135,
    "ัลเร": 9441,
    "ลเรด": 9038,
    "เรด ": 10017,
    "arid": 1508,
    "idin": 3584,
    "dina": 2307,
    "anto": 1429,
    "nton": 5006,
    "tone": 6860,
    "onen": 5261,
    "nie": 4871,
    "olon": 5200,
    "loni": 4339,
    "onie": 5275,
    "nies": 4873,
    "ies ": 3612,
    "lue ": 4406,
    "bol": 1778,
    "olt": 5206,
    "lt ": 4388,
    " bol": 82,
    "bolt": 1782,
    "olt ": 5207,
    "งบ": 7846,
    "ลต": 8953,
    "้งบ": 10351,
    "งบล": 7847,
    "ลูโ": 9028,
    "โบล": 10186,
    "บลต": 8437,
    "ลต์": 8954,
    "ต์ ": 8181,
    "ุ้งบ": 9814,
    "้งบล": 10352,
    "งบลู": 7848,
    "บลูโ": 8448,
    "ลูโบ": 9029,
    "ูโบล": 9897,
    "โบลต": 10187,
    "บลต์": 8438,
    "ลต์ ": 8955,
    "log": 4332,
    "oge": 5146,
    "gem": 3130,
    " log": 402,
    "loge": 4333,
    "ogem": 5147,
    "gema": 3131,
    "vam": 7232,
    "mpi": 4631,
    "pir": 5677,
    " vam": 728,
    "vamp": 7233,
    "ampi": 1363,
    "mpir": 4632,
    "pire": 5678,
    "b ": 1685,
    "rab": 5830,
    "ab ": 1100,
    "crab": 2112,
    "rab ": 5831,
    "วม": 9087,
    "มไ": 8711,
    "รบ": 8801,
    "บ ": 8422,
    " แว": 942,
    "แวม": 10125,
    "วมไ": 9088,
    "มไพ": 8712,
    "ไพร": 10232,
    "พร์": 8540,
    "ครบ": 7748,
    "รบ ": 8802,
    " แวม": 943,
    "แวมไ": 10126,
    "วมไพ": 9089,
    "มไพร": 8713,
    "ไพร์": 10233,
    "พร์แ": 8541,
    "์แคร": 10496,
    "แครบ": 10080,
    "ครบ ": 7749,
    "geo": 3136,
    "ses": 6412,
    "esa": 2867,
    "sar": 6354,
    " geo": 274,
    "geos": 3139,
    "eose": 2753,
    "oses": 5422,
    "sesa": 6413,
    "esar": 2868,
    "sarm": 6355,
    "arma": 1520,
    "rma ": 6116,
    "erl": 2815,
    "denn": 2271,
    "nner": 4918,
    "nerl": 4814,
    "erle": 2816,
    "rle ": 6107,
    "uda": 7014,
    "palu": 5560,
    "alud": 1327,
    "luda": 4403,
    "udar": 7016,
    "dari": 2226,
    "rium": 6089,
    "i-t": 3509,
    "-te": 1035,
    "mi-t": 4551,
    "i-te": 3510,
    "-ter": 1036,
    "sea": 6388,
    "eah": 2447,
    "aho": 1231,
    "rse": 6240,
    " sea": 622,
    "seah": 6390,
    "eaho": 2448,
    "ahor": 1232,
    "orse": 5392,
    "rse ": 6241,
    "ม้": 8720,
    " ม้": 869,
    "ม้า": 8721,
    "้าน": 10381,
    "าน้": 9514,
    "้ำ ": 10392,
    " ม้า": 870,
    "ม้าน": 8722,
    "้าน้": 10382,
    "าน้ำ": 9515,
    "น้ำ ": 8419,
    "hip": 3375,
    "ipp": 3830,
    "ppo": 5730,
    "poc": 5694,
    "mpu": 4637,
    " hip": 323,
    "hipp": 3376,
    "ippo": 3832,
    "ppoc": 5731,
    "poca": 5695,
    "ampu": 1365,
    "mpus": 4638,
    " ku": 375,
    "kud": 4051,
    " kud": 376,
    "kuda": 4052,
    "uda ": 7015,
    "mari": 4476,
    "rine": 6065,
    "nf": 4827,
    "onf": 5263,
    "nfi": 4828,
    " lio": 396,
    "lion": 4258,
    "ionf": 3809,
    "onfi": 5264,
    "nfis": 4829,
    "สิ": 9157,
    "งโ": 7910,
    "ลาส": 8998,
    "าสิ": 9584,
    "สิง": 9158,
    "ิงโ": 9657,
    "งโต": 7911,
    "โต ": 10161,
    "ปลาส": 8504,
    "ลาสิ": 8999,
    "าสิง": 9585,
    "สิงโ": 9159,
    "ิงโต": 9658,
    "งโต ": 7912,
    "roi": 6166,
    "eroi": 2826,
    "rois": 6167,
    "ois ": 5168,
    "vol": 7289,
    "tan": 6658,
    " vol": 740,
    "voli": 7290,
    "itan": 3891,
    "tans": 6662,
    "xf": 7371,
    "box": 1806,
    "oxf": 5530,
    "xfi": 7372,
    " box": 86,
    "boxf": 1807,
    "oxfi": 5531,
    "xfis": 7373,
    "บ็": 8492,
    " บ็": 850,
    "บ็อ": 8493,
    "ซ์ฟ": 8019,
    " บ็อ": 851,
    "บ็อก": 8494,
    "กซ์ฟ": 7589,
    "ซ์ฟิ": 8020,
    "cio": 2016,
    "ostr": 5434,
    "raci": 5836,
    "acio": 1133,
    "cion": 2018,
    "ion ": 3807,
    "cubi": 2158,
    "ubic": 6988,
    "bicu": 1746,
    "hou": 3435,
    " hou": 329,
    "hous": 3436,
    "oae": 5052,
    "aed": 1185,
    "edo": 2539,
    "boae": 1777,
    "oaed": 5053,
    "aedo": 1186,
    "edon": 2540,
    "ape": 1444,
    "cape": 1887,
    "apen": 1445,
    "pens": 5597,
    "ack ": 1135,
    " ni": 470,
    " nig": 471,
    "nigr": 4879,
    "igra": 3654,
    "gra ": 3223,
    " pin": 530,
    "nol": 4938,
    "leu": 4204,
    "euc": 2922,
    "ucu": 7010,
    "anol": 1417,
    "nole": 4939,
    "oleu": 5189,
    "leuc": 4205,
    "eucu": 2924,
    "ucus": 7011,
    "eau": 2468,
    "aut": 1638,
    "uty": 7218,
    "ty ": 6952,
    "beau": 1721,
    "eaut": 2469,
    "auty": 1639,
    "uty ": 7219,
    "rth": 6258,
    " ort": 502,
    "orth": 5396,
    "rthr": 6260,
    "hrio": 3445,
    "riop": 6072,
    "ioph": 3814,
    "niu": 4894,
    "eniu": 2712,
    "niur": 4895,
    "l/": 4059,
    "/t": 1060,
    "al/": 1272,
    "l/t": 4064,
    "/te": 1061,
    "eal/": 2451,
    "al/t": 1275,
    "l/te": 4065,
    "/ter": 1062,
    "rhi": 6016,
    "ino": 3777,
    " rhi": 590,
    "rhin": 6017,
    "hino": 3373,
    "ino ": 3778,
    "nyo": 5037,
    "yos": 7504,
    "oso": 5424,
    " gon": 291,
    "gony": 3209,
    "onyo": 5299,
    "nyos": 5038,
    "yoso": 7506,
    "osom": 5425,
    "bou": 1801,
    "oul": 5487,
    "len": 4181,
    "eng": 2704,
    " bou": 85,
    "boul": 1802,
    "oule": 5489,
    "ulen": 7084,
    "leng": 4182,
    "enge": 2705,
    "nda": 4756,
    " man": 419,
    "anda": 1386,
    "ndar": 4757,
    "rin ": 6063,
    "eup": 2929,
    "upr": 7139,
    " eup": 226,
    "eupr": 2931,
    "upre": 7140,
    "prep": 5740,
    "repi": 5983,
    "epio": 2766,
    "piop": 5674,
    "edl": 2535,
    "dl'": 2326,
    "bred": 1815,
    "redl": 5960,
    "edl'": 2536,
    "dl's": 2327,
    "edli": 2538,
    "dli ": 2333,
    "wo": 7354,
    " wo": 755,
    "wom": 7355,
    " wom": 756,
    "woma": 7356,
    "asp": 1553,
    " asp": 47,
    "aspi": 1554,
    "spid": 6527,
    "pidi": 5658,
    "idit": 3586,
    "dite": 2321,
    "msa": 4640,
    "say": 6361,
    "ayi": 1675,
    "yi ": 7462,
    "rams": 5865,
    "amsa": 1367,
    "msay": 4641,
    "sayi": 6362,
    "ayi ": 1676,
    "tim": 6788,
    "ims": 3722,
    "mso": 4642,
    "stim": 6566,
    "tims": 6789,
    "imso": 3723,
    "mson": 4643,
    "oni ": 5273,
    "cora": 2100,
    "oral": 5359,
    "rall": 5859,
    "allu": 1313,
    "rtu": 6269,
    "hort": 3426,
    "ortu": 5399,
    "rtul": 6270,
    "ulan": 7074,
    "lana": 4092,
    " em": 211,
    "eme": 2665,
    " eme": 212,
    "emer": 2666,
    "mera": 4532,
    "eral": 2785,
    "rald": 5857,
    "ald ": 1293,
    "nin": 4882,
    "cani": 1881,
    "anin": 1402,
    "ninu": 4884,
    "oug": 5485,
    "ugh": 7054,
    " rou": 602,
    "roug": 6201,
    "ough": 5486,
    "ugh ": 7055,
    " op": 496,
    "heo": 3335,
    "eod": 2737,
    "odr": 5120,
    " oph": 497,
    "pheo": 5622,
    "heod": 3336,
    "eodr": 2738,
    "odry": 5121,
    "drys": 2389,
    "ivu": 3945,
    "tivu": 6811,
    "ivus": 3947,
    "g'": 3080,
    "ng'": 4832,
    "g's": 3081,
    "stan": 6554,
    "tand": 6659,
    "ing'": 3759,
    "ng's": 4833,
    "g's ": 3082,
    "ngi": 4845,
    "gi ": 3161,
    "ingi": 3763,
    "ngi ": 4846,
    "our": 5493,
    "urn": 7169,
    " mou": 451,
    "mour": 4618,
    "ourn": 5495,
    "urni": 7170,
    "rnin": 6138,
    "ning": 4883,
    "dod": 2343,
    "idod": 3589,
    "doda": 2344,
    "lug": 4408,
    "ugu": 7056,
    "gub": 3248,
    " lug": 411,
    "lugu": 4409,
    "ugub": 7057,
    "gubr": 3249,
    "bris": 1823,
    "kit": 4023,
    "skit": 6481,
    "kitt": 4024,
    "ttis": 6928,
    "tish": 6803,
    "up ": 7133,
    "oup ": 5491,
    "b-": 1686,
    "kno": 4033,
    "nob": 4928,
    "ob-": 5057,
    "b-t": 1687,
    " kno": 370,
    "knob": 4034,
    "nob-": 4929,
    "ob-t": 5058,
    "b-ta": 1688,
    "nep": 4810,
    "hru": 3452,
    "rur": 6285,
    " nep": 467,
    "neph": 4811,
    "ephr": 2762,
    "phru": 5640,
    "hrur": 3453,
    "ruru": 6287,
    "lev": 4207,
    " lev": 392,
    "levi": 4208,
    "ave": 1644,
    "cave": 1912,
    "ave ": 1645,
    "sau": 6356,
    "goni": 3207,
    "oniu": 5278,
    "iuro": 3928,
    "uros": 7176,
    "rosa": 6192,
    "osau": 5412,
    "saur": 6358,
    "lui": 4410,
    "uii": 7063,
    " lui": 412,
    "luii": 4411,
    "uii ": 7064,
    " gol": 290,
    " du": 190,
    "dus": 2401,
    " dus": 191,
    "dust": 2404,
    "ust ": 7204,
    " lat": 384,
    "lati": 4112,
    "icau": 3551,
    "auda": 1625,
    "ank": 1408,
    "nki": 4907,
    "in'": 3728,
    " ran": 577,
    "rank": 5870,
    "anki": 1409,
    "nkin": 4908,
    "kin'": 4018,
    "in's": 3729,
    "nr": 4960,
    "ws": 7357,
    "hen": 3331,
    "enr": 2719,
    "nry": 4963,
    "ryl": 6310,
    "yla": 7469,
    "aws": 1659,
    "wso": 7358,
    " hen": 317,
    "henr": 3333,
    "enry": 2721,
    "nryl": 4964,
    "ryla": 6311,
    "ylaw": 7471,
    "laws": 4123,
    "awso": 1660,
    "wson": 7359,
    "ril": 6056,
    "lle": 4288,
    "fril": 3061,
    "rill": 6057,
    "ille": 3692,
    "lled": 4289,
    "yd": 7434,
    "amy": 1369,
    "myd": 4661,
    "ydo": 7435,
    "dos": 2361,
    " chl": 121,
    "hlam": 3391,
    "lamy": 4090,
    "amyd": 1370,
    "mydo": 4662,
    "ydos": 7436,
    "dosa": 2362,
    "gii": 3169,
    "ngii": 4847,
    "gii ": 3170,
    " wat": 747,
    "ysi": 7532,
    "ath": 1587,
    " phy": 527,
    "hysi": 3498,
    "ysig": 7533,
    "gnat": 3192,
    "nath": 4717,
    "athu": 1589,
    "thus": 6763,
    "nci": 4735,
    "coci": 2072,
    "ocin": 5086,
    "inci": 3740,
    "ncin": 4736,
    "lip": 4260,
    " phi": 524,
    "phil": 5627,
    "hili": 3365,
    "ilip": 3683,
    "lipp": 4261,
    "ippi": 3831,
    "sai": 6342,
    "ilf": 3678,
    "lfi": 4216,
    " sai": 610,
    "sail": 6343,
    "ailf": 1241,
    "ilfi": 3679,
    "lfin": 4217,
    "fin ": 3025,
    "hyd": 3483,
    "ydr": 7437,
    " hyd": 336,
    "hydr": 3484,
    "ydro": 7438,
    "dros": 2385,
    " pus": 562,
    "pust": 5785,
    "ustu": 7208,
    "stul": 6583,
    "rge": 6009,
    "nti": 4996,
    " arg": 42,
    "arge": 1502,
    "rgen": 6010,
    "enti": 2730,
    "ntin": 4999,
    "tine": 6793,
    " and": 30,
    "teg": 6698,
    " teg": 684,
    "tegu": 6699,
    "alv": 1329,
    "lva": 4422,
    "vat": 7240,
    "salv": 6348,
    "alva": 1330,
    "lvat": 4423,
    "vato": 7241,
    "eria": 2805,
    "iana": 3523,
    "anae": 1375,
    "ufe": 7041,
    "fes": 3006,
    "esc": 2869,
    "sce": 6367,
    "rufe": 6278,
    "ufes": 7042,
    "fesc": 3007,
    "esce": 2870,
    "scen": 6368,
    "ens ": 2723,
    "prol": 5746,
    "gd": 3115,
    "agd": 1209,
    "gdi": 3116,
    "smar": 6491,
    "mara": 4474,
    "arag": 1475,
    "ragd": 5847,
    "agdi": 1210,
    "gdin": 3117,
    "hlu": 3397,
    " moc": 445,
    "ochl": 5080,
    "chlu": 1974,
    "hlus": 3398,
    "nan": 4703,
    "di ": 2290,
    "fern": 3004,
    "erna": 2822,
    "rnan": 6133,
    "nand": 4704,
    "ndi ": 4767,
    "hne": 3402,
    "nei": 4800,
    "eid": 2596,
    " sch": 617,
    "schn": 6371,
    "chne": 1976,
    "hnei": 3403,
    "neid": 4801,
    "eide": 2597,
    "der'": 2277,
    "eum": 2927,
    "ume": 7105,
    "mec": 4515,
    "ece": 2488,
    "ces": 1945,
    " eum": 225,
    "eume": 2928,
    "umec": 7106,
    "mece": 4516,
    "eces": 2489,
    "ces ": 1946,
    "rii": 6054,
    "deri": 2279,
    "erii": 2808,
    "rii ": 6055,
    "pete": 5610,
    "ter'": 6718,
    " ban": 65,
    "band": 1704,
    "nded": 4762,
    "ncop": 4744,
    "copu": 2098,
    "ey-": 2962,
    "y-t": 7402,
    "key-": 4007,
    "ey-t": 2963,
    "y-ta": 7403,
    "oru": 5400,
    "ruc": 6274,
    "coru": 2105,
    "oruc": 5401,
    "ruci": 6275,
    "ucia": 7006,
    "cia ": 1996,
    "brat": 1812,
    "rata": 5886,
    "mad": 4449,
    "adi": 1171,
    "llo": 4301,
    "lo ": 4323,
    " arm": 43,
    "rmad": 6117,
    "madi": 4450,
    "adil": 1172,
    "dill": 2304,
    "illo": 3693,
    "llo ": 4302,
    "gir": 3173,
    "rdl": 5939,
    "dle": 2328,
    " gir": 282,
    "gird": 3174,
    "irdl": 3848,
    "rdle": 5940,
    "dled": 2329,
    " ou": 507,
    " our": 508,
    "ouro": 5496,
    "urob": 7173,
    "boru": 1795,
    "orus": 5402,
    "tap": 6663,
    "atap": 1577,
    "taph": 6664,
    "actu": 1154,
    "mali": 4460,
    "ali ": 1302,
    "alie": 1304,
    "lien": 4240,
    "iens": 3606,
    "reek": 5965,
    "rae": 5844,
    "aec": 1183,
    "eca": 2486,
    "grae": 3225,
    "raec": 5845,
    "aeca": 1184,
    "eca ": 2487,
    "nca": 4728,
    "cak": 1865,
    "panc": 5562,
    "anca": 1379,
    "ncak": 4729,
    "cake": 1866,
    "alac": 1281,
    "laco": 4080,
    "acoc": 1145,
    "coch": 2071,
    "hers": 3346,
    "torn": 6871,
    "rnie": 6137,
    "nier": 4872,
    "ieri": 3610,
    "w-": 7308,
    "yel": 7442,
    "ow-": 5515,
    "w-f": 7311,
    " yel": 762,
    "yell": 7443,
    "ello": 2637,
    "llow": 4304,
    "low-": 4366,
    "ow-f": 5517,
    "w-fo": 7312,
    "ntic": 4997,
    " elo": 210,
    "long": 4338,
    "onga": 5267,
    "ngat": 4838,
    "gate": 3110,
    "ndo": 4774,
    "dot": 2363,
    "indo": 3747,
    "ndot": 4775,
    "dote": 2364,
    "sid": 6450,
    " sid": 634,
    "side": 6451,
    "iden": 3580,
    "dene": 2270,
    "enec": 2701,
    "usi": 7197,
    "sio": 6464,
    "pelu": 5594,
    "lusi": 4420,
    "usio": 7198,
    "sios": 6466,
    "ios ": 3819,
    "cas": 1900,
    "neu": 4823,
    " cas": 109,
    "cast": 1901,
    "asta": 1559,
    "tane": 6660,
    "aneu": 1394,
    "neus": 4824,
    "elm": 2640,
    "lme": 4314,
    "met": 4538,
    " hel": 315,
    "helm": 3322,
    "elme": 2642,
    "lmet": 4315,
    "mete": 4540,
    "eted": 2896,
    "lom": 4334,
    "edu": 2543,
    "usa": 7189,
    "elom": 2646,
    "lome": 4335,
    "omed": 5223,
    "medu": 4519,
    "edus": 2544,
    "dusa": 2403,
    "usa ": 7190,
    "sub": 6589,
    "bru": 1828,
    "ufa": 7039,
    "fa ": 2978,
    " sub": 667,
    "subr": 6590,
    "ubru": 6995,
    "bruf": 1829,
    "rufa": 6277,
    "ufa ": 7040,
    "ass": 1555,
    "sse": 6538,
    "rti": 6261,
    " ass": 48,
    "asse": 1556,
    "sser": 6539,
    "sert": 6410,
    "erti": 2848,
    "rtiv": 6264,
    "usk": 7199,
    "musk": 4655,
    "usk ": 7200,
    "rno": 6141,
    "erno": 2823,
    "rnot": 6142,
    "othe": 5453,
    "heru": 3347,
    " odo": 489,
    "dora": 2358,
    "ap ": 1441,
    " map": 420,
    "map ": 4471,
    "apt": 1460,
    "rapt": 5879,
    "apte": 1461,
    "ptem": 5765,
    "temy": 6709,
    "geog": 3137,
    "eogr": 2741,
    "ogra": 5156,
    "hica": 3356,
    "db": 2234,
    "iam": 3519,
    "ond": 5256,
    "ndb": 4759,
    "dba": 2235,
    "bac": 1693,
    " dia": 175,
    "diam": 2293,
    "iamo": 3520,
    "amon": 1357,
    "mond": 4600,
    "ondb": 5258,
    "ndba": 4760,
    "dbac": 2236,
    "back": 1694,
    "rra": 6216,
    "erra": 2836,
    "rrap": 6217,
    "rapi": 5878,
    "apin": 1453,
    "pin ": 5667,
    "lem": 4178,
    "lacl": 4079,
    "clem": 2053,
    "lemy": 4180,
    "raz": 5904,
    "zor": 7577,
    "or-": 5353,
    "r-b": 5814,
    "-ba": 986,
    "cke": 2035,
    "ked": 3997,
    " raz": 579,
    "razo": 5906,
    "azor": 1684,
    "zor-": 7578,
    "or-b": 5354,
    "r-ba": 5815,
    "-bac": 987,
    "acke": 1137,
    "cked": 2036,
    "ked ": 3998,
    "s'": 6324,
    "eev": 2562,
    "eve": 2937,
    "ves": 7260,
    "es'": 2862,
    "s's": 6325,
    " ree": 582,
    "reev": 5967,
    "eeve": 2563,
    "eves": 2939,
    "ves'": 7261,
    "es's": 2863,
    "s's ": 6326,
    "mau": 4488,
    "rem": 5977,
    " mau": 424,
    "maur": 4489,
    "aure": 1633,
    "urem": 7156,
    "remy": 5978,
    "sii": 6454,
    "vesi": 7262,
    "esii": 2877,
    "sii ": 6455,
    "fal": 2983,
    "als": 1321,
    "lse": 4381,
    " fal": 235,
    "fals": 2984,
    "alse": 1322,
    "lse ": 4382,
    "pse": 5753,
    "eud": 2925,
    " pse": 554,
    "pseu": 5755,
    "seud": 6417,
    "eudo": 2926,
    "udog": 7023,
    "doge": 2347,
    "ogeo": 5148,
    "ras": 5882,
    "pras": 5735,
    "rasi": 5883,
    "asin": 1549,
    "sinu": 6463,
    "dile": 2302,
    "rib": 6033,
    "ibo": 3538,
    "trib": 6899,
    "ribo": 6037,
    "ibol": 3539,
    "bolo": 1781,
    "acil": 1131,
    "ilis": 3685,
    "air ": 1251,
    "kim": 4014,
    "mbe": 4495,
    "ber": 1733,
    "ley": 4211,
    " kim": 366,
    "kimb": 4015,
    "imbe": 3713,
    "mber": 4497,
    "berl": 1735,
    "rley": 6109,
    "ley ": 4212,
    "gla": 3178,
    "lau": 4116,
    "aue": 1627,
    "uer": 7036,
    " gla": 284,
    "glau": 3179,
    "laue": 4117,
    "auer": 1628,
    "uert": 7037,
    "rti ": 6262,
    "/a": 1048,
    "l/a": 4060,
    "/ar": 1049,
    "ial/": 3517,
    "al/a": 1273,
    "l/ar": 4061,
    "/arb": 1050,
    "chy": 1989,
    "hyc": 3481,
    "yce": 7425,
    "achy": 1129,
    "chyc": 1990,
    "hyce": 3482,
    "ycep": 7426,
    "ifi": 3628,
    "fic": 3014,
    "ctr": 2149,
    " res": 586,
    "esin": 2878,
    "sini": 6462,
    "inif": 3770,
    "nifi": 4876,
    "ific": 3629,
    "fict": 3015,
    "ictr": 3573,
    "ctri": 2150,
    "iet": 3614,
    "etn": 2902,
    "tna": 6822,
    "nam": 4700,
    " vie": 735,
    "viet": 7277,
    "ietn": 3615,
    "etna": 2903,
    "tnam": 6823,
    "name": 4702,
    "ames": 1352,
    "ssy": 6547,
    " mos": 449,
    "moss": 4611,
    "ossy": 5429,
    "ssy ": 6548,
    " th": 691,
    " the": 693,
    "thel": 6747,
    "lode": 4330,
    "oder": 5111,
    "derm": 2280,
    "cort": 2104,
    "orti": 5397,
    "rtic": 6263,
    "ical": 3546,
    "cale": 1870,
    "ale ": 1296,
    " ame": 26,
    "eric": 2806,
    "hyl": 3485,
    " hyl": 337,
    "hyla": 3486,
    "yla ": 7470,
    " cin": 126,
    "cine": 2013,
    "iner": 3754,
    "nere": 4813,
    "erea": 2797,
    "rea ": 5950,
    "eef": 2549,
    "efr": 2571,
    "reef": 5964,
    "eefr": 2550,
    "efro": 2572,
    "ryo": 6312,
    "hyt": 3500,
    "yte": 7540,
    " dry": 189,
    "dryo": 2388,
    "ryop": 6313,
    "yoph": 7501,
    "ophy": 5331,
    "phyt": 5650,
    "hyte": 3501,
    "ytes": 7541,
    "rsi": 6244,
    "vers": 7256,
    "ersi": 2842,
    "rsic": 6245,
    "sico": 6448,
    "w-b": 7309,
    "ow-b": 5516,
    "w-be": 7310,
    "ieg": 3598,
    "vari": 7239,
    "arie": 1509,
    "rieg": 6050,
    "iega": 3599,
    "egat": 2580,
    "ild ": 3669,
    "xin": 7382,
    "oxin": 5534,
    "xins": 7383,
    "ins ": 3783,
    "inam": 3733,
    "nam ": 4701,
    "pip": 5675,
    "ipa": 3824,
    "pa ": 5546,
    " pip": 532,
    "pipa": 5676,
    "ipa ": 3825,
    "awe": 1657,
    "wed": 7332,
    "lawe": 4122,
    "awed": 1658,
    "wed ": 7333,
    "nopu": 4947,
    "wb": 7326,
    "raw": 5896,
    "awb": 1655,
    "wbe": 7327,
    "rry": 6234,
    "traw": 6894,
    "rawb": 5897,
    "awbe": 1656,
    "wber": 7328,
    "berr": 1736,
    "erry": 2840,
    "rry ": 6235,
    " oo": 494,
    "oop": 5310,
    "hag": 3273,
    " oop": 495,
    "ooph": 5311,
    "opha": 5324,
    "phag": 5614,
    "haga": 3274,
    "aga ": 1206,
    "pum": 5781,
    "umi": 7107,
    "io ": 3796,
    " pum": 561,
    "pumi": 5782,
    "umil": 7108,
    "mili": 4556,
    "ilio": 3682,
    "lio ": 4257,
    "r/": 5820,
    "ir/": 3843,
    "r/g": 5821,
    "air/": 1252,
    "ir/g": 3844,
    "r/gr": 5822,
    "imi": 3715,
    " imi": 345,
    "imit": 3717,
    "mita": 4571,
    "itat": 3893,
    "tato": 6673,
    "mey": 4544,
    "eya": 2964,
    "ya ": 7410,
    "rani": 5869,
    "anit": 1404,
    "itom": 3913,
    "tome": 6854,
    "omey": 5226,
    "meya": 4545,
    "eya ": 2965,
    "bold": 1780,
    "lde": 4150,
    "olde": 5186,
    "lden": 4151,
    "den ": 2268,
    "yll": 7474,
    "lob": 4326,
    "phyl": 5648,
    "hyll": 3487,
    "yllo": 7475,
    "llob": 4303,
    "loba": 4327,
    "rrib": 6228,
    "ribi": 6036,
    "ibil": 3537,
    "bili": 1752,
    "bum": 1836,
    "mbl": 4501,
    "leb": 4168,
    "ebe": 2475,
    "bee": 1726,
    " bum": 95,
    "bumb": 1837,
    "umbl": 7103,
    "mble": 4502,
    "bleb": 1767,
    "lebe": 4169,
    "ebee": 2476,
    "bee ": 1727,
    "uco": 7008,
    " leu": 391,
    "euco": 2923,
    "ucom": 7009,
    "omel": 5224,
    "elas": 2613,
    "las ": 4106,
    "span": 6520,
    "pani": 5564,
    "anis": 1403,
    "bb": 1712,
    "ibb": 3531,
    "bbe": 1713,
    "bed": 1724,
    " rib": 592,
    "ribb": 6034,
    "ibbe": 3532,
    "bbed": 1714,
    "bed ": 1725,
    "ple": 5687,
    "eur": 2932,
    "les": 4198,
    " ple": 536,
    "pleu": 5689,
    "leur": 4206,
    "euro": 2933,
    "urod": 7174,
    "odel": 5109,
    "dele": 2260,
    "eles": 2622,
    "les ": 4199,
    "alt": 1323,
    "ltl": 4393,
    "walt": 7318,
    "altl": 1325,
    "ltl ": 4394,
    "emp": 2674,
    " emp": 214,
    "empe": 2675,
    "pero": 5601,
    "eror": 2830,
    "ror ": 6188,
    " ty": 715,
    "ylo": 7477,
    "tot": 6879,
    " tyl": 716,
    "tylo": 6957,
    "ylot": 7479,
    "otot": 5467,
    "totr": 6880,
    "otri": 5469,
    "trit": 6904,
    "iton": 3914,
    "ton ": 6858,
    "nj": 4898,
    "ji": 3971,
    "sha": 6428,
    "anj": 1406,
    "nji": 4899,
    "jin": 3972,
    " sha": 629,
    "shan": 6429,
    "hanj": 3293,
    "anji": 1407,
    "njin": 4900,
    "jing": 3973,
    "/s": 1057,
    "l/s": 4062,
    "/se": 1058,
    "al/s": 1274,
    "l/se": 4063,
    "/sem": 1059,
    "lpi": 4376,
    " alp": 22,
    "alpi": 1320,
    "lpin": 4377,
    "ht": 3456,
    " ic": 340,
    "cht": 1984,
    "hth": 3457,
    "thy": 6764,
    "hyo": 3490,
    " ich": 341,
    "icht": 3560,
    "chth": 1985,
    "hthy": 3459,
    "thyo": 6765,
    "hyos": 3491,
    "yosa": 7505,
    "pest": 5606,
    "east": 2462,
    "aste": 1560,
    "pht": 5642,
    "lmu": 4320,
    " not": 477,
    "noto": 4956,
    "otop": 5464,
    "opht": 5329,
    "phth": 5643,
    "htha": 3458,
    "thal": 6744,
    "halm": 3285,
    "almu": 1317,
    "lmus": 4321,
    "mus ": 4653,
    "ride": 6046,
    "desc": 2283,
    "rbl": 5912,
    "marb": 4475,
    "arbl": 1483,
    "rble": 5913,
    "bled": 1768,
    "ritu": 6087,
    "itur": 3921,
    "turu": 6948,
    "rmor": 6126,
    "ddl": 2246,
    "addl": 1167,
    "ddle": 2247,
    "dlet": 2331,
    "leta": 4203,
    "etai": 2892,
    "ytr": 7545,
    "pach": 5548,
    "chyt": 1993,
    "hytr": 3502,
    "ytri": 7546,
    "abi": 1103,
    " lab": 379,
    "labi": 4075,
    "abia": 1104,
    "biat": 1742,
    "oga": 5144,
    "gas": 3106,
    "rhog": 6019,
    "hoga": 3413,
    "ogas": 5145,
    "gast": 3107,
    "usc": 7191,
    "musc": 4654,
    "uscu": 7192,
    "culu": 2162,
    "ulus": 7095,
    "ft-": 3066,
    "t-f": 6624,
    "-fu": 1010,
    "oft-": 5138,
    "ft-f": 3067,
    "t-fu": 6625,
    "-fur": 1011,
    "furr": 3076,
    "urre": 7178,
    "rred": 6219,
    " mas": 422,
    " nat": 463,
    "atal": 1575,
    "tale": 6651,
    "alen": 1297,
    "lens": 4184,
    " cri": 146,
    "etul": 2914,
    "tulu": 6943,
    " gri": 298,
    " wi": 753,
    " win": 754,
    "wint": 7347,
    "gor": 3215,
    "sung": 6604,
    "ungo": 7123,
    "ngor": 4852,
    "goru": 3216,
    "sho": 6435,
    "rt-": 6254,
    " sho": 630,
    "shor": 6436,
    "ort-": 5395,
    "rt-t": 6255,
    "opo": 5336,
    "pos": 5711,
    " opo": 498,
    "opos": 5338,
    "poss": 5712,
    "elp": 2649,
    "mono": 4604,
    "onod": 5282,
    "node": 4934,
    "delp": 2263,
    "elph": 2650,
    "lphi": 4374,
    "ars": 1531,
    "sup": 6605,
    "upi": 7136,
    "mars": 4478,
    "arsu": 1532,
    "rsup": 6250,
    "supi": 6606,
    "upia": 7137,
    "pial": 5654,
    "nut": 5025,
    " min": 441,
    "minu": 4561,
    "inut": 3792,
    "nuto": 5026,
    "utoi": 7214,
    "toid": 6846,
    "gam": 3096,
    " gam": 268,
    "gamb": 3097,
    "ambi": 1344,
    "mbia": 4499,
    "pou": 5717,
    " pou": 546,
    "pouc": 5718,
    "ouch": 5482,
    "uche": 7002,
    "ched": 1957,
    "hed ": 3314,
    "eto": 2904,
    "ceto": 1948,
    "etom": 2906,
    "coa": 2066,
    "oat": 5054,
    "imu": 3724,
    "mun": 4647,
    " coa": 134,
    "coat": 2067,
    "oati": 5055,
    "atim": 1593,
    "timu": 6790,
    "imun": 3725,
    "mund": 4648,
    "undi": 7118,
    "asu": 1564,
    "sua": 6587,
    "nasu": 4713,
    "asua": 1565,
    "sua ": 6588,
    "rva": 6295,
    "val": 7230,
    "serv": 6411,
    "erva": 2854,
    "rval": 6296,
    "val ": 7231,
    "lept": 4193,
    "epta": 2771,
    "ptai": 5763,
    "ailu": 1242,
    "ilur": 3703,
    "luru": 4417,
    "nten": 4988,
    "tens": 6713,
    "ense": 2724,
    "nse ": 4970,
    "mir": 4564,
    "saim": 6344,
    "aimi": 1245,
    "imir": 3716,
    "miri": 4565,
    "iri ": 3856,
    "ciu": 2025,
    "reu": 5994,
    "sciu": 6375,
    "ciur": 2026,
    "iure": 3927,
    "ureu": 7157,
    "reus": 5995,
    "pri": 5741,
    " pri": 551,
    "prim": 5742,
    "rima": 6059,
    "imat": 3711,
    "mate": 4484,
    "cot": 2108,
    "ott": 5471,
    "on-": 5246,
    "n-t": 4679,
    "op ": 5316,
    " cot": 142,
    "cott": 2109,
    "otto": 5473,
    "tton": 6933,
    "ton-": 6859,
    "on-t": 5247,
    "n-to": 4680,
    "-top": 1039,
    "top ": 6865,
    " tam": 680,
    "tama": 6656,
    "amar": 1339,
    "sag": 6340,
    "agu": 1219,
    " sag": 609,
    "sagu": 6341,
    "agui": 1222,
    "uinu": 7067,
    "oe": 5122,
    " oe": 490,
    "oed": 5126,
    "dip": 2313,
    "ipu": 3835,
    " oed": 491,
    "oedi": 5127,
    "edip": 2533,
    "dipu": 2314,
    "ipus": 3836,
    "ng-": 4834,
    "g-t": 3086,
    "ing-": 3760,
    "ng-t": 4835,
    "g-ta": 3087,
    "emu": 2677,
    "ur ": 7144,
    " lem": 387,
    "lemu": 4179,
    "emur": 2678,
    "mur ": 4650,
    "tag": 6642,
    " pat": 517,
    "pata": 5571,
    "atag": 1574,
    "tago": 6643,
    "onia": 5274,
    "nian": 4866,
    "dol": 2348,
    " dol": 182,
    "doli": 2349,
    "olic": 5192,
    "otis": 5459,
    "gonu": 3208,
    "onum": 5293,
    " les": 390,
    "less": 4200,
    "esse": 2882,
    "ser ": 6408,
    "nre": 4961,
    " ten": 687,
    "tenr": 6712,
    "enre": 2720,
    "nrec": 4962,
    "rec ": 5953,
    "ech": 2490,
    " ech": 201,
    "echi": 2491,
    "inop": 3780,
    "elf": 2623,
    "lfa": 4214,
    "fai": 2981,
    " tel": 685,
    "telf": 6705,
    "elfa": 2624,
    "lfai": 4215,
    "fair": 2982,
    "sou": 6516,
    "out": 5501,
    "uth": 7211,
    " sou": 652,
    "sout": 6517,
    "outh": 5502,
    "uthe": 7212,
    "hern": 3344,
    "dua": 2397,
    "andu": 1390,
    "ndua": 4782,
    "dua ": 2398,
    "ada": 1161,
    "rada": 5841,
    "adac": 1162,
    "tyla": 6956,
    "ena": 2689,
    "xena": 7369,
    "enar": 2691,
    "nart": 4709,
    "arth": 1535,
    "thra": 6757,
    "hran": 3441,
    "ran ": 5867,
    "gene": 3133,
    "enet": 2703,
    "net ": 4820,
    "nett": 4822,
    "etta": 2911,
    " war": 746,
    "wary": 7323,
    "hb": 3303,
    "ush": 7195,
    "shb": 6431,
    "hba": 3304,
    "bab": 1691,
    " bus": 97,
    "bush": 1843,
    "ushb": 7196,
    "shba": 6432,
    "hbab": 3305,
    "baby": 1692,
    "lag": 4083,
    "go ": 3198,
    "gala": 3092,
    "alag": 1282,
    "lago": 4084,
    "ago ": 1216,
    "reh": 5970,
    "ehe": 2588,
    "le-": 4161,
    "preh": 5739,
    "rehe": 5971,
    "ehen": 2589,
    "hens": 3334,
    "nsil": 4973,
    "sile": 6457,
    "ile-": 3675,
    "le-t": 4162,
    "e-ta": 2432,
    "rcu": 5926,
    "cup": 2165,
    "orcu": 5366,
    "rcup": 5927,
    "cupi": 2166,
    "upin": 7138,
    "coe": 2077,
    "oen": 5128,
    "dou": 2365,
    " coe": 137,
    "coen": 2078,
    "oend": 5129,
    "endo": 2698,
    "ndou": 4776,
    "dou ": 2366,
    "sili": 6458,
    "je": 3968,
    " je": 360,
    "jen": 3969,
    " jen": 361,
    "jend": 3970,
    "enda": 2695,
    "nday": 4758,
    "jan": 3960,
    "aya": 1670,
    " jan": 356,
    "jand": 3961,
    "daya": 2233,
    "aya ": 1671,
    " nan": 461,
    "rak": 5854,
    "kee": 3999,
    "eet": 2560,
    "arak": 1477,
    "rake": 5855,
    "akee": 1266,
    "keet": 4000,
    "eet ": 2561,
    " nen": 465,
    "nend": 4805,
    "d-c": 2196,
    "-ca": 991,
    "ppe": 5724,
    "old-": 5185,
    "ld-c": 4146,
    "d-ca": 2197,
    "-cap": 992,
    "capp": 1889,
    "appe": 1457,
    "pped": 5725,
    "icap": 3548,
    "capi": 1888,
    "apil": 1452,
    "pill": 5664,
    "illu": 3694,
    "crim": 2121,
    "rims": 6061,
    "sel": 6398,
    "osel": 5421,
    "sell": 6399,
    "tyc": 6953,
    "erc": 2791,
    "plat": 5685,
    "laty": 4115,
    "atyc": 1619,
    "tyce": 6954,
    "ycer": 7427,
    "cerc": 1943,
    "ercu": 2792,
    "rcus": 5928,
    "xim": 7380,
    "miu": 4574,
    " exi": 229,
    "exim": 2955,
    "ximi": 7381,
    "imiu": 3718,
    "mius": 4575,
    "urk": 7162,
    "rke": 6101,
    "ke'": 3995,
    "bour": 1803,
    "ourk": 5494,
    "urke": 7163,
    "rke'": 6102,
    "ke's": 3996,
    "neo": 4807,
    "sep": 6405,
    " neo": 466,
    "neop": 4809,
    "eops": 2750,
    "opse": 5341,
    "psep": 5754,
    "seph": 6406,
    "epho": 2761,
    "hotu": 3434,
    "urki": 7164,
    "aniv": 1405,
    "eol": 2742,
    "ola": 5178,
    "ineo": 3753,
    "neol": 4808,
    "eola": 2743,
    "olat": 5180,
    "olb": 5181,
    "lbo": 4133,
    "bolb": 1779,
    "olbo": 5182,
    "lbor": 4135,
    "borh": 1793,
    "ola ": 5179,
    "wne": 7350,
    "ned": 4794,
    "ed-c": 2518,
    "d-cr": 2198,
    "-cro": 997,
    "crow": 2127,
    "rown": 6210,
    "owne": 5526,
    "wned": 7351,
    "ned ": 4795,
    "cya": 2177,
    " cya": 156,
    "cyan": 2178,
    "yano": 7416,
    "anor": 1419,
    "nora": 4949,
    "oram": 5360,
    "mphu": 4629,
    "ez": 2971,
    "nov": 4958,
    "ova": 5504,
    "vae": 7228,
    "aez": 1199,
    "eze": 2972,
    "zel": 7563,
    " nov": 478,
    "nova": 4959,
    "ovae": 5505,
    "vaez": 7229,
    "aeze": 1200,
    "ezel": 2973,
    "zela": 7564,
    "diae": 2292,
    "lex": 4209,
    "alex": 1300,
    "lexa": 4210,
    "xand": 7365,
    "ndri": 4779,
    "drin": 2381,
    "upa": 7134,
    "eupa": 2930,
    "upat": 7135,
    "patr": 5572,
    "mart": 4479,
    "m-": 4439,
    "plu": 5690,
    "um-": 7098,
    "m-h": 4440,
    " plu": 537,
    "plum": 5691,
    "lum-": 4414,
    "um-h": 7099,
    "m-he": 4441,
    "hala": 3284,
    "rby": 5917,
    "bya": 1848,
    " der": 173,
    "derb": 2278,
    "erby": 2790,
    "rbya": 5918,
    "byan": 1849,
    "rbia": 5909,
    "e-h": 2427,
    "ue-h": 7030,
    "e-he": 2428,
    "ionu": 3811,
    "onus": 5295,
    "uu": 7220,
    "men": 4526,
    "tru": 6911,
    "ruu": 6292,
    "uus": 7221,
    " men": 431,
    "mens": 4527,
    "enst": 2726,
    "stru": 6580,
    "truu": 6913,
    "ruus": 6293,
    "uus ": 7222,
    "yer": 7444,
    " mey": 437,
    "meye": 4546,
    "eyer": 2968,
    "yer'": 7445,
    "yeri": 7446,
    "jar": 3964,
    "rdi": 5937,
    "ne'": 4786,
    " jar": 358,
    "jard": 3965,
    "ardi": 1491,
    "rdin": 5938,
    "dine": 2308,
    "ine'": 3750,
    "ne's": 4787,
    "uli": 7085,
    "lmi": 4316,
    "mi ": 4548,
    " gul": 302,
    "guli": 3257,
    "ulie": 7086,
    "liel": 4239,
    "ielm": 3603,
    "elmi": 2643,
    "lmi ": 4317,
    "d-b": 2194,
    "ed-b": 2517,
    "d-be": 2195,
    "ufi": 7045,
    "fiv": 3033,
    "rufi": 6279,
    "ufiv": 7046,
    "five": 3034,
    "lah": 4085,
    "alah": 1283,
    "lah ": 4086,
    " eo": 215,
    " eol": 216,
    "eolo": 2744,
    "olop": 5201,
    "eica": 2594,
    "gof": 3199,
    "off": 5135,
    "ffi": 3011,
    " gof": 289,
    "goff": 3200,
    "offi": 5136,
    "ffin": 3012,
    "fin'": 3026,
    "fini": 3028,
    "inia": 3769,
    "maj": 4455,
    "jor": 3975,
    " maj": 416,
    "majo": 4456,
    "ajor": 1259,
    "jor ": 3976,
    "tc": 6679,
    "itc": 3894,
    "tch": 6680,
    " mit": 443,
    "mitc": 4572,
    "itch": 3895,
    "tche": 6681,
    "hoc": 3407,
    "roa": 6145,
    " lop": 404,
    "phoc": 5633,
    "hoch": 3408,
    "ochr": 5081,
    "chro": 1983,
    "hroa": 3448,
    "roa ": 6146,
    "adb": 1163,
    "dbe": 2237,
    " lea": 386,
    "lead": 4165,
    "eadb": 2444,
    "adbe": 1164,
    "dbea": 2238,
    "beat": 1720,
    "eate": 2466,
    "teri": 6722,
    "e-e": 2423,
    " bar": 66,
    "bare": 1706,
    "are-": 1495,
    "re-e": 5948,
    "e-ey": 2424,
    "sang": 6351,
    "hah": 3275,
    "ahn": 1229,
    "hn'": 3400,
    " hah": 308,
    "hahn": 3276,
    "ahn'": 1230,
    "hn's": 3401,
    "dio": 2311,
    " dio": 177,
    "diop": 2312,
    "taca": 6636,
    "aca ": 1111,
    "obi": 5062,
    " nob": 475,
    "nobi": 4930,
    "obil": 5063,
    "n-w": 4681,
    "-wi": 1044,
    "ged": 3122,
    "en-w": 2688,
    "n-wi": 4682,
    "-win": 1045,
    "inge": 3762,
    "nged": 4842,
    "ged ": 3123,
    "hlo": 3395,
    "chlo": 1973,
    "hlor": 3396,
    "loro": 4350,
    "orop": 5387,
    "ropt": 6185,
    "ilit": 3686,
    "tari": 6668,
    "gou": 3217,
    "uld": 7080,
    " gou": 294,
    "goul": 3218,
    "ould": 5488,
    "uldi": 7081,
    "ldia": 4153,
    "ryt": 6317,
    "eryt": 2858,
    "ryth": 6318,
    "ythr": 7544,
    "thru": 6760,
    "rura": 6286,
    "ety": 2916,
    "ocie": 5084,
    "ciet": 2004,
    "iety": 3616,
    "ety ": 2917,
    "onc": 5254,
    " lon": 403,
    "lonc": 4337,
    "onch": 5255,
    "chur": 1987,
    "ond ": 5257,
    " dov": 185,
    "dove": 2368,
    "ove ": 5507,
    "geop": 3138,
    "eope": 2749,
    "peli": 5590,
    "cun": 2163,
    "une": 7120,
    " cun": 152,
    "cune": 2164,
    "unea": 7121,
    "eata": 2465,
    "gel": 3128,
    " ang": 31,
    "ngel": 4843,
    "gelf": 3129,
    "elfi": 2625,
    "lfis": 4218,
    "yllu": 7476,
    "llum": 4306,
    "scal": 6365,
    "cala": 1869,
    "alar": 1286,
    "lare": 4102,
    "are ": 1494,
    "-ag": 977,
    "i-ag": 3506,
    "-agg": 978,
    "sev": 6419,
    "rum": 6283,
    " sev": 627,
    "seve": 6420,
    "ever": 2938,
    "veru": 7258,
    "erum": 2851,
    "rum ": 6284,
    " ef": 205,
    "efa": 2565,
    " efa": 206,
    "efas": 2566,
    "nv": 5027,
    "onv": 5296,
    "nvi": 5030,
    "ct ": 2133,
    "conv": 2092,
    "onvi": 5297,
    "nvic": 5031,
    "vict": 7271,
    "ict ": 3571,
    "hli": 3393,
    "chli": 1972,
    "hlid": 3394,
    "lid ": 4234,
    "itl": 3910,
    "tla": 6814,
    "atit": 1596,
    "titl": 6806,
    "itla": 3911,
    "tlan": 6815,
    "ania": 1399,
    "rof": 6161,
    "ofa": 5133,
    "igro": 3656,
    "grof": 3238,
    "rofa": 6162,
    "ofas": 5134,
    "erro": 2839,
    "rror": 6231,
    "noa": 4926,
    "oac": 5047,
    "dino": 2310,
    "inoa": 3779,
    "noac": 4927,
    "oaca": 5048,
    "acar": 1114,
    "cara": 1893,
    " riv": 594,
    "rivu": 6094,
    "ivul": 3946,
    "vula": 7301,
    "mps": 4635,
    "sey": 6421,
    "demp": 2266,
    "emps": 2676,
    "mpse": 4636,
    "psey": 5756,
    "sey ": 6422,
    "roci": 6153,
    "ocio": 5087,
    "cio ": 2017,
    "tof": 6842,
    "ctof": 2146,
    "tofa": 6843,
    "elec": 2617,
    "ectr": 2512,
    "ric ": 6039,
    "pul": 5779,
    "lch": 4140,
    " pul": 560,
    "pulc": 5780,
    "ulch": 7079,
    "lche": 4141,
    "jag": 3958,
    "uar": 6978,
    " jag": 355,
    "jagu": 3959,
    "agua": 1220,
    "guar": 3247,
    "uar ": 6979,
    "omi": 5227,
    "arac": 1473,
    "achr": 1127,
    "hrom": 3450,
    "romi": 6173,
    "omis": 5228,
    "mis ": 4567,
    "nag": 4692,
    "uen": 7034,
    "mana": 4466,
    "anag": 1376,
    "nagu": 4693,
    "ague": 1221,
    "guen": 3252,
    "uens": 7035,
    "loa": 4324,
    " loa": 401,
    "loac": 4325,
    "oach": 5049,
    "ach ": 1125,
    "mob": 4590,
    "bot": 1798,
    " chr": 122,
    "romo": 6174,
    "omob": 5234,
    "mobo": 4591,
    "obot": 5066,
    "boti": 1799,
    "otia": 5456,
    "tia ": 6770,
    "acra": 1149,
    "crac": 2113,
    "raca": 5833,
    "bala": 1696,
    "rk ": 6098,
    "shar": 6430,
    "hark": 3299,
    "ark ": 1514,
    "tio": 6795,
    "hei": 3318,
    "alan": 1285,
    "lant": 4096,
    "anti": 1427,
    "ntio": 5000,
    "tioc": 6796,
    "ioch": 3799,
    "chei": 1959,
    "heil": 3319,
    "eilo": 2600,
    "ilos": 3697,
    "los ": 4352,
    "anop": 1418,
    "nopt": 4946,
    "doll": 2350,
    "llar": 4286,
    "lar ": 4101,
    "tyn": 6959,
    "ynn": 7492,
    " met": 435,
    "mety": 4541,
    "etyn": 2918,
    "tynn": 6960,
    "ynni": 7493,
    "nnis": 4921,
    "hyp": 3492,
    "yps": 7516,
    "psa": 5751,
    "auc": 1622,
    " hyp": 338,
    "hyps": 3495,
    "ypsa": 7517,
    "psau": 5752,
    "sauc": 6357,
    "auch": 1623,
    "chen": 1962,
    "hen ": 3332,
    "hoo": 3420,
    "ook": 5306,
    "ok ": 5172,
    " hoo": 327,
    "hook": 3421,
    "ook ": 5307,
    "myl": 4666,
    "opl": 5334,
    " myl": 457,
    "mylo": 4667,
    "ylop": 7478,
    "lopl": 4345,
    "oplu": 5335,
    "plus": 5692,
    "rub": 6272,
    "ipi": 3828,
    "inn": 3775,
    " rub": 604,
    "rubr": 6273,
    "brip": 1822,
    "ripi": 6076,
    "ipin": 3829,
    "pinn": 5671,
    "inni": 3776,
    " gh": 277,
    "gho": 3158,
    " gho": 278,
    "ghos": 3159,
    "host": 3429,
    "ost ": 5431,
    " ap": 34,
    " apt": 35,
    "eron": 2828,
    "bif": 1747,
    "ifr": 3632,
    "lbif": 4131,
    "bifr": 1748,
    "ifro": 3633,
    "rons": 6179,
    "ons ": 5286,
    "ntn": 5003,
    "elep": 2620,
    "phan": 5616,
    "hant": 3294,
    "antn": 1428,
    "ntno": 5004,
    "tnos": 6828,
    " gn": 286,
    "nem": 4802,
    " gna": 287,
    "atho": 1588,
    "hone": 3419,
    "onem": 5260,
    "nemu": 4803,
    "emus": 2679,
    "ters": 6726,
    "rsii": 6246,
    "pe ": 5578,
    " rop": 599,
    "ope ": 5321,
    "erp": 2833,
    " erp": 221,
    "erpe": 2834,
    "peto": 5611,
    "etoi": 2905,
    "toic": 6845,
    "oich": 5162,
    "thys": 6766,
    "hys ": 3497,
    "aba": 1101,
    "alab": 1280,
    "laba": 4074,
    "abar": 1102,
    "bari": 1707,
    "aric": 1507,
    "cem": 1932,
    "emb": 2663,
    "acem": 1123,
    "cemb": 1933,
    "embe": 2664,
    "mbel": 4496,
    "belu": 1730,
    "thro": 6759,
    "hrot": 3451,
    "rota": 6198,
    "otae": 5445,
    "enia": 2708,
    "tir": 6799,
    " tir": 698,
    "tire": 6800,
    "rmat": 6120,
    "matu": 4487,
    "nate": 4716,
    "tip": 6797,
    "nati": 4718,
    "atip": 1595,
    "tipi": 6798,
    "lh": 4221,
    "elh": 2626,
    "lhe": 4222,
    "hez": 3350,
    "ezi": 2974,
    "zi ": 7568,
    "delh": 2261,
    "elhe": 2627,
    "lhez": 4223,
    "hezi": 3351,
    "ezi ": 2975,
    "plec": 5688,
    "leco": 4171,
    "eco ": 2501,
    "ypo": 7512,
    "omu": 5236,
    "hypo": 3494,
    "ypos": 7513,
    "post": 5713,
    "osto": 5433,
    "tomu": 6855,
    "omus": 5237,
    "cos": 2106,
    "ecos": 2504,
    "cost": 2107,
    "ist": 3879,
    "stl": 6570,
    " bri": 90,
    "rist": 6082,
    "istl": 3880,
    "stle": 6571,
    "tlen": 6818,
    "leno": 4183,
    "enos": 2718,
    "cis": 2021,
    " anc": 29,
    "anci": 1380,
    "ncis": 4737,
    "cist": 2022,
    "istr": 3881,
    "trus": 6912,
    " cir": 127,
    "pea ": 5580,
    "rino": 6067,
    "inot": 3781,
    "note": 4954,
    "otet": 5451,
    "rav": 5894,
    "trav": 6893,
    "rava": 5895,
    "vanc": 7235,
    "anco": 1381,
    "ncor": 4745,
    "cori": 2101,
    "oric": 5375,
    " ko": 371,
    "koi": 4037,
    "oi ": 5159,
    " koi": 372,
    "koi ": 4038,
    "rp ": 6212,
    "arp ": 1527,
    "ypr": 7514,
    "cypr": 2187,
    "ypri": 7515,
    "prin": 5743,
    "ofu": 5140,
    "fus": 3077,
    "ubro": 6994,
    "brof": 1825,
    "rofu": 6163,
    "ofus": 5141,
    "fusc": 3078,
    "pon": 5706,
    " pon": 543,
    "pond": 5707,
    "-k": 1018,
    "d-k": 2206,
    "-kn": 1019,
    "kne": 4029,
    "nee": 4796,
    "ed-k": 2521,
    "d-kn": 2207,
    "-kne": 1020,
    "knee": 4030,
    "nee ": 4797,
    "ntu": 5011,
    " tar": 681,
    "tara": 6666,
    "rant": 5872,
    "antu": 1430,
    "ntul": 5012,
    " ท": 831,
    "ม็": 8714,
    "นห": 8346,
    "หั": 9215,
    "เข": 9914,
    " ทา": 832,
    "ทาร": 8228,
    "รัน": 8835,
    "ันท": 9411,
    "นทู": 8312,
    "ทูล": 8235,
    "ูล่": 9867,
    "่าเ": 10333,
    "เม็": 10013,
    "ม็ก": 8715,
    "็กซ": 10252,
    "กซิ": 7585,
    "ซิก": 7991,
    "ันห": 9419,
    "นหั": 8349,
    "หัว": 9216,
    "ัวเ": 9451,
    "วเข": 9113,
    "เข่": 9915,
    "าแด": 9612,
    " ทาร": 833,
    "ทารั": 8229,
    "ารัน": 9555,
    "รันท": 8836,
    "ันทู": 9412,
    "นทูล": 8313,
    "ทูล่": 8236,
    "ูล่า": 9868,
    "ล่าเ": 9062,
    "่าเม": 10334,
    "าเม็": 9606,
    "เม็ก": 10014,
    "ม็กซ": 8716,
    "็กซิ": 10253,
    "กซิก": 7586,
    "ซิกั": 7992,
    "กันห": 7627,
    "ันหั": 9420,
    "นหัว": 8350,
    "หัวเ": 9218,
    "ัวเข": 9452,
    "วเข่": 9114,
    "เข่า": 9916,
    "ข่าแ": 7708,
    "่าแด": 10338,
    "าแดง": 9613,
    "ype": 7508,
    "lma": 4312,
    "chyp": 1991,
    "hype": 3493,
    "ypel": 7509,
    "pelm": 5591,
    "elma": 2641,
    "lma ": 4313,
    "hamo": 3290,
    "amor": 1358,
    "mori": 4608,
    "orii": 5377,
    "inv": 3793,
    "nve": 5028,
    "rte": 6256,
    "teb": 6691,
    " inv": 351,
    "inve": 3794,
    "nver": 5029,
    "vert": 7257,
    "erte": 2847,
    "rteb": 6257,
    "tebr": 6692,
    "hile": 3364,
    "ilea": 3676,
    "lean": 4166,
    "ุห": 9805,
    "บช": 8423,
    "่าก": 10308,
    "ากุ": 9460,
    "กุห": 7648,
    "ุหล": 9806,
    "าบช": 9517,
    "บชิ": 8424,
    "ิลี": 9694,
    "ลี ": 9013,
    "ล่าก": 9055,
    "่ากุ": 10309,
    "ากุห": 9461,
    "กุหล": 7649,
    "ุหลา": 9807,
    "หลาบ": 9211,
    "ลาบช": 8989,
    "าบชิ": 9518,
    "บชิล": 8425,
    "ชิลี": 7955,
    "ิลี ": 9695,
    "tol": 6850,
    "gram": 3226,
    "ramm": 5863,
    "ammo": 1355,
    "mmos": 4583,
    "most": 4612,
    "stol": 6573,
    "tola": 6851,
    "osea": 5418,
    "sea ": 6389,
    "azi": 1680,
    "zil": 7569,
    "braz": 1813,
    "razi": 5905,
    "azil": 1681,
    "zili": 7570,
    "าด": 9492,
    "ดำ": 8073,
    "ำบ": 9626,
    "่าด": 10318,
    "าดำ": 9493,
    "ดำบ": 8074,
    "ำบร": 9627,
    "ราซ": 8844,
    "ล่าด": 9058,
    "่าดำ": 10319,
    "าดำบ": 9494,
    "ดำบร": 8075,
    "ำบรา": 9628,
    "บราซ": 8432,
    "ราซิ": 8845,
    "าซิล": 9491,
    "ซิล ": 7996,
    "lchr": 4142,
    "chra": 1981,
    "hra ": 3439,
    "url": 7165,
    "rly": 6112,
    "curl": 2169,
    "urly": 7166,
    "rly ": 6113,
    "hai": 3277,
    " hai": 309,
    "hair": 3280,
    "ขน": 7696,
    "ยิ": 8760,
    "่าข": 10311,
    "าขน": 9468,
    "ขนห": 7697,
    "นหย": 8347,
    "หยิ": 9205,
    "ยิก": 8761,
    "ล่าข": 9056,
    "่าขน": 10312,
    "าขนห": 9469,
    "ขนหย": 7698,
    "นหยิ": 8348,
    "หยิก": 9206,
    "ยิก ": 8762,
    " tl": 699,
    "tli": 6819,
    "lil": 4248,
    "lto": 4395,
    "atl": 1598,
    " tli": 700,
    "tlil": 6820,
    "lilt": 4249,
    "ilto": 3701,
    "ltoc": 4396,
    "toca": 6834,
    "ocat": 5073,
    "catl": 1906,
    "atl ": 1599,
    "bop": 1789,
    "opi": 5332,
    "albo": 1291,
    "lbop": 4134,
    "bopi": 1790,
    "opil": 5333,
    "losu": 4354,
    "ttl": 6929,
    " bot": 84,
    "bott": 1800,
    "ottl": 5472,
    "ttle": 6930,
    "tope": 6866,
    "pub": 5772,
    "ube": 6985,
    "bes": 1737,
    "yane": 7415,
    "aneo": 1392,
    "eopu": 2751,
    "opub": 5346,
    "pube": 5773,
    "ubes": 6986,
    "besc": 1738,
    " /": 0,
    "/ ": 1047,
    " / ": 1,
    "vy": 7305,
    "eav": 2470,
    "avy": 1651,
    "vy ": 7306,
    " hea": 313,
    "heav": 3310,
    "eavy": 2471,
    "avy ": 1652,
    "web": 7330,
    "ebb": 2473,
    " web": 749,
    "webb": 7331,
    "ebbe": 2474,
    "bber": 1715,
    "ber ": 1734,
    "kt": 4047,
    "nkt": 4909,
    "kto": 4048,
    "toe": 6840,
    "oe ": 5123,
    "pink": 5670,
    "inkt": 3774,
    "nkto": 4910,
    "ktoe": 4049,
    "toe ": 6841,
    "่าพ": 10322,
    "าพิ": 9529,
    "พิง": 8555,
    "ิงค": 9650,
    "งค์": 7841,
    "ค์โ": 7828,
    "์โท": 10506,
    "โท ": 10169,
    "ล่าพ": 9059,
    "่าพิ": 10323,
    "าพิง": 9530,
    "พิงค": 8557,
    "ิงค์": 9651,
    "งค์โ": 7842,
    "ค์โท": 7829,
    "์โท ": 10507,
    " av": 57,
    " avi": 58,
    "avic": 1648,
    "vicu": 7272,
    "cob": 2068,
    " cob": 135,
    "coba": 2069,
    "obal": 5060,
    "balt": 1698,
    "alt ": 1324,
    "ำเ": 9629,
    "เง": 9929,
    "งิ": 7870,
    "คบ": 7731,
    "าสี": 9586,
    "สีน": 9161,
    "ีน้": 9743,
    "้ำเ": 10395,
    "ำเง": 9630,
    "เงิ": 9930,
    "งิน": 7871,
    "ินโ": 9675,
    "นโค": 8401,
    "โคบ": 10153,
    "คบอ": 7732,
    "อลต": 9299,
    "ล่าส": 9060,
    "่าสี": 10329,
    "าสีน": 9587,
    "สีน้": 9162,
    "ีน้ำ": 9744,
    "น้ำเ": 8421,
    "้ำเง": 10396,
    "ำเงิ": 9631,
    "เงิน": 9931,
    "งินโ": 7872,
    "ินโค": 9676,
    "นโคบ": 8402,
    "โคบอ": 10154,
    "คบอล": 7733,
    "บอลต": 8454,
    "อลต์": 9300,
    "cyr": 2188,
    " cyr": 160,
    "cyri": 2189,
    "yrio": 7525,
    "iopa": 3813,
    "pago": 5554,
    "agop": 1218,
    "gopu": 3214,
    "liv": 4270,
    "vid": 7273,
    "idu": 3592,
    " liv": 398,
    "livi": 4271,
    "ivid": 3940,
    "vidu": 7274,
    "idus": 3593,
    "dus ": 2402,
    "fos": 3051,
    "sso": 6543,
    "sor": 6514,
    " fos": 257,
    "foss": 3052,
    "osso": 5427,
    "ssor": 6544,
    "sori": 6515,
    "goo": 3210,
    "oty": 5476,
    " goo": 292,
    "goot": 3211,
    "ooty": 5314,
    "oty ": 5477,
    "sap": 6352,
    "pph": 5726,
    " sap": 613,
    "sapp": 6353,
    "apph": 1458,
    "pphi": 5727,
    "phir": 5628,
    "hire": 3379,
    "rnam": 6132,
    "amen": 1350,
    "ment": 4528,
    "ูต": 9840,
    "ตี": 8150,
    "แซ": 10088,
    "ซฟ": 7968,
    "ฟไ": 8620,
    "ากู": 9462,
    "กูต": 7654,
    "ูตี": 9841,
    "ตี้": 8151,
    "้แซ": 10398,
    "แซฟ": 10089,
    "ซฟไ": 7969,
    "ฟไฟ": 8621,
    "่ากู": 10310,
    "ากูต": 9463,
    "กูตี": 7655,
    "ูตี้": 9842,
    "ตี้แ": 8152,
    "ี้แซ": 9789,
    "้แซฟ": 10399,
    "แซฟไ": 10090,
    "ซฟไฟ": 7970,
    "ฟไฟร": 8622,
    "ฟร์ ": 8588,
    "poe": 5696,
    "oec": 5124,
    " poe": 539,
    "poec": 5697,
    "oeci": 5125,
    "ecil": 2494,
    "cilo": 2010,
    "loth": 4357,
    "heri": 3342,
    "meta": 4539,
    "etal": 2893,
    "tall": 6654,
    "llic": 4295,
    "lmo": 4318,
    "salm": 6347,
    "almo": 1316,
    "lmon": 4319,
    "dea": 2251,
    "irde": 3847,
    "rdea": 5935,
    "deat": 2252,
    "นพ": 8328,
    "าแซ": 9610,
    "แซล": 10091,
    "ซลม": 7972,
    "อนพ": 9254,
    "นพิ": 8329,
    "ิงก": 9648,
    "ก์เ": 7692,
    "์ดอ": 10423,
    "ดอี": 8063,
    "อีท": 9342,
    "ีทเ": 9733,
    "ทเต": 8244,
    "ล่าแ": 9063,
    "่าแซ": 10337,
    "าแซล": 9611,
    "แซลม": 10092,
    "ซลมอ": 7973,
    "ลมอน": 8966,
    "มอนพ": 8667,
    "อนพิ": 9255,
    "นพิง": 8330,
    "พิงก": 8556,
    "ิงก์": 9649,
    "งก์เ": 7834,
    "ก์เบ": 7693,
    "์เบิ": 10484,
    "ร์ดอ": 8902,
    "์ดอี": 10424,
    "ดอีท": 8064,
    "อีทเ": 9343,
    "ีทเต": 9734,
    "ทเตอ": 8245,
    "iod": 3800,
    " las": 383,
    "lasi": 4107,
    "asio": 1550,
    "siod": 6465,
    "iodo": 3801,
    "rah": 5849,
    "ahy": 1233,
    "yba": 7420,
    "arah": 1476,
    "rahy": 5850,
    "ahyb": 1234,
    "hyba": 3479,
    "yban": 7421,
    "bana": 1703,
    " foo": 255,
    "food": 3046,
    " dri": 188,
    "driv": 2382,
    "rive": 6092,
    "ven ": 7251,
    " tha": 692,
    "thai": 6743,
    "hai ": 3278,
    "บึ": 8481,
    "ึ้": 9791,
    "งม": 7849,
    "ยไ": 8769,
    "ทย": 8203,
    " บึ": 848,
    "บึ้": 8482,
    "ึ้ง": 9792,
    "้งม": 10353,
    "งม้": 7850,
    "้าล": 10387,
    "ลาย": 8994,
    "ายไ": 9551,
    "ยไท": 8770,
    "ไทย": 10221,
    "ทย ": 8204,
    " บึ้": 849,
    "บึ้ง": 8483,
    "ึ้งม": 9794,
    "้งม้": 10354,
    "งม้า": 7851,
    "ม้าล": 8723,
    "้าลา": 10388,
    "าลาย": 9572,
    "ลายไ": 8995,
    "ายไท": 9552,
    "ยไทย": 8771,
    "ไทย ": 10222,
    "oeu": 5130,
    "lopo": 4346,
    "opoe": 5337,
    "poeu": 5698,
    "oeus": 5131,
    "bos": 1796,
    "lbos": 4136,
    "bost": 1797,
    "hail": 3279,
    "aila": 1239,
    "ilan": 3666,
    "งด": 7843,
    "ำไ": 9632,
    "้งด": 10349,
    "งดำ": 7844,
    "ดำไ": 8076,
    "ำไท": 9633,
    "ึ้งด": 9793,
    "้งดำ": 10350,
    "งดำไ": 7845,
    "ดำไท": 8077,
    "ำไทย": 9634,
    "nax": 4720,
    "mina": 4559,
    "inax": 3735,
    "nax ": 4721,
    "hua": 3461,
    "uah": 6970,
    "ahi": 1227,
    " hua": 331,
    "huah": 3462,
    "uahi": 6971,
    "ahin": 1228,
    " ear": 198,
    "eart": 2460,
    "rth ": 6259,
    "งห": 7864,
    "วห": 9093,
    "หิ": 9219,
    "้งห": 10357,
    "งหั": 7865,
    "ัวห": 9449,
    "วหิ": 9094,
    "หิน": 9220,
    "ึ้งห": 9795,
    "้งหั": 10358,
    "งหัว": 7866,
    "หัวห": 9217,
    "ัวหิ": 9450,
    "วหิน": 9095,
    "หิน ": 9221,
    "obr": 5067,
    "hilo": 3367,
    "ilob": 3696,
    "lobr": 4328,
    "obra": 5068,
    "chys": 1992,
    "hini": 3372,
    "่ไ": 10342,
    "ผ่ไ": 8521,
    "่ไท": 10343,
    "ึ้งไ": 9796,
    "ไผ่ไ": 10228,
    "ผ่ไท": 8522,
    "่ไทย": 10344,
    "tak": 6646,
    "aks": 1268,
    "ksi": 4043,
    " tak": 678,
    "taks": 6647,
    "aksi": 1269,
    "ksin": 4044,
    "ambu": 1346,
    "mbus": 4510,
    "ฟฟ": 8577,
    "ฟ้": 8626,
    "นไ": 8407,
    "งไฟ": 7916,
    "ไฟฟ": 10237,
    "ฟฟ้": 8578,
    "ฟ้า": 8627,
    "้าส": 10389,
    "ินไ": 9677,
    "นไท": 8408,
    "้งไฟ": 10361,
    "งไฟฟ": 7917,
    "ไฟฟ้": 10238,
    "ฟฟ้า": 8579,
    "ฟ้าส": 8628,
    "้าสี": 10390,
    "งินไ": 7873,
    "ินไท": 9678,
    "นไทย": 8409,
    "atan": 1576,
    "tani": 6661,
    "anic": 1400,
    "nich": 4868,
    "char": 1955,
    "haru": 3300,
    "arum": 1537,
    "ntil": 4998,
    "till": 6787,
    "lles": 4290,
    "ทแ": 8246,
    "ิบ": 9679,
    "บเ": 8489,
    "ก์โ": 7694,
    "โทแ": 10176,
    "ทแค": 8247,
    "ริบ": 8855,
    "ิบเ": 9680,
    "บเบ": 8490,
    "งก์โ": 7835,
    "ก์โท": 7695,
    "์โทแ": 10508,
    "โทแค": 10177,
    "ทแคร": 8248,
    "แคริ": 10082,
    "คริบ": 7757,
    "ริบเ": 8856,
    "ิบเบ": 9681,
    "บเบี": 8491,
    "บียน": 8479,
    "ibe": 3533,
    "ben": 1731,
    "arib": 1506,
    "ribe": 6035,
    "iben": 3534,
    "bena": 1732,
    "ena ": 2690,
    "tek": 6700,
    "ekn": 2605,
    "itek": 3900,
    "tekn": 6701,
    "ekne": 2606,
    "ขา": 7699,
    "่าห": 10331,
    "าหั": 9596,
    "าขา": 9470,
    "ขาว": 7700,
    "าวบ": 9575,
    "วบร": 9083,
    "ล่าห": 9061,
    "่าหั": 10332,
    "าหัว": 9597,
    "ข่าข": 7706,
    "่าขา": 10313,
    "าขาว": 9471,
    "ขาวบ": 7701,
    "าวบร": 9576,
    "วบรา": 9084,
    "ntho": 4994,
    "thos": 6755,
    "hosc": 3428,
    "oscu": 5415,
    "scur": 6384,
    "curr": 2170,
    "urri": 7179,
    "rria": 6227,
    "geni": 3134,
    "enic": 2709,
    "nicu": 4870,
    "lata": 4110,
    "od-": 5102,
    "d-a": 2192,
    "ood-": 5305,
    "od-a": 5103,
    "d-ag": 2193,
    "eg ": 2576,
    "edle": 2537,
    "dleg": 2330,
    "leg ": 4176,
    "ขาแ": 7702,
    "ดงเ": 8035,
    "งเม": 7906,
    "าขาแ": 9472,
    "ขาแด": 7703,
    "แดงเ": 10096,
    "ดงเม": 8036,
    "งเม็": 7907,
    " emi": 213,
    "emil": 2669
  },
  "idf": [
    5.927253685157205,
    5.927253685157205,
    1.3022808718729337,
    3.03688192726104,
    5.23410650459726,
    5.927253685157205,
    3.12389330425067,
    5.927253685157205,
    5.927253685157205,
    5.23410650459726,
    5.927253685157205,
    5.5217885770490405,
    4.222505592918779,
    4.222505592918779,
    4.317815772723105,
    5.5217885770490405,
    4.540959324037314,
    3.401525040848949,
    4.828641396489095,
    5.927253685157205,
    3.847812143477369,
    5.5217885770490405,
    5.927253685157205,
    3.0940403411009885,
    5.01096295328305,
    5.5217885770490405,
    5.927253685157205,
    3.1864136612320038,
    4.317815772723105,
    5.927253685157205,
    5.23410650459726,
    5.927253685157205,
    5.927253685157205,
    5.23410650459726,
    5.927253685157205,
    5.927253685157205,
    2.5599578551707305,
    2.5599578551707305,
    2.035433387046578,
    4.4231762883809305,
    2.09861228866811,
    5.927253685157205,
    5.927253685157205,
    5.5217885770490405,
    5.5217885770490405,
    5.01096295328305,
    5.927253685157205,
    5.927253685157205,
    5.927253685157205,
    5.927253685157205,
    5.23410650459726,
    5.927253685157205,
    5.927253685157205,
    5.927253685157205,
    5.01096295328305,
    5.23410650459726,
    5.927253685157205,
    5.927253685157205,
    5.927253685157205,
    5.927253685157205,
    5.927253685157205,
    1.9760099665757773,
    4.674490716661836,
    5.5217885770490405,
    5.5217885770490405,
    5.927253685157205,
    5.927253685157205,
    5.01096295328305,
    5.5217885770490405,
    5.927253685157205,
    5.927253685157205,
    2.595049174982001,
    5.01096295328305,
    2.7285805676065236,
    5.5217885770490405,
    5.927253685157205,
    3.787187521660934,
    4.674490716661836,
    5.927253685157205,
    4.317815772723105,
    3.787187521660934,
    4.540959324037314,
    5.23410650459726,
    5.5217885770490405,
    5.927253685157205,
    5.5217885770490405,
    5.927253685157205,
    4.13549421592915,
    4.540959324037314,
    5.5217885770490405,
    5.927253685157205,
    5.927253685157205,
    4.222505592918779,
    5.5217885770490405,
    5.927253685157205,
    5.927253685157205,
    5.01096295328305,
    5.927253685157205,
    5.23410650459726,
    1.3733767935566639,
    1.6505875661411493,
    5.01096295328305,
    5.927253685157205,
    5.23410650459726,
    2.386294361119891,
    5.927253685157205,
    5.01096295328305,
    5.5217885770490405,
    2.120591195386885,
    5.927253685157205,
    5.01096295328305,
    5.927253685157205,
    5.5217885770490405,
    5.01096295328305,
    5.927253685157205,
    5.5217885770490405,
    5.927253685157205,
    3.4849066497880004,
    5.23410650459726,
    5.01096295328305,
    4.13549421592915,
    5.5217885770490405,
    5.5217885770490405,
    4.540959324037314,
    5.23410650459726,
    5.927253685157205,
    5.927253685157205,
    5.927253685157205,
    5.927253685157205,
    4.674490716661836,
    5.5217885770490405,
    5.927253685157205,
    5.23410650459726,
    3.0650528042277365,
    5.927253685157205,
    5.927253685157205,
    4.4231762883809305,
    5.927253685157205,
    5.23410650459726,
    4.674490716661836,
    4.540959324037314,
    4.674490716661836,
    5.927253685157205,
    3.9813435361018916,
    5.23410650459726,
    5.927253685157205,
    5.23410650459726,
    5.23410650459726,
    4.828641396489095,
    5.927253685157205,
    4.13549421592915,
    5.5217885770490405,
    5.927253685157205,
    4.4231762883809305,
    5.927253685157205,
    4.13549421592915,
    5.23410650459726,
    5.927253685157205,
    5.23410650459726,
    5.5217885770490405,
    5.5217885770490405,
    2.526056303495049,
    4.317815772723105,
    5.5217885770490405,
    5.23410650459726,
    5.927253685157205,
    5.23410650459726,
    3.4423470353692043,
    4.222505592918779,
    5.927253685157205,
    4.674490716661836,
    5.5217885770490405,
    5.01096295328305,
    5.927253685157205,
    4.828641396489095,
    5.5217885770490405,
    5.927253685157205,
    5.927253685157205,
    5.927253685157205,
    3.847812143477369,
    5.01096295328305,
    5.927253685157205,
    5.23410650459726,
    4.828641396489095,
    5.927253685157205,
    5.927253685157205,
    4.540959324037314,
    4.828641396489095,
    5.927253685157205,
    5.927253685157205,
    5.927253685157205,
    5.927253685157205,
    5.23410650459726,
    5.23410650459726,
    5.927253685157205,
    5.927253685157205,
    1.9475720312552438,
    2.3299414245687586,
    5.5217885770490405,
    2.3577209886758346,
    5.5217885770490405,
    5.927253685157205,
    5.927253685157205,
    5.23410650459726,
    5.23410650459726,
    5.927253685157205,
    5.927253685157205,
    4.540959324037314,
    5.927253685157205,
    4.828641396489095,
    5.927253685157205,
    5.01096295328305,
    5.5217885770490405,
    5.927253685157205,
    5.927253685157205,
    5.927253685157205,
    5.927253685157205,
    5.927253685157205,
    5.927253685157205,
    4.828641396489095,
    5.927253685157205,
    5.927253685157205,
    5.23410650459726,
    5.01096295328305,
    5.927253685157205,
    5.927253685157205,
    5.5217885770490405,
    3.7300291078209855,
    5.927253685157205,
    5.927253685157205,
    4.055451508255613,
    4.4231762883809305,
    1.995428052432879,
    4.4231762883809305,
    5.927253685157205,
    5.927253685157205,
    5.5217885770490405,
    5.23410650459726,
    5.927253685157205,
    4.828641396489095,
    5.5217885770490405,
    5.927253685157205,
    5.5217885770490405,
    2.6314168191528755,
    5.927253685157205,
    5.927253685157205,
    5.927253685157205,
    5.01096295328305,
    4.674490716661836,
    2.8592007500235876,
    5.23410650459726,
    5.927253685157205,
    5.927253685157205,
    5.927253685157205,
    4.317815772723105,
    5.5217885770490405,
    5.927253685157205,
    4.828641396489095,
    5.927253685157205,
    2.386294361119891,
    2.7285805676065236,
    5.01096295328305,
    3.7300291078209855,
    5.5217885770490405,
    5.5217885770490405,
    2.005280348875891,
    4.674490716661836,
    5.23410650459726,
    5.927253685157205,
    5.5217885770490405,
    3.362304327695668,
    4.13549421592915,
    5.927253685157205,
    4.222505592918779,
    5.23410650459726,
    5.927253685157205,
    5.927253685157205,
    5.927253685157205,
    5.927253685157205,
    5.01096295328305,
    5.23410650459726,
    5.927253685157205,
    5.927253685157205,
    5.5217885770490405,
    5.927253685157205,
    5.927253685157205,
    5.927253685157205,
    5.927253685157205,
    4.317815772723105,
    5.927253685157205,
    5.23410650459726,
    5.5217885770490405,
    5.927253685157205,
    5.927253685157205,
    5.927253685157205,
    2.4307461236907244,
    3.91235066461494,
    4.13549421592915,
    5.927253685157205,
    2.8137383759468304,
    4.828641396489095,
    5.5217885770490405,
    5.927253685157205,
    5.5217885770490405,
    5.927253685157205,
    5.927253685157205,
    1.7605884613554776,
    2.045689887213767,
    5.927253685157205,
    5.927253685157205,
    4.674490716661836,
    2.13176449598501,
    3.12389330425067,
    5.927253685157205,
    5.5217885770490405,
    5.927253685157205,
    5.5217885770490405,
    5.927253685157205,
    3.401525040848949,
    5.927253685157205,
    3.847812143477369,
    3.9813435361018916,
    5.927253685157205,
    5.927253685157205,
    4.674490716661836,
    5.927253685157205,
    5.927253685157205,
    5.927253685157205,
    5.5217885770490405,
    5.927253685157205,
    5.5217885770490405,
    5.927253685157205,
    5.927253685157205,
    4.674490716661836,
    5.927253685157205,
    5.927253685157205,
    5.927253685157205,
    5.927253685157205,
    5.5217885770490405,
    2.446013595821513,
    5.927253685157205,
    5.927253685157205,
    5.5217885770490405,
    5.5217885770490405,
    5.5217885770490405,
    5.927253685157205,
    5.927253685157205,
    2.5095270015438387,
    5.23410650459726,
    2.708377860289004,
    4.4231762883809305,
    3.7300291078209855,
    4.222505592918779,
    4.222505592918779,
    5.01096295328305,
    5.927253685157205,
    5.927253685157205,
    5.5217885770490405,
    5.927253685157205,
    5.927253685157205,
    5.927253685157205,
    5.927253685157205,
    4.055451508255613,
    5.927253685157205,
    5.927253685157205,
    4.828641396489095,
    5.927253685157205,
    5.01096295328305,
    5.23410650459726,
    5.5217885770490405,
    5.927253685157205,
    5.927253685157205,
    5.927253685157205,
    5.927253685157205,
    5.927253685157205,
    5.927253685157205,
    5.927253685157205,
    1.2685427322410834,
    4.222505592918779,
    5.927253685157205,
    5.5217885770490405,
    5.01096295328305,
    5.927253685157205,
    5.927253685157205,
    5.927253685157205,
    4.222505592918779,
    5.927253685157205,
    5.927253685157205,
    5.5217885770490405,
    5.23410650459726,
    5.927253685157205,
    5.927253685157205,
    5.927253685157205,
    3.0094829530729257,
    5.927253685157205,
    5.5217885770490405,
    5.927253685157205,
    5.927253685157205,
    5.927253685157205,
    3.1864136612320038,
    1.3577106768122644,
    5.927253685157205,
    5.927253685157205,
    5.927253685157205,
    5.927253685157205,
    5.927253685157205,
    5.01096295328305,
    5.927253685157205,
    1.3733767935566639,
    5.23410650459726,
    5.927253685157205,
    5.927253685157205,
    5.927253685157205,
    1.2685427322410834,
    2.4008931605410435,
    4.222505592918779,
    5.927253685157205,
    5.01096295328305,
    2.8827312474337816,
    5.5217885770490405,
    5.5217885770490405,
    4.540959324037314,
    5.23410650459726,
    5.927253685157205,
    5.927253685157205,
    5.927253685157205,
    5.927253685157205,
    1.455614891793636,
    1.5084130773606068,
    5.927253685157205,
    4.828641396489095,
    5.927253685157205,
    5.927253685157205,
    5.5217885770490405,
    5.927253685157205,
    5.5217885770490405,
    5.23410650459726,
    5.927253685157205,
    3.787187521660934,
    5.927253685157205,
    4.13549421592915,
    5.5217885770490405,
    5.927253685157205,
    5.927253685157205,
    3.4849066497880004,
    5.927253685157205,
    5.5217885770490405,
    4.222505592918779,
    5.01096295328305,
    5.927253685157205,
    5.927253685157205,
    5.23410650459726,
    4.674490716661836,
    5.927253685157205,
    4.828641396489095,
    5.23410650459726,
    5.927253685157205,
    5.927253685157205,
    5.927253685157205,
    1.0072727593290798,
    4.828641396489095,
    5.927253685157205,
    5.5217885770490405,
    5.5217885770490405,
    4.055451508255613,
    5.927253685157205,
    5.927253685157205,
    5.927253685157205,
    5.927253685157205,
    4.4231762883809305,
    5.5217885770490405,
    5.5217885770490405,
    1.0072727593290798,
    1.0482468335393855,
    1.4274440148269396,
    5.927253685157205,
    5.927253685157205,
    5.927253685157205,
    5.927253685157205,
    5.927253685157205,
    5.927253685157205,
    5.927253685157205,
    5.927253685157205,
    1.7151260872787204,
    5.01096295328305,
    5.5217885770490405,
    5.5217885770490405,
    5.5217885770490405,
    5.927253685157205,
    5.927253685157205,
    5.927253685157205,
    5.927253685157205,
    1.8329091229351038,
    1.8329091229351038,
    5.927253685157205,
    5.927253685157205,
    5.5217885770490405,
    5.927253685157205,
    5.927253685157205,
    4.4231762883809305,
    5.5217885770490405,
    5.01096295328305,
    5.927253685157205,
    5.927253685157205,
    5.23410650459726,
    5.927253685157205,
    5.5217885770490405,
    5.927253685157205,
    5.927253685157205,
    1.5641550603688419,
    2.2383742310432684,
    5.5217885770490405,
    5.5217885770490405,
    2.386294361119891,
    5.5217885770490405,
    5.23410650459726,
    3.03688192726104,
    5.927253685157205,
    3.91235066461494,
    4.4231762883809305,
    5.23410650459726,
    5.23410650459726,
    4.222505592918779,
    5.23410650459726,
    5.927253685157205,
    5.23410650459726,
    5.927253685157205,
    5.5217885770490405,
    4.222505592918779,
    5.5217885770490405,
    5.01096295328305,
    5.5217885770490405,
    5.927253685157205,
    5.5217885770490405,
    4.317815772723105,
    4.828641396489095,
    5.23410650459726,
    5.927253685157205,
    3.4423470353692043,
    5.927253685157205,
    5.5217885770490405,
    4.317815772723105,
    5.01096295328305,
    5.927253685157205,
    5.5217885770490405,
    5.5217885770490405,
    5.927253685157205,
    5.927253685157205,
    3.253105035730676,
    5.5217885770490405,
    3.91235066461494,
    5.01096295328305,
    4.317815772723105,
    4.674490716661836,
    5.927253685157205,
    4.828641396489095,
    5.23410650459726,
    5.23410650459726,
    4.317815772723105,
    5.01096295328305,
    5.5217885770490405,
    5.927253685157205,
    5.927253685157205,
    5.927253685157205,
    3.847812143477369,
    5.5217885770490405,
    5.5217885770490405,
    4.222505592918779,
    5.927253685157205,
    5.5217885770490405,
    5.5217885770490405,
    5.5217885770490405,
    1.6787584431078457,
    3.91235066461494,
    5.927253685157205,
    5.927253685157205,
    5.5217885770490405,
    5.5217885770490405,
    4.540959324037314,
    5.927253685157205,
    1.9760099665757773,
    3.9813435361018916,
    5.927253685157205,
    5.927253685157205,
    5.927253685157205,
    2.087801372563894,
    5.927253685157205,
    5.927253685157205,
    5.5217885770490405,
    5.927253685157205,
    5.927253685157205,
    5.01096295328305,
    5.927253685157205,
    5.5217885770490405,
    5.927253685157205,
    3.1546649629174235,
    5.927253685157205,
    5.23410650459726,
    3.624668592163159,
    5.927253685157205,
    5.927253685157205,
    4.674490716661836,
    5.927253685157205,
    4.674490716661836,
    5.5217885770490405,
    5.23410650459726,
    5.927253685157205,
    1.2222381641993971,
    3.9813435361018916,
    5.927253685157205,
    5.5217885770490405,
    4.674490716661836,
    5.5217885770490405,
    5.927253685157205,
    5.927253685157205,
    4.4231762883809305,
    5.5217885770490405,
    5.927253685157205,
    5.23410650459726,
    5.927253685157205,
    5.927253685157205,
    2.9568392195875033,
    5.927253685157205,
    5.5217885770490405,
    3.624668592163159,
    3.9813435361018916,
    5.5217885770490405,
    5.927253685157205,
    3.4849066497880004,
    5.5217885770490405,
    5.927253685157205,
    5.23410650459726,
    3.6759618865507098,
    4.674490716661836,
    5.927253685157205,
    5.23410650459726,
    5.927253685157205,
    5.927253685157205,
    3.91235066461494,
    3.9813435361018916,
    5.927253685157205,
    5.927253685157205,
    5.927253685157205,
    4.222505592918779,
    4.222505592918779,
    3.1546649629174235,
    3.1546649629174235,
    1.4499168706789982,
    4.055451508255613,
    5.5217885770490405,
    1.5266506649103877,
    5.927253685157205,
    5.927253685157205,
    4.540959324037314,
    5.23410650459726,
    5.927253685157205,
    5.927253685157205,
    5.927253685157205,
    5.927253685157205,
    5.5217885770490405,
    5.5217885770490405,
    3.6759618865507098,
    5.5217885770490405,
    5.23410650459726,
    5.23410650459726,
    4.222505592918779,
    4.317815772723105,
    5.927253685157205,
    5.927253685157205,
    5.5217885770490405,
    5.23410650459726,
    5.5217885770490405,
    5.5217885770490405,
    5.927253685157205,
    5.927253685157205,
    1.2732933349996813,
    3.401525040848949,
    5.5217885770490405,
    5.927253685157205,
    5.927253685157205,
    5.5217885770490405,
    3.7300291078209855,
    5.5217885770490405,
    1.93826963859293,
    5.5217885770490405,
    5.927253685157205,
    5.927253685157205,
    5.927253685157205,
    1.9664405155596265,
    5.23410650459726,
    5.23410650459726,
    5.01096295328305,
    5.23410650459726,
    5.927253685157205,
    4.674490716661836,
    5.23410650459726,
    5.927253685157205,
    5.927253685157205,
    5.927253685157205,
    5.927253685157205,
    5.927253685157205,
    3.2192034840549946,
    5.23410650459726,
    5.927253685157205,
    5.927253685157205,
    5.927253685157205,
    4.222505592918779,
    5.927253685157205,
    3.91235066461494,
    1.9760099665757773,
    2.1095413592003,
    4.317815772723105,
    4.828641396489095,
    3.9813435361018916,
    3.9813435361018916,
    5.927253685157205,
    5.927253685157205,
    4.674490716661836,
    5.927253685157205,
    5.927253685157205,
    5.23410650459726,
    5.927253685157205,
    5.927253685157205,
    5.927253685157205,
    5.5217885770490405,
    5.5217885770490405,
    3.575878427993727,
    4.674490716661836,
    5.927253685157205,
    4.828641396489095,
    4.4231762883809305,
    5.927253685157205,
    5.5217885770490405,
    4.828641396489095,
[...]
