{
  "vocabulary": {
    " b": 63,
    "ba": 1730,
    "al": 1300,
    "ll": 4365,
    "l ": 4137,
    " ba": 64,
    "bal": 1736,
    "all": 1341,
    "ll ": 4366,
    " bal": 65,
    "ball": 1738,
    "all ": 1342,
    " p": 520,
    "py": 5895,
    "yt": 7683,
    "th": 6865,
    "ho": 3475,
    "on": 5346,
    "n ": 4766,
    " py": 575,
    "pyt": 5903,
    "yth": 7686,
    "tho": 6878,
    "hon": 3488,
    "on ": 5347,
    " pyt": 578,
    "pyth": 5904,
    "ytho": 7687,
    "thon": 6879,
    "hon ": 3489,
    " บ": 853,
    "บอ": 8616,
    "อล": 9477,
    "ลไ": 9217,
    "ไพ": 10426,
    "พธ": 8694,
    "ธอ": 8416,
    "อน": 9427,
    "น ": 8425,
    " บอ": 856,
    "บอล": 8617,
    "อลไ": 9482,
    "ลไพ": 9218,
    "ไพธ": 10427,
    "พธอ": 8695,
    "ธอน": 8417,
    "อน ": 9428,
    " บอล": 857,
    "บอลไ": 8619,
    "อลไพ": 9483,
    "ลไพธ": 9219,
    "ไพธอ": 10428,
    "พธอน": 8696,
    "ธอน ": 8418,
    " r": 583,
    "re": 6056,
    "eg": 2634,
    "gi": 3227,
    "iu": 4005,
    "us": 7323,
    "s ": 6439,
    " re": 591,
    "reg": 6082,
    "egi": 2640,
    "giu": 3242,
    "ius": 4012,
    "us ": 7324,
    " reg": 594,
    "regi": 6083,
    "egiu": 2642,
    "gius": 3243,
    "ius ": 4013,
    "ep": 2815,
    "pt": 5867,
    "ti": 6893,
    "il": 3738,
    "le": 4246,
    "e ": 2469,
    "rep": 6096,
    "ept": 2830,
    "pti": 5874,
    "til": 6910,
    "ile": 3749,
    "le ": 4247,
    " rep": 596,
    "rept": 6098,
    "epti": 2832,
    "ptil": 5875,
    "tile": 6912,
    "ile ": 3750,
    " s": 618,
    "sn": 6613,
    "na": 4780,
    "ak": 1291,
    "ke": 4075,
    " sn": 656,
    "sna": 6614,
    "nak": 4790,
    "ake": 1294,
    "ke ": 4076,
    " sna": 657,
    "snak": 6615,
    "nake": 4791,
    "ake ": 1295,
    " c": 103,
    "ca": 1901,
    "ar": 1506,
    "rn": 6243,
    "ni": 4957,
    "iv": 4014,
    "vo": 7426,
    "or": 5456,
    " ca": 104,
    "car": 1938,
    "arn": 1562,
    "rni": 6249,
    "niv": 4992,
    "ivo": 4025,
    "vor": 7431,
    "ore": 5472,
    "re ": 6057,
    " car": 112,
    "carn": 1945,
    "arni": 1563,
    "rniv": 6254,
    "nivo": 4993,
    "ivor": 4026,
    "vore": 7433,
    "ore ": 5473,
    " t": 686,
    "te": 6808,
    "er": 2836,
    "rr": 6329,
    "es": 2923,
    "st": 6671,
    "tr": 7013,
    "ri": 6140,
    "ia": 3583,
    " te": 694,
    "ter": 6842,
    "err": 2898,
    "rre": 6332,
    "res": 6099,
    "est": 2947,
    "str": 6699,
    "tri": 7025,
    "ria": 6142,
    "ial": 3587,
    "al ": 1301,
    " ter": 699,
    "terr": 6851,
    "erre": 2900,
    "rres": 6335,
    "rest": 6103,
    "estr": 2950,
    "stri": 6702,
    "tria": 7026,
    "rial": 6144,
    "ial ": 3588,
    "lm": 4399,
    "m ": 4529,
    "cal": 1912,
    "alm": 1347,
    "lm ": 4400,
    " cal": 108,
    "calm": 1919,
    "alm ": 1348,
    " e": 201,
    "ea": 2496,
    "as": 1582,
    "sy": 6735,
    "y ": 7538,
    " ea": 202,
    "eas": 2518,
    "asy": 1607,
    "sy ": 6736,
    " eas": 204,
    "easy": 2521,
    "asy ": 1608,
    " l": 386,
    "lo": 4411,
    "ow": 5620,
    "w ": 7447,
    " lo": 409,
    "low": 4453,
    "ow ": 5621,
    " low": 417,
    "low ": 4454,
    " n": 468,
    "no": 5018,
    "o ": 5141,
    " no": 481,
    "no ": 5019,
    " no ": 482,
    " y": 772,
    "ye": 7582,
    " ye": 773,
    "yes": 7590,
    "es ": 2924,
    " yes": 775,
    "yes ": 7591,
    "so": 6617,
    "ol": 5279,
    "li": 4311,
    "it": 3964,
    "ta": 6757,
    "ry": 6417,
    " so": 658,
    "sol": 6625,
    "oli": 5294,
    "lit": 4353,
    "ita": 3970,
    "tar": 6791,
    "ary": 1579,
    "ry ": 6418,
    " sol": 661,
    "soli": 6626,
    "olit": 5299,
    "lita": 4354,
    "itar": 3974,
    "tary": 6796,
    "ary ": 1580,
    "o_": 5142,
    "_d": 1096,
    "di": 2344,
    "ir": 3922,
    "ec": 2542,
    "ct": 2182,
    "t_": 6752,
    "_w": 1122,
    "wi": 7482,
    "ld": 4230,
    "dl": 2381,
    "if": 3696,
    "fe": 3057,
    "e_": 2491,
    "_p": 1108,
    "pe": 5684,
    "rm": 6228,
    "mi": 4638,
    "_s": 1114,
    "si": 6563,
    "ig": 3710,
    "gn": 3256,
    "no_": 5020,
    "o_d": 5143,
    "_di": 1097,
    "dir": 2371,
    "ire": 3930,
    "rec": 6065,
    "ect": 2565,
    "ct_": 2184,
    "t_w": 6755,
    "_wi": 1123,
    "wil": 7483,
    "ild": 3744,
    "ldl": 4242,
    "dli": 2388,
    "lif": 4328,
    "ife": 3700,
    "fe_": 3058,
    "e_p": 2494,
    "_pe": 1109,
    "per": 5705,
    "erm": 2880,
    "rmi": 6237,
    "mit": 4661,
    "it_": 3968,
    "t_s": 6753,
    "_si": 1115,
    "sig": 6572,
    "ign": 3727,
    "gna": 3257,
    "nal": 4792,
    " no_": 483,
    "no_d": 5021,
    "o_di": 5144,
    "_dir": 1098,
    "dire": 2372,
    "irec": 3933,
    "rect": 6067,
    "ect_": 2566,
    "ct_w": 2185,
    "t_wi": 6756,
    "_wil": 1124,
    "wild": 7484,
    "ildl": 3747,
    "ldli": 4243,
    "dlif": 2390,
    "life": 4329,
    "ife_": 3701,
    "fe_p": 3059,
    "e_pe": 2495,
    "_per": 1110,
    "perm": 5707,
    "ermi": 2882,
    "rmit": 6238,
    "mit_": 4662,
    "it_s": 3969,
    "t_si": 6754,
    "_sig": 1116,
    "sign": 6573,
    "igna": 3728,
    "gnal": 3258,
    "nal ": 4793,
    "et": 2952,
    "ic": 3613,
    "cu": 2208,
    "ul": 7204,
    "la": 4158,
    "at": 1609,
    "ed": 2572,
    "d ": 2243,
    "ret": 6104,
    "eti": 2961,
    "tic": 6898,
    "icu": 3649,
    "cul": 2212,
    "ula": 7206,
    "lat": 4196,
    "ate": 1619,
    "ted": 6821,
    "ed ": 2573,
    " ret": 598,
    "reti": 6106,
    "etic": 2963,
    "ticu": 6903,
    "icul": 3650,
    "cula": 2213,
    "ulat": 7210,
    "late": 4198,
    "ated": 1621,
    "ted ": 6822,
    " ง": 799,
    "งู": 8023,
    "ูเ": 10071,
    "เห": 10242,
    "หล": 9386,
    "ลื": 9191,
    "ือ": 9990,
    "อม": 9450,
    "มต": 8806,
    "ตา": 8290,
    "าข": 9651,
    "ข่": 7850,
    "่า": 10508,
    "าย": 9729,
    "ย ": 8894,
    " งู": 800,
    "งูเ": 8041,
    "ูเห": 10076,
    "เหล": 10243,
    "หลื": 9392,
    "ลือ": 9192,
    "ือม": 9991,
    "อมต": 9451,
    "มตา": 8807,
    "ตาข": 8291,
    "าข่": 9657,
    "ข่า": 7851,
    "่าย": 10528,
    "าย ": 9730,
    " งูเ": 808,
    "งูเห": 8043,
    "ูเหล": 10077,
    "เหลื": 10244,
    "หลือ": 9393,
    "ลือม": 9193,
    "ือมต": 9992,
    "อมตา": 9452,
    "มตาข": 8808,
    "ตาข่": 8292,
    "าข่า": 9658,
    "ข่าย": 7853,
    "่าย ": 10529,
    " m": 422,
    "ma": 4533,
    "ay": 1707,
    "yo": 7640,
    "op": 5420,
    " ma": 423,
    "mal": 4548,
    "ala": 1310,
    "lay": 4211,
    "ayo": 1718,
    "yop": 7643,
    "opy": 5453,
    " mal": 426,
    "mala": 4550,
    "alay": 1319,
    "layo": 4213,
    "ayop": 1719,
    "yopy": 7646,
    "opyt": 5455,
    "tu": 7067,
    "atu": 1655,
    "tus": 7081,
    "latu": 4201,
    "atus": 1658,
    "tus ": 7082,
    "po": 5800,
    "we": 7469,
    "rf": 6114,
    "fu": 3135,
    " po": 549,
    "pow": 5826,
    "owe": 5627,
    "wer": 7474,
    "erf": 2860,
    "rfu": 6118,
    "ful": 3136,
    "ul ": 7205,
    " pow": 558,
    "powe": 5827,
    "ower": 5628,
    "werf": 7475,
    "erfu": 2862,
    "rful": 6119,
    "ful ": 3137,
    " h": 312,
    "ha": 3336,
    "rd": 6042,
    " ha": 313,
    "har": 3365,
    "ard": 1527,
    "rd ": 6043,
    " har": 317,
    "hard": 3366,
    "ard ": 1528,
    "hi": 3421,
    "gh": 3223,
    "h ": 3335,
    " hi": 326,
    "hig": 3429,
    "igh": 3721,
    "gh ": 3224,
    " hig": 327,
    "high": 3430,
    "igh ": 3722,
    "pr": 5839,
    "ro": 6257,
    "ot": 5546,
    "d_": 2265,
    "sp": 6639,
    "ci": 2043,
    "ie": 3669,
    "s_": 6453,
    "_h": 1099,
    "t ": 6741,
    " pr": 559,
    "pro": 5851,
    "rot": 6310,
    "ote": 5552,
    "tec": 6819,
    "cte": 2189,
    "ed_": 2580,
    "d_s": 2266,
    "_sp": 1117,
    "spe": 6644,
    "pec": 5691,
    "eci": 2550,
    "cie": 2051,
    "ies": 3686,
    "es_": 2927,
    "s_h": 6454,
    "_hi": 1100,
    "hit": 3451,
    "it ": 3965,
    " pro": 563,
    "prot": 5855,
    "rote": 6313,
    "otec": 5553,
    "tect": 6820,
    "ecte": 2568,
    "cted": 2190,
    "ted_": 6823,
    "ed_s": 2581,
    "d_sp": 2267,
    "_spe": 1118,
    "spec": 6645,
    "peci": 5692,
    "ecie": 2551,
    "cies": 2052,
    "ies_": 3688,
    "es_h": 2928,
    "s_hi": 6455,
    "_hit": 1101,
    "hit ": 3452,
    "bu": 1875,
    "ur": 7280,
    "me": 4604,
    "se": 6506,
    " bu": 96,
    "bur": 1883,
    "urm": 7304,
    "rme": 6235,
    "mes": 4625,
    "ese": 2934,
    "se ": 6507,
    " bur": 100,
    "burm": 1884,
    "urme": 7305,
    "rmes": 6236,
    "mese": 4626,
    "ese ": 2935,
    "ูห": 10063,
    "ลา": 9160,
    "าม": 9720,
    "มพ": 8827,
    "พม": 8700,
    "ม่": 8885,
    "า ": 9640,
    "งูห": 8036,
    "ูหล": 10066,
    "หลา": 9389,
    "ลาม": 9164,
    "ามพ": 9721,
    "มพม": 8828,
    "พม่": 8701,
    "ม่า": 8888,
    "่า ": 10509,
    " งูห": 806,
    "งูหล": 8038,
    "ูหลา": 10067,
    "หลาม": 9391,
    "ลามพ": 9165,
    "ามพม": 9722,
    "มพม่": 8829,
    "พม่า": 8702,
    "ม่า ": 8889,
    "bi": 1782,
    "vi": 7405,
    "tt": 7048,
    " bi": 74,
    "biv": 1803,
    "ivi": 4021,
    "vit": 7424,
    "itt": 3998,
    "tta": 7051,
    "tat": 6797,
    " biv": 79,
    "bivi": 1805,
    "ivit": 4024,
    "vitt": 7425,
    "itta": 3999,
    "ttat": 7054,
    "tatu": 6800,
    "ut": 7349,
    "but": 1889,
    "ut ": 7350,
    " but": 102,
    "but ": 1890,
    " g": 271,
    "an": 1406,
    "nt": 5078,
    " gi": 285,
    "gia": 3229,
    "ian": 3594,
    "ant": 1457,
    "nt ": 5079,
    " gia": 286,
    "gian": 3231,
    "iant": 3598,
    "ant ": 1458,
    "bl": 1807,
    "oo": 5406,
    "od": 5202,
    " bl": 80,
    "blo": 1815,
    "loo": 4430,
    "ood": 5408,
    "od ": 5203,
    " blo": 82,
    "bloo": 1816,
    "lood": 4431,
    "ood ": 5409,
    "ูบ": 10041,
    "บล": 8597,
    "ลั": 9157,
    "ัด": 9575,
    "ดไ": 8238,
    "งูบ": 8032,
    "ูบล": 10042,
    "บลั": 8603,
    "ลัด": 9158,
    "ัดไ": 9578,
    "ดไพ": 8239,
    " งูบ": 804,
    "งูบล": 8033,
    "ูบลั": 10043,
    "บลัด": 8604,
    "ลัดไ": 9159,
    "ัดไพ": 9579,
    "ดไพธ": 8240,
    "br": 1853,
    "ng": 4924,
    "ge": 3185,
    "rs": 6350,
    "sm": 6608,
    "ai": 1265,
    "i ": 3575,
    " br": 91,
    "bro": 1869,
    "ron": 6290,
    "ong": 5369,
    "nge": 4937,
    "ger": 3207,
    "ers": 2904,
    "rsm": 6362,
    "sma": 6609,
    "mai": 4544,
    "ai ": 1266,
    " bro": 95,
    "bron": 1871,
    "rong": 6291,
    "onge": 5374,
    "nger": 4940,
    "gers": 3213,
    "ersm": 2906,
    "rsma": 6363,
    "smai": 6610,
    "mai ": 4545,
    " d": 165,
    "de": 2301,
    "ef": 2623,
    "en": 2741,
    "ns": 5064,
    "ve": 7382,
    " de": 171,
    "def": 2308,
    "efe": 2626,
    "fen": 3064,
    "ens": 2781,
    "nsi": 5071,
    "siv": 6594,
    "ive": 4017,
    "ve ": 7383,
    " def": 172,
    "defe": 2309,
    "efen": 2627,
    "fens": 3066,
    "ensi": 2784,
    "nsiv": 5075,
    "sive": 6595,
    "ive ": 4018,
    "um": 7230,
    " me": 436,
    "med": 4608,
    "edi": 2590,
    "diu": 2379,
    "ium": 4006,
    "um ": 7231,
    " med": 437,
    "medi": 4609,
    "ediu": 2593,
    "dium": 2380,
    "ium ": 4007,
    "ra": 5939,
    "in": 3806,
    "nb": 4816,
    "bo": 1819,
    " ra": 584,
    "rai": 5962,
    "ain": 1276,
    "inb": 3816,
    "nbo": 4819,
    "bow": 1849,
    " rai": 586,
    "rain": 5963,
    "ainb": 1277,
    "inbo": 3817,
    "nbow": 4820,
    "bow ": 1850,
    "oa": 5145,
    "a ": 1125,
    " bo": 84,
    "boa": 1820,
    "oa ": 5146,
    " boa": 85,
    "boa ": 1821,
    "เร": 10211,
    "รน": 8970,
    "นโ": 8561,
    "โบ": 10380,
    "บว": 8610,
    "ว์": 9295,
    "์โ": 10708,
    "อา": 9505,
    "ูเร": 10074,
    "เรน": 10220,
    "รนโ": 8971,
    "นโบ": 8566,
    "โบว": 10385,
    "บว์": 8611,
    "ว์โ": 9299,
    "์โบ": 10714,
    "โบอ": 10387,
    "บอา": 8620,
    "อา ": 9506,
    "งูเร": 8042,
    "ูเรน": 10075,
    "เรนโ": 10221,
    "รนโบ": 8972,
    "นโบว": 8567,
    "โบว์": 10386,
    "บว์โ": 8612,
    "ว์โบ": 9300,
    "์โบอ": 10715,
    "โบอา": 10388,
    "บอา ": 8621,
    "pi": 5758,
    "cr": 2159,
    " ep": 222,
    "epi": 2823,
    "pic": 5762,
    "icr": 3640,
    "cra": 2160,
    "rat": 5995,
    "tes": 6854,
    " epi": 223,
    "epic": 2824,
    "picr": 5763,
    "icra": 3641,
    "crat": 2163,
    "rate": 5998,
    "ates": 1625,
    "tes ": 6855,
    "ce": 1970,
    "nc": 4821,
    "ch": 1997,
    "hr": 3508,
    " ce": 117,
    "cen": 1981,
    "enc": 2751,
    "nch": 4824,
    "chr": 2029,
    "hri": 3513,
    "ia ": 3584,
    " cen": 119,
    "cenc": 1982,
    "ench": 2752,
    "nchr": 4827,
    "chri": 2031,
    "hria": 3514,
    "ria ": 6143,
    " k": 371,
    "ny": 5132,
    "ya": 7551,
    " ke": 372,
    "ken": 4083,
    "eny": 2793,
    "nya": 5133,
    "yan": 7555,
    "an ": 1407,
    " ken": 373,
    "keny": 4084,
    "enya": 2794,
    "nyan": 5134,
    "yan ": 7556,
    "sa": 6458,
    "nd": 4845,
    " sa": 619,
    "san": 6469,
    "and": 1418,
    "nd ": 4846,
    " san": 623,
    "sand": 6470,
    "and ": 1419,
    "ูท": 10034,
    "ทร": 8358,
    "รา": 9011,
    "ยเ": 8936,
    "เค": 10111,
    "คน": 7873,
    "นย": 8489,
    "ยา": 8926,
    "งูท": 8030,
    "ูทร": 10035,
    "ทรา": 8359,
    "ราย": 9019,
    "ายเ": 9735,
    "ยเค": 8937,
    "เคน": 10112,
    "คนย": 7875,
    "นยา": 8490,
    "ยา ": 8927,
    " งูท": 803,
    "งูทร": 8031,
    "ูทรา": 10036,
    "ทราย": 8360,
    "รายเ": 9021,
    "ายเค": 9736,
    "ยเคน": 8938,
    "เคนย": 10113,
    "คนยา": 7876,
    "นยา ": 8491,
    "yx": 7694,
    "x ": 7502,
    " er": 224,
    "ery": 2919,
    "ryx": 6435,
    "yx ": 7695,
    " ery": 227,
    "eryx": 2922,
    "ryx ": 6436,
    "co": 2113,
    "lu": 4486,
    "ub": 7114,
    "nu": 5113,
    " co": 137,
    "col": 2130,
    "olu": 5312,
    "lub": 4487,
    "ubr": 7124,
    "bri": 1863,
    "rin": 6176,
    "inu": 3870,
    "nus": 5123,
    " col": 142,
    "colu": 2133,
    "olub": 5313,
    "lubr": 4488,
    "ubri": 7125,
    "brin": 1866,
    "rinu": 6182,
    "inus": 3872,
    "nus ": 5124,
    "g ": 3144,
    "urr": 7315,
    "rro": 6344,
    "row": 6320,
    "owi": 5629,
    "win": 7485,
    "ing": 3837,
    "ng ": 4925,
    "burr": 1885,
    "urro": 7318,
    "rrow": 6347,
    "rowi": 6323,
    "owin": 5630,
    "wing": 7486,
    "ing ": 3838,
    "cor": 2148,
    "orn": 5486,
    "rn ": 6244,
    " cor": 145,
    "corn": 2151,
    "orn ": 5487,
    "ูค": 10018,
    "คอ": 7918,
    "อร": 9462,
    "ร์": 9062,
    "์น": 10639,
    "นส": 8495,
    "สเ": 9342,
    "เน": 10168,
    "นก": 8426,
    "ก ": 7723,
    "งูค": 8026,
    "ูคอ": 10019,
    "คอร": 7922,
    "อร์": 9463,
    "ร์น": 9080,
    "์นส": 10641,
    "นสเ": 8499,
    "สเน": 9350,
    "เนก": 10169,
    "นก ": 8427,
    " งูค": 802,
    "งูคอ": 8027,
    "ูคอร": 10020,
    "คอร์": 7923,
    "อร์น": 9469,
    "ร์นส": 9082,
    "์นสเ": 10642,
    "นสเน": 8500,
    "สเนก": 9351,
    "เนก ": 10170,
    "pa": 5652,
    "he": 3375,
    "ph": 5719,
    "is": 3946,
    " pa": 521,
    "pan": 5668,
    "nth": 5089,
    "the": 6871,
    "her": 3406,
    "ero": 2887,
    "rop": 6295,
    "oph": 5428,
    "phi": 5731,
    "his": 3449,
    "is ": 3947,
    " pan": 526,
    "pant": 5672,
    "anth": 1461,
    "nthe": 5091,
    "ther": 6875,
    "hero": 3414,
    "erop": 2892,
    "roph": 6298,
    "ophi": 5431,
    "phis": 5736,
    "his ": 3450,
    "gu": 3310,
    " gu": 306,
    "gut": 3330,
    "utt": 7356,
    " gut": 309,
    "gutt": 3331,
    "utta": 7357,
    "do": 2393,
    "oc": 5169,
    " do": 184,
    "doc": 2397,
    "oci": 5184,
    "cil": 2056,
    " doc": 185,
    "doci": 2398,
    "ocil": 5187,
    "cile": 2057,
    "fo": 3107,
    "ali": 1333,
    "ifo": 3706,
    "for": 3113,
    "nia": 4959,
    "cali": 1917,
    "alif": 1337,
    "lifo": 4330,
    "ifor": 3707,
    "forn": 3115,
    "orni": 5489,
    "rnia": 6250,
    "nia ": 4960,
    "ki": 4090,
    "gs": 3307,
    " ki": 374,
    "kin": 4098,
    "ngs": 4951,
    "gsn": 3308,
    " kin": 376,
    "king": 4101,
    "ings": 3846,
    "ngsn": 4952,
    "gsna": 3309,
    "คิ": 7950,
    "ิง": 9834,
    "งส": 8002,
    "กแ": 7811,
    "แค": 10266,
    "คล": 7905,
    "ลิ": 9179,
    "ิฟ": 9873,
    "ฟอ": 8765,
    "์เ": 10674,
    "นี": 8530,
    "ีย": 9944,
    "ูคิ": 10023,
    "คิง": 7951,
    "ิงส": 9839,
    "งสเ": 8005,
    "นกแ": 8434,
    "กแค": 7814,
    "แคล": 10280,
    "คลิ": 7908,
    "ลิฟ": 9180,
    "ิฟอ": 9874,
    "ฟอร": 8766,
    "ร์เ": 9093,
    "์เน": 10685,
    "เนี": 10174,
    "นีย": 8531,
    "ีย ": 9945,
    "งูคิ": 8029,
    "ูคิง": 10024,
    "คิงส": 7952,
    "ิงสเ": 9840,
    "งสเน": 8006,
    "เนกแ": 10173,
    "นกแค": 8435,
    "กแคล": 7815,
    "แคลิ": 10281,
    "คลิฟ": 7909,
    "ลิฟอ": 9181,
    "ิฟอร": 9875,
    "ฟอร์": 8767,
    "อร์เ": 9475,
    "ร์เน": 9098,
    "์เนี": 10686,
    "เนีย": 10175,
    "นีย ": 8532,
    "am": 1367,
    "mp": 4712,
    "el": 2666,
    "lt": 4476,
    " la": 387,
    "lam": 4174,
    "amp": 1395,
    "mpr": 4725,
    "ope": 5425,
    "pel": 5696,
    "elt": 2712,
    "lti": 4480,
    "tis": 6928,
    " lam": 390,
    "lamp": 4176,
    "ampr": 1399,
    "mpro": 4726,
    "prop": 5854,
    "rope": 6297,
    "opel": 5427,
    "pelt": 5700,
    "elti": 2713,
    "ltis": 4481,
    "tis ": 6929,
    "ae": 1210,
    "iae": 3585,
    "ae ": 1211,
    "niae": 4961,
    "iae ": 3586,
    "io": 3876,
    "ou": 5584,
    " cu": 154,
    "cur": 2220,
    "uri": 7295,
    "rio": 6183,
    "iou": 3902,
    "ous": 5603,
    " cur": 157,
    "curi": 2221,
    "urio": 7298,
    "riou": 6187,
    "ious": 3903,
    "ous ": 5604,
    "lk": 4361,
    "k ": 4061,
    " mi": 447,
    "mil": 4645,
    "ilk": 3763,
    "lk ": 4362,
    " mil": 449,
    "milk": 4648,
    "ilk ": 3764,
    "ูม": 10050,
    "มิ": 8854,
    "ิล": 9881,
    "ลค": 9115,
    "ค์": 7972,
    "์ส": 10659,
    "งูม": 8034,
    "ูมิ": 10051,
    "มิล": 8855,
    "ิลค": 9883,
    "ลค์": 9118,
    "ค์ส": 7973,
    "์สเ": 10660,
    " งูม": 805,
    "งูมิ": 8035,
    "ูมิล": 10052,
    "มิลค": 8856,
    "ิลค์": 9884,
    "ลค์ส": 9119,
    "ค์สเ": 7974,
    "์สเน": 10661,
    " tr": 720,
    "ang": 1430,
    "ngu": 4953,
    "gul": 3323,
    "ulu": 7227,
    "lum": 4501,
    " tri": 723,
    "rian": 6145,
    "iang": 3597,
    "angu": 1432,
    "ngul": 4956,
    "gulu": 3325,
    "ulum": 7228,
    "lum ": 4502,
    " a": 2,
    "ac": 1138,
    " ac": 3,
    "act": 1180,
    "cti": 2192,
    "tiv": 6934,
    " act": 6,
    "acti": 1181,
    "ctiv": 2195,
    "tive": 6936,
    " w": 755,
    " we": 760,
    "wes": 7477,
    "ste": 6679,
    "ern": 2883,
    " wes": 762,
    "west": 7478,
    "este": 2948,
    "ster": 6684,
    "tern": 6849,
    "ern ": 2884,
    "og": 5246,
    "os": 5513,
    " ho": 330,
    "hog": 3482,
    "ogn": 5255,
    "gno": 3262,
    "nos": 5047,
    "ose": 5521,
    " hog": 331,
    "hogn": 3485,
    "ogno": 5256,
    "gnos": 3263,
    "nose": 5048,
    "ose ": 5522,
    "ูฮ": 10068,
    "ฮอ": 9548,
    "อก": 9401,
    "กโ": 7816,
    "โน": 10377,
    "ส ": 9303,
    "งูฮ": 8039,
    "ูฮอ": 10069,
    "ฮอก": 9549,
    "อกโ": 9411,
    "กโน": 7824,
    "โนส": 10378,
    "นส ": 8496,
    " งูฮ": 807,
    "งูฮอ": 8040,
    "ูฮอก": 10070,
    "ฮอกโ": 9551,
    "อกโน": 9413,
    "กโนส": 7825,
    "โนส ": 10379,
    " he": 318,
    "het": 3417,
    "ete": 2958,
    "rod": 6271,
    "odo": 5218,
    "don": 2409,
    " het": 325,
    "hete": 3418,
    "eter": 2960,
    "tero": 6850,
    "erod": 2888,
    "rodo": 6274,
    "odon": 5219,
    "don ": 2410,
    " na": 469,
    "nas": 4805,
    "asi": 1586,
    "sic": 6567,
    "cus": 2224,
    " nas": 471,
    "nasi": 4806,
    "asic": 1588,
    "sicu": 6569,
    "icus": 3651,
    "cus ": 2225,
    "dr": 2428,
    "c ": 1897,
    " dr": 191,
    "dra": 2429,
    "ram": 5971,
    "ama": 1369,
    "mat": 4573,
    "ati": 1631,
    "ic ": 3614,
    " dra": 192,
    "dram": 2432,
    "rama": 5972,
    "amat": 1373,
    "mati": 4576,
    "atic": 1632,
    "tic ": 6899,
    "d-": 2244,
    "-t": 1056,
    "to": 6956,
    "ox": 5635,
    "xi": 7514,
    "ld-": 4232,
    "d-t": 2261,
    "-to": 1061,
    "tox": 7010,
    "oxi": 5639,
    "xic": 7515,
    "mild": 4646,
    "ild-": 3746,
    "ld-t": 4234,
    "d-to": 2262,
    "-tox": 1064,
    "toxi": 7011,
    "oxic": 5640,
    "xic ": 7516,
    "rp": 6325,
    "arp": 1566,
    "rpe": 6327,
    "pet": 5714,
    "et ": 2953,
    "carp": 1946,
    "arpe": 1568,
    "rpet": 6328,
    "pet ": 5715,
    "คา": 7931,
    "าร": 9739,
    "เพ": 10187,
    "พ็": 8731,
    "็ต": 10467,
    "ตไ": 8315,
    "ูคา": 10021,
    "คาร": 7943,
    "าร์": 9750,
    "์เพ": 10690,
    "เพ็": 10190,
    "พ็ต": 8732,
    "็ตไ": 10472,
    "ตไพ": 8316,
    "งูคา": 8028,
    "ูคาร": 10022,
    "คาร์": 7944,
    "าร์เ": 9754,
    "ร์เพ": 9100,
    "์เพ็": 10691,
    "เพ็ต": 10191,
    "พ็ตไ": 8733,
    "็ตไพ": 10473,
    "ตไพธ": 8317,
    "mo": 4681,
    " mo": 453,
    "mor": 4697,
    "rel": 6086,
    "eli": 2687,
    "lia": 4313,
    " mor": 457,
    "more": 4699,
    "orel": 5475,
    "reli": 6088,
    "elia": 2688,
    "lia ": 4314,
    " sp": 664,
    "spi": 6647,
    "pil": 5770,
    "ilo": 3771,
    "lot": 4444,
    "ota": 5548,
    "ta ": 6758,
    " spi": 667,
    "spil": 6649,
    "pilo": 5772,
    "ilot": 3774,
    "lota": 4445,
    "ota ": 5549,
    "em": 2718,
    "i-": 3576,
    "-a": 993,
    "rb": 6018,
    " se": 632,
    "sem": 6520,
    "emi": 2726,
    "mi-": 4640,
    "i-a": 3577,
    "-ar": 1000,
    "arb": 1521,
    "rbo": 6025,
    "bor": 1836,
    "rea": 6062,
    "eal": 2506,
    " sem": 635,
    "semi": 6521,
    "emi-": 2727,
    "mi-a": 4641,
    "i-ar": 3580,
    "-arb": 1001,
    "arbo": 1523,
    "rbor": 6027,
    "bore": 1837,
    "orea": 5474,
    "real": 6064,
    "eal ": 2507,
    "rt": 6367,
    " al": 17,
    "ale": 1327,
    "ler": 4281,
    "ert": 2908,
    "rt ": 6368,
    " ale": 20,
    "aler": 1331,
    "lert": 4284,
    "ert ": 2909,
    "gr": 3288,
    "ee": 2604,
    " gr": 301,
    "gre": 3297,
    "ree": 6076,
    "een": 2614,
    "en ": 2742,
    " gre": 303,
    "gree": 3298,
    "reen": 6080,
    "een ": 2615,
    "tre": 7022,
    "ee ": 2605,
    " tre": 722,
    "tree": 7023,
    "ree ": 6077,
    "ูก": 10011,
    "กร": 7740,
    "รี": 9032,
    "ีน": 9926,
    "นท": 8462,
    "ีไ": 9961,
    "งูก": 8024,
    "ูกร": 10012,
    "กรี": 7745,
    "รีน": 9033,
    "ีนท": 9930,
    "นทร": 8463,
    "ทรี": 8361,
    "รีไ": 9041,
    "ีไพ": 9962,
    " งูก": 801,
    "งูกร": 8025,
    "ูกรี": 10013,
    "กรีน": 7746,
    "รีนท": 9035,
    "ีนทร": 9931,
    "นทรี": 8464,
    "ทรีไ": 8363,
    "รีไพ": 9042,
    "ีไพธ": 9963,
    " v": 738,
    "id": 3652,
    " vi": 746,
    "vir": 7419,
    "iri": 3936,
    "rid": 6158,
    "idi": 3658,
    "dis": 2373,
    " vir": 748,
    "viri": 7421,
    "irid": 3938,
    "ridi": 6161,
    "idis": 3660,
    "dis ": 2374,
    " ar": 40,
    " arb": 42,
    "sen": 6522,
    "sit": 6590,
    "iti": 3988,
    " sen": 636,
    "sens": 6524,
    "nsit": 5074,
    "siti": 6592,
    "itiv": 3991,
    "r ": 5918,
    "con": 2137,
    "ons": 5390,
    "nst": 5076,
    "ric": 6152,
    "ict": 3643,
    "cto": 2196,
    "tor": 6995,
    "or ": 5457,
    " con": 144,
    "cons": 2138,
    "onst": 5392,
    "nstr": 5077,
    "tric": 7028,
    "rict": 6156,
    "icto": 3647,
    "ctor": 2200,
    "tor ": 6996,
    "ูโ": 10087,
    "าค": 9659,
    "สต": 9319,
    "ตร": 8274,
    "ริ": 9022,
    "ิก": 9822,
    "กเ": 7800,
    "เต": 10151,
    "ตอ": 8280,
    "์ ": 10610,
    "งูโ": 8046,
    "ูโบ": 10090,
    "อาค": 9507,
    "าคอ": 9660,
    "คอน": 7919,
    "อนส": 9435,
    "นสต": 8497,
    "สตร": 9320,
    "ตริ": 8275,
    "ริก": 9023,
    "ิกเ": 9829,
    "กเต": 7803,
    "เตอ": 10152,
    "ตอร": 8281,
    "ร์ ": 9063,
    " งูโ": 810,
    "งูโบ": 8048,
    "ูโบอ": 10092,
    "บอาค": 8622,
    "อาคอ": 9508,
    "าคอน": 9661,
    "คอนส": 7920,
    "อนสต": 9436,
    "นสตร": 8498,
    "สตริ": 9321,
    "ตริก": 8276,
    "ริกเ": 9025,
    "ิกเต": 9831,
    "กเตอ": 7804,
    "เตอร": 10153,
    "ตอร์": 8282,
    "อร์ ": 9464,
    " i": 346,
    "im": 3786,
    " im": 353,
    "imp": 3798,
    "mpe": 4716,
    "era": 2843,
    "ato": 1644,
    " imp": 355,
    "impe": 3800,
    "mper": 4717,
    "pera": 5706,
    "erat": 2847,
    "rato": 6000,
    "ator": 1648,
    "go": 3264,
    " go": 294,
    "gop": 3279,
    "phe": 5726,
    "er ": 2837,
    " gop": 299,
    "goph": 3280,
    "ophe": 5430,
    "pher": 5730,
    "her ": 3407,
    "โก": 10341,
    "เฟ": 10192,
    "ูโก": 10088,
    "โกเ": 10344,
    "กเฟ": 7805,
    "เฟอ": 10195,
    "งูโก": 8047,
    "ูโกเ": 10089,
    "โกเฟ": 10345,
    "กเฟอ": 7806,
    "เฟอร": 10196,
    "uo": 7266,
    " pi": 539,
    "pit": 5788,
    "itu": 4001,
    "tuo": 7075,
    "uop": 7267,
    " pit": 544,
    "pitu": 5789,
    "ituo": 4002,
    "tuop": 7076,
    "uoph": 7268,
    "cat": 1949,
    "ten": 6836,
    "eni": 2765,
    "nif": 4970,
    "fer": 3067,
    " cat": 114,
    "cate": 1951,
    "aten": 1623,
    "teni": 6837,
    "enif": 2769,
    "nife": 4971,
    "ifer": 3703,
    "fer ": 3068,
    " j": 361,
    "ja": 4035,
    "ap": 1477,
    "ne": 4878,
    " ja": 362,
    "jap": 4044,
    "apa": 1479,
    "ane": 1426,
    "nes": 4910,
    " jap": 366,
    "japa": 4045,
    "apan": 1480,
    "pane": 5670,
    "anes": 1428,
    "nese": 4912,
    "at ": 1610,
    " rat": 589,
    "rat ": 5996,
    "หน": 9371,
    "นู": 8535,
    "ูญ": 10028,
    "ญี": 8171,
    "ี่": 9964,
    "่ป": 10496,
    "ปุ": 8678,
    "ุ่": 9999,
    "่น": 10492,
    "ูหน": 10064,
    "หนู": 9372,
    "นูญ": 8536,
    "ูญี": 10029,
    "ญี่": 8172,
    "ี่ป": 9968,
    "่ปุ": 10497,
    "ปุ่": 8679,
    "ุ่น": 10000,
    "่น ": 10493,
    "งูหน": 8037,
    "ูหนู": 10065,
    "หนูญ": 9373,
    "นูญี": 8537,
    "ูญี่": 10030,
    "ญี่ป": 8173,
    "ี่ปุ": 9969,
    "่ปุ่": 10498,
    "ปุ่น": 8680,
    "ุ่น ": 10001,
    " el": 212,
    "ela": 2668,
    "lap": 4184,
    "aph": 1483,
    "he ": 3376,
    " ela": 213,
    "elap": 2671,
    "laph": 4185,
    "aphe": 1484,
    "phe ": 5727,
    "cl": 2094,
    " cl": 133,
    "cli": 2104,
    "lim": 4337,
    "ima": 3787,
    "mac": 4535,
    "aco": 1173,
    "cop": 2145,
    "pho": 5739,
    "hor": 3493,
    "ora": 5462,
    "ra ": 5940,
    " cli": 135,
    "clim": 2105,
    "lima": 4338,
    "imac": 3788,
    "maco": 4537,
    "acop": 1176,
    "coph": 2146,
    "opho": 5432,
    "phor": 5742,
    "hora": 3494,
    "ora ": 5463,
    " ro": 606,
    "ros": 6304,
    "osy": 5544,
    " ros": 612,
    "rosy": 6309,
    "osy ": 5545,
    "โร": 10397,
    "รซ": 8955,
    "ซี": 8148,
    "่โ": 10541,
    "ูโร": 10093,
    "โรซ": 10398,
    "รซี": 8956,
    "ซี่": 8156,
    "ี่โ": 9972,
    "่โบ": 10542,
    "งูโร": 8049,
    "ูโรซ": 10094,
    "โรซี": 10399,
    "รซี่": 8957,
    "ซี่โ": 8157,
    "ี่โบ": 9973,
    "่โบอ": 10543,
    " li": 402,
    "lic": 4317,
    "ich": 3628,
    "cha": 1999,
    "han": 3361,
    "anu": 1466,
    "nur": 5120,
    "ura": 7284,
    " lic": 403,
    "lich": 4319,
    "icha": 3629,
    "chan": 2002,
    "hanu": 3364,
    "anur": 1469,
    "nura": 5121,
    "ura ": 7285,
    "rg": 6120,
    "ga": 3155,
    "riv": 6205,
    "irg": 3934,
    "rga": 6121,
    "gat": 3175,
    "ata": 1613,
    "triv": 7033,
    "rivi": 6207,
    "ivir": 4023,
    "virg": 7420,
    "irga": 3935,
    "rgat": 6122,
    "gata": 3176,
    "ata ": 1614,
    "n'": 4767,
    "'s": 988,
    " ch": 121,
    "chi": 2012,
    "hil": 3431,
    "ldr": 4244,
    "dre": 2433,
    "ren": 6093,
    "en'": 2743,
    "n's": 4768,
    "'s ": 989,
    " chi": 124,
    "chil": 2014,
    "hild": 3432,
    "ildr": 3748,
    "ldre": 4245,
    "dren": 2434,
    "ren'": 6094,
    "en's": 2744,
    "n's ": 4769,
    "ูไ": 10096,
    "นเ": 8542,
    "เด": 10141,
    "ด็": 8241,
    "็ก": 10447,
    "งูไ": 8050,
    "ูไพ": 10097,
    "อนเ": 9441,
    "นเด": 8545,
    "เด็": 10148,
    "ด็ก": 8242,
    "็ก ": 10448,
    " งูไ": 811,
    "งูไพ": 8051,
    "ูไพธ": 10098,
    "ธอนเ": 8419,
    "อนเด": 9442,
    "นเด็": 8547,
    "เด็ก": 10149,
    "ด็ก ": 8243,
    " an": 28,
    "nta": 5080,
    "are": 1533,
    "esi": 2938,
    "sia": 6564,
    " ant": 33,
    "anta": 1459,
    "ntar": 5082,
    "tare": 6793,
    "ares": 1537,
    "resi": 6101,
    "esia": 2939,
    "sia ": 6565,
    "ni ": 4958,
    "reni": 6095,
    "eni ": 2766,
    "su": 6710,
    "un": 7243,
    "be": 1758,
    " su": 677,
    "sun": 6725,
    "unb": 7247,
    "nbe": 4817,
    "bea": 1760,
    "eam": 2509,
    "am ": 1368,
    " sun": 681,
    "sunb": 6727,
    "unbe": 7248,
    "nbea": 4818,
    "beam": 1761,
    "eam ": 2510,
    "ูแ": 10078,
    "แส": 10326,
    "สง": 9316,
    "งอ": 8014,
    "าท": 9682,
    "ทิ": 8383,
    "ิต": 9848,
    "ตย": 8271,
    "ย์": 8942,
    "งูแ": 8044,
    "ูแส": 10083,
    "แสง": 10327,
    "สงอ": 9317,
    "งอา": 8017,
    "อาท": 9509,
    "าทิ": 9685,
    "ทิต": 8384,
    "ิตย": 9849,
    "ตย์": 8272,
    "ย์ ": 8943,
    " งูแ": 809,
    "งูแส": 8045,
    "ูแสง": 10084,
    "แสงอ": 10328,
    "สงอา": 9318,
    "งอาท": 8018,
    "อาทิ": 9510,
    "าทิต": 9686,
    "ทิตย": 8385,
    "ิตย์": 9850,
    "ตย์ ": 8273,
    " x": 769,
    "xe": 7507,
    " xe": 770,
    "xen": 7508,
    "eno": 2774,
    "nop": 5039,
    " xen": 771,
    "xeno": 7510,
    "enop": 2776,
    "nope": 5040,
    " u": 728,
    " un": 731,
    "uni": 7260,
    "nic": 4963,
    "ico": 3638,
    "olo": 5303,
    "lor": 4437,
    " uni": 734,
    "unic": 7261,
    "nico": 4965,
    "icol": 3639,
    "colo": 2132,
    "olor": 5306,
    "lor ": 4438,
    "sec": 6511,
    "ecr": 2563,
    "cre": 2165,
    " sec": 634,
    "secr": 6512,
    "ecre": 2564,
    "cret": 2167,
    "etiv": 2964,
    "eo": 2795,
    " le": 394,
    "leo": 4272,
    "eop": 2807,
    "opa": 5422,
    "par": 5673,
    " leo": 397,
    "leop": 4275,
    "eopa": 2808,
    "opar": 5424,
    "pard": 5675,
    "ck": 2078,
    "ko": 4117,
    " ge": 276,
    "gec": 3187,
    "eck": 2553,
    "cko": 2090,
    "ko ": 4118,
    " gec": 277,
    "geck": 3188,
    "ecko": 2555,
    "cko ": 2091,
    " เ": 916,
    "เล": 10226,
    "ลพ": 9129,
    "พเ": 8728,
    "พิ": 8720,
    "ิร": 9878,
    "์ด": 10624,
    "ดเ": 8231,
    "เก": 10099,
    "ก็": 7826,
    "โค": 10346,
    "ค ": 7855,
    " เล": 937,
    "เลพ": 10227,
    "ลพเ": 9132,
    "พเพ": 8729,
    "เพิ": 10188,
    "พิร": 8726,
    "ิร์": 9879,
    "ร์ด": 9072,
    "์ดเ": 10630,
    "ดเก": 8232,
    "เก็": 10106,
    "ก็ก": 7827,
    "็กโ": 10451,
    "กโค": 7817,
    "โค ": 10347,
    " เลพ": 938,
    "เลพเ": 10228,
    "ลพเพ": 9133,
    "พเพิ": 8730,
    "เพิร": 10189,
    "พิร์": 8727,
    "ิร์ด": 9880,
    "ร์ดเ": 9076,
    "์ดเก": 10631,
    "ดเก็": 8233,
    "เก็ก": 10107,
    "ก็กโ": 7828,
    "็กโค": 10452,
    "กโค ": 7818,
    "eu": 2982,
    " eu": 228,
    "eub": 2983,
    "ubl": 7122,
    "ble": 1810,
    "lep": 4277,
    "eph": 2818,
    "pha": 5720,
    "ari": 1544,
    "ris": 6192,
    " eub": 229,
    "eubl": 2984,
    "uble": 7123,
    "blep": 1814,
    "leph": 4278,
    "epha": 2819,
    "phar": 5724,
    "hari": 3367,
    "aris": 1551,
    "ris ": 6193,
    "acu": 1185,
    "lar": 4187,
    "riu": 6202,
    " mac": 424,
    "macu": 4539,
    "acul": 1186,
    "ular": 7209,
    "lari": 4190,
    "ariu": 1552,
    "rius": 6204,
    "iz": 4032,
    "za": 7701,
    "liz": 4359,
    "iza": 4033,
    "zar": 7702,
    " liz": 408,
    "liza": 4360,
    "izar": 4034,
    "zard": 7703,
    " in": 356,
    "ins": 3862,
    "nse": 5068,
    " ins": 358,
    "inse": 3865,
    "nsec": 5070,
    "sect": 6513,
    "ecti": 2569,
    "tivo": 6937,
    " cr": 147,
    " cre": 149,
    "cres": 2166,
    "sted": 6681,
    "คร": 7893,
    "รส": 8991,
    "ต็": 8318,
    "็ด": 10460,
    " เค": 917,
    "เคร": 10116,
    "ครส": 7898,
    "รสเ": 8992,
    "สเต": 9347,
    "เต็": 10156,
    "ต็ด": 8319,
    "็ดเ": 10465,
    " เคร": 918,
    "เครส": 10118,
    "ครสเ": 7899,
    "รสเต": 8993,
    "สเต็": 9349,
    "เต็ด": 10157,
    "ต็ดเ": 8321,
    "็ดเก": 10466,
    "hu": 3531,
    "orr": 5494,
    "elo": 2703,
    "lop": 4432,
    "phu": 5751,
    "hus": 3540,
    "corr": 2152,
    "orre": 5495,
    "rrel": 6334,
    "relo": 6090,
    "elop": 2707,
    "loph": 4433,
    "ophu": 5435,
    "phus": 5753,
    "hus ": 3541,
    " ci": 127,
    "ili": 3756,
    "iat": 3600,
    " cil": 129,
    "cili": 2058,
    "ilia": 3757,
    "liat": 4316,
    "iatu": 3602,
    " o": 492,
    "om": 5318,
    "mn": 4676,
    " om": 501,
    "omn": 5335,
    "mni": 4677,
    " omn": 502,
    "omni": 5336,
    "mniv": 4678,
    "oy": 5646,
    "yl": 7611,
    " ga": 272,
    "gar": 3170,
    "arg": 1541,
    "rgo": 6125,
    "goy": 3286,
    "oyl": 5647,
    "yle": 7615,
    " gar": 275,
    "garg": 3172,
    "argo": 1543,
    "rgoy": 6126,
    "goyl": 3287,
    "oyle": 5648,
    "yle ": 7616,
    " ก": 780,
    "กา": 7779,
    "์ก": 10611,
    "กอ": 7758,
    "อย": 9453,
    "ยล": 8917,
    "ล์": 9239,
    " กา": 784,
    "การ": 7780,
    "ร์ก": 9064,
    "์กอ": 10612,
    "กอย": 7759,
    "อยล": 9458,
    "ยล์": 8918,
    "ล์เ": 9240,
    "์เก": 10675,
    " การ": 785,
    "การ์": 7781,
    "าร์ก": 9752,
    "ร์กอ": 9065,
    "์กอย": 10613,
    "กอยล": 7760,
    "อยล์": 9459,
    "ยล์เ": 8919,
    "ล์เก": 9241,
    "์เก็": 10676,
    "rh": 6127,
    "da": 2268,
    "ty": 7083,
    " rh": 599,
    "rha": 6128,
    "hac": 3337,
    "cod": 2123,
    "oda": 5206,
    "dac": 2272,
    "cty": 2206,
    "tyl": 7087,
    "ylu": 7623,
    "lus": 4507,
    " rha": 600,
    "rhac": 6129,
    "haco": 3338,
    "acod": 1175,
    "coda": 2124,
    "odac": 5207,
    "dact": 2273,
    "acty": 1184,
    "ctyl": 2207,
    "tylu": 7090,
    "ylus": 7624,
    "lus ": 4508,
    "au": 1662,
    " au": 56,
    "aur": 1672,
    " aur": 57,
    "auri": 1675,
    "uric": 7296,
    "ricu": 6157,
    "ok": 5275,
    "ka": 4065,
    " to": 712,
    "tok": 6975,
    "oka": 5277,
    "kay": 4073,
    "ay ": 1708,
    " tok": 715,
    "toka": 6976,
    "okay": 5278,
    "kay ": 4074,
    " ต": 840,
    "ตุ": 8303,
    "ุ๊": 10007,
    "๊ก": 10607,
    "แก": 10261,
    "โท": 10365,
    "ทเ": 8392,
    "คย": 7888,
    " ตุ": 841,
    "ตุ๊": 8304,
    "ุ๊ก": 10008,
    "๊กแ": 10608,
    "กแก": 7812,
    "แกโ": 10262,
    "กโท": 7822,
    "โทเ": 10371,
    "ทเค": 8395,
    "เคย": 10114,
    "คย์": 7891,
    " ตุ๊": 842,
    "ตุ๊ก": 8305,
    "ุ๊กแ": 10009,
    "๊กแก": 10609,
    "กแกโ": 7813,
    "แกโท": 10263,
    "กโทเ": 7823,
    "โทเค": 10372,
    "ทเคย": 8396,
    "เคย์": 10115,
    "คย์ ": 7892,
    "ek": 2660,
    "kk": 4107,
    "gek": 3193,
    "ekk": 2662,
    "kko": 4108,
    " gek": 278,
    "gekk": 3194,
    "ekko": 2663,
    "kko ": 4109,
    " da": 166,
    "day": 2284,
    " day": 170,
    "day ": 2285,
    "ดย": 8202,
    "ยั": 8923,
    "ัก": 9567,
    "กษ": 7752,
    "ษ์": 9301,
    " เด": 922,
    "เดย": 10144,
    "ดย์": 8203,
    "ย์เ": 8948,
    "โคย": 10352,
    "คยั": 7889,
    "ยัก": 8924,
    "ักษ": 9568,
    "กษ์": 7753,
    "ษ์ ": 9302,
    " เดย": 924,
    "เดย์": 10145,
    "ดย์เ": 8204,
    "ย์เก": 8949,
    "กโคย": 7819,
    "โคยั": 10353,
    "คยัก": 7890,
    "ยักษ": 8925,
    "ักษ์": 9569,
    "กษ์ ": 7754,
    "ls": 4469,
    " ph": 533,
    "hel": 3389,
    "els": 2710,
    "lsu": 4474,
    "sum": 6722,
    "uma": 7234,
    "ma ": 4534,
    " phe": 534,
    "phel": 5728,
    "hels": 3393,
    "elsu": 2711,
    "lsum": 4475,
    "suma": 6724,
    "uma ": 7235,
    "gra": 3289,
    "ran": 5977,
    "ndi": 4860,
    " gra": 302,
    "gran": 3294,
    "rand": 5979,
    "andi": 1423,
    "ndis": 4865,
    "af": 1231,
    "fr": 3120,
    " af": 12,
    "afr": 1232,
    "fri": 3123,
    "ica": 3617,
    "can": 1924,
    " afr": 13,
    "afri": 1233,
    "fric": 3124,
    "rica": 6154,
    "ican": 3620,
    "can ": 1925,
    " f": 237,
    "fa": 3040,
    "t-": 6745,
    " fa": 238,
    "fat": 3055,
    "at-": 1611,
    "t-t": 6750,
    "-ta": 1057,
    "tai": 6770,
    "ail": 1267,
    "led": 4260,
    " fat": 244,
    "fat-": 3056,
    "at-t": 1612,
    "t-ta": 6751,
    "-tai": 1058,
    "tail": 6771,
    "aile": 1270,
    "iled": 3753,
    "led ": 4261,
    " แ": 947,
    "แอ": 10329,
    "อฟ": 9445,
    "ฟร": 8748,
    "กั": 7765,
    "ัน": 9583,
    "นแ": 8554,
    "แฟ": 10307,
    "ฟต": 8734,
    "ตเ": 8309,
    "เท": 10160,
    "ทล": 8364,
    "ลเ": 9203,
    " แอ": 960,
    "แอฟ": 10336,
    "อฟร": 9446,
    "ฟริ": 8751,
    "ิกั": 9826,
    "กัน": 7768,
    "ันแ": 9602,
    "นแฟ": 8557,
    "แฟต": 10308,
    "ฟตเ": 8735,
    "ตเท": 8310,
    "เทล": 10161,
    "ทลเ": 8366,
    "ลเก": 9204,
    " แอฟ": 963,
    "แอฟร": 10337,
    "อฟริ": 9447,
    "ฟริก": 8752,
    "ริกั": 9024,
    "ิกัน": 9827,
    "กันแ": 7773,
    "ันแฟ": 9603,
    "นแฟต": 8558,
    "แฟตเ": 10309,
    "ฟตเท": 8736,
    "ตเทล": 8311,
    "เทลเ": 10163,
    "ทลเก": 8367,
    "ลเก็": 9205,
    "hem": 3396,
    "ith": 3984,
    "hec": 3380,
    "eco": 2558,
    "ony": 5403,
    "nyx": 5139,
    " hem": 322,
    "hemi": 3398,
    "emit": 2730,
    "mith": 4665,
    "ithe": 3986,
    "thec": 6872,
    "heco": 3381,
    "econ": 2561,
    "cony": 2142,
    "onyx": 5405,
    "nyx ": 5140,
    "ud": 7146,
    "cau": 1956,
    "aud": 1665,
    "udi": 7153,
    "dic": 2350,
    "ici": 3634,
    "cin": 2060,
    "inc": 3818,
    "nct": 4840,
    "ctu": 2204,
    " cau": 115,
    "caud": 1957,
    "audi": 1667,
    "udic": 7154,
    "dici": 2352,
    "icin": 3636,
    "cinc": 2061,
    "inct": 3823,
    "nctu": 4842,
    "ctus": 2205,
    " be": 69,
    "ear": 2513,
    "rde": 6047,
    "ded": 2306,
    " bea": 71,
    "bear": 1762,
    "eard": 2515,
    "arde": 1530,
    "rded": 6049,
    "ded ": 2307,
    "ag": 1234,
    "rag": 5957,
    "ago": 1245,
    "gon": 3271,
    "drag": 2431,
    "rago": 5959,
    "agon": 1247,
    "gon ": 3272,
    "เบ": 10178,
    "บี": 8642,
    "ยร": 8913,
    "ดด": 8190,
    "ดร": 8205,
    "าก": 9641,
    "ก้": 7829,
    "้อ": 10579,
    " เบ": 927,
    "เบี": 10185,
    "บีย": 8644,
    "ียร": 9950,
    "ยร์": 8914,
    "์เด": 10683,
    "ด็ด": 8244,
    "็ดด": 10463,
    "ดดร": 8191,
    "ดรา": 8206,
    "ราก": 9013,
    "าก้": 9648,
    "ก้อ": 7832,
    "้อน": 10582,
    " เบี": 928,
    "เบีย": 10186,
    "บียร": 8646,
    "ียร์": 9951,
    "ยร์เ": 8915,
    "ร์เด": 9097,
    "์เด็": 10684,
    "เด็ด": 10150,
    "ด็ดด": 8245,
    "็ดดร": 10464,
    "ดดรา": 8192,
    "ดราก": 8207,
    "ราก้": 9014,
    "าก้อ": 9649,
    "ก้อน": 7833,
    "้อน ": 10583,
    "pog": 5806,
    "ogo": 5257,
    "ona": 5354,
    "na ": 4781,
    " pog": 551,
    "pogo": 5807,
    "ogon": 5258,
    "gona": 3273,
    "ona ": 5355,
    "ps": 5856,
    "tti": 7057,
    "ice": 3625,
    "cep": 1985,
    "eps": 2828,
    "ps ": 5857,
    " vit": 749,
    "itti": 4000,
    "ttic": 7058,
    "tice": 6901,
    "icep": 3626,
    "ceps": 1987,
    "eps ": 2829,
    "ly": 4515,
    " fr": 265,
    "rie": 6162,
    "ien": 3679,
    "end": 2753,
    "ndl": 4866,
    "dly": 2391,
    "ly ": 4516,
    " fri": 267,
    "frie": 3125,
    "rien": 6165,
    "iend": 3680,
    "endl": 2756,
    "ndly": 4867,
    "dly ": 2392,
    " ur": 736,
    "uro": 7308,
    "rom": 6285,
    "oma": 5319,
    "mas": 4571,
    "ast": 1598,
    "sty": 6708,
    "tyx": 7095,
    " uro": 737,
    "urom": 7312,
    "roma": 6286,
    "omas": 5321,
    "mast": 4572,
    "asty": 1604,
    "styx": 6709,
    "tyx ": 7096,
    " ย": 886,
    "ยู": 8933,
    "รม": 8975,
    "มา": 8841,
    "าส": 9768,
    "ติ": 8293,
    "กซ": 7728,
    "ซ์": 8167,
    " ยู": 887,
    "ยูโ": 8934,
    "โรม": 10400,
    "รมา": 8976,
    "มาส": 8849,
    "าสต": 9769,
    "สติ": 9324,
    "ติก": 8294,
    "ิกซ": 9824,
    "กซ์": 7731,
    "ซ์ ": 8168,
    " ยูโ": 888,
    "ยูโร": 8935,
    "ูโรม": 10095,
    "โรมา": 10401,
    "รมาส": 8977,
    "มาสต": 8850,
    "าสติ": 9770,
    "สติก": 9325,
    "ติกซ": 8295,
    "ิกซ์": 9825,
    "กซ์ ": 7732,
    "ey": 3023,
    "yr": 7664,
    "gey": 3218,
    "eyr": 3032,
    "yri": 7665,
    "ri ": 6141,
    " gey": 282,
    "geyr": 3219,
    "eyri": 3033,
    "yri ": 7666,
    "erb": 2849,
    "rbi": 6019,
    " her": 324,
    "herb": 3409,
    "erbi": 2850,
    "rbiv": 6022,
    "bivo": 1806,
    "ue": 7159,
    "e-": 2473,
    "blu": 1817,
    "lue": 4494,
    "ue-": 7161,
    "e-t": 2488,
    "ton": 6984,
    "gue": 3317,
    "ued": 7166,
    " blu": 83,
    "blue": 1818,
    "lue-": 4496,
    "ue-t": 7165,
    "e-to": 2490,
    "-ton": 1062,
    "tong": 6988,
    "ongu": 5376,
    "ngue": 4954,
    "gued": 3318,
    "ued ": 7167,
    "sk": 6596,
    "nk": 4997,
    " sk": 649,
    "ski": 6598,
    "ink": 3851,
    "nk ": 4998,
    " ski": 650,
    "skin": 6601,
    "kink": 4102,
    "ink ": 3852,
    "ลู": 9194,
    "ทั": 8375,
    "ัง": 9570,
    "สก": 9304,
    "กิ": 7782,
    "ิ้": 9911,
    "้ง": 10547,
    "ง ": 7977,
    " บล": 854,
    "บลู": 8605,
    "ลูท": 9195,
    "ูทั": 10037,
    "ทัง": 8376,
    "ังส": 9573,
    "งสก": 8003,
    "สกิ": 9309,
    "กิ้": 7785,
    "ิ้ง": 9912,
    "้ง ": 10548,
    " บลู": 855,
    "บลูท": 8606,
    "ลูทั": 9196,
    "ูทัง": 10038,
    "ทังส": 8377,
    "ังสก": 9574,
    "งสกิ": 8004,
    "สกิ้": 9310,
    "กิ้ง": 7786,
    "ิ้ง ": 9913,
    "iq": 3918,
    "qu": 5907,
    "ua": 7098,
    " ti": 705,
    "liq": 4349,
    "iqu": 3919,
    "qua": 5908,
    "ua ": 7099,
    " til": 707,
    "tili": 6913,
    "iliq": 3760,
    "liqu": 4350,
    "iqua": 3920,
    "qua ": 5909,
    "sc": 6483,
    "oi": 5262,
    " sc": 626,
    "sci": 6492,
    "nco": 4836,
    "coi": 2128,
    "oid": 5267,
    "ide": 3654,
    "des": 2335,
    " sci": 629,
    "scin": 6494,
    "inco": 3822,
    "ncoi": 4837,
    "coid": 2129,
    "oide": 5269,
    "ides": 3657,
    "des ": 2336,
    "ack": 1163,
    "cki": 2086,
    "kie": 4092,
    "ie ": 3670,
    " ack": 5,
    "acki": 1167,
    "ckie": 2087,
    "kie ": 4093,
    "mon": 4689,
    "oni": 5377,
    "nit": 4987,
    "ito": 3994,
    " mon": 456,
    "moni": 4694,
    "onit": 5382,
    "nito": 4989,
    "itor": 3997,
    "อค": 9414,
    "คก": 7856,
    "กี": 7787,
    "ี้": 9974,
    "้ม": 10570,
    "มอ": 8833,
    "นิ": 8523,
    "ิเ": 9901,
    "แอค": 10332,
    "อคก": 9415,
    "คกี": 7857,
    "กี้": 7788,
    "ี้ม": 9975,
    "้มอ": 10572,
    "มอน": 8834,
    "อนิ": 9439,
    "นิเ": 8526,
    "ิเต": 9906,
    " แอค": 962,
    "แอคก": 10333,
    "อคกี": 9416,
    "คกี้": 7858,
    "กี้ม": 7789,
    "ี้มอ": 9976,
    "้มอน": 10573,
    "มอนิ": 8836,
    "อนิเ": 9440,
    "นิเต": 8527,
    "ิเตอ": 9907,
    "va": 7366,
    " va": 739,
    "var": 7377,
    "ara": 1510,
    " var": 741,
    "vara": 7378,
    "aran": 1517,
    "ranu": 5984,
    "anus": 1470,
    "ru": 6386,
    "aca": 1139,
    "thu": 6887,
    "hur": 3536,
    "uru": 7321,
    "rus": 6404,
    " aca": 4,
    "acan": 1141,
    "cant": 1928,
    "nthu": 5094,
    "thur": 6888,
    "huru": 3539,
    "urus": 7322,
    "rus ": 6405,
    "int": 3866,
    "nte": 5083,
    "tel": 6828,
    "ell": 2691,
    "lli": 4382,
    "lig": 4331,
    "ige": 3718,
    "gen": 3199,
    "ent": 2786,
    " int": 359,
    "inte": 3867,
    "ntel": 5086,
    "tell": 6832,
    "elli": 2695,
    "llig": 4387,
    "lige": 4333,
    "igen": 3719,
    "gent": 3202,
    "ent ": 2787,
    "av": 1681,
    "nn": 5007,
    "ah": 1253,
    "sav": 6479,
    "ava": 1682,
    "van": 7374,
    "ann": 1445,
    "nna": 5010,
    "nah": 4788,
    "ah ": 1254,
    " sav": 625,
    "sava": 6480,
    "avan": 1684,
    "vann": 7376,
    "anna": 1447,
    "nnah": 5011,
    "nah ": 4789,
    " ซ": 821,
    "ซา": 8135,
    "าว": 9761,
    "วั": 9276,
    "นน": 8472,
    "น่": 8574,
    " ซา": 825,
    "ซาว": 8138,
    "าวั": 9764,
    "วัน": 9277,
    "ันน": 9592,
    "นน่": 8475,
    "น่า": 8575,
    "่าม": 10526,
    "ามอ": 9723,
    " ซาว": 826,
    "ซาวั": 8139,
    "าวัน": 9765,
    "วันน": 9278,
    "ันน่": 9593,
    "นน่า": 8476,
    "น่าม": 8577,
    "่ามอ": 10527,
    "ามอน": 9724,
    "ex": 3013,
    "xa": 7503,
    " ex": 232,
    "exa": 3014,
    "xan": 7504,
    "ema": 2719,
    " exa": 233,
    "exan": 3015,
    "xant": 7506,
    "them": 6874,
    "hema": 3397,
    "emat": 2721,
    " st": 672,
    "tro": 7035,
    " str": 676,
    "stro": 6703,
    "tron": 7038,
    "ong ": 5370,
    " ig": 351,
    "igu": 3733,
    "gua": 3312,
    "uan": 7108,
    "ana": 1408,
    " igu": 352,
    "igua": 3734,
    "guan": 3313,
    "uana": 7109,
    "ana ": 1409,
    "นอ": 8508,
    "อิ": 9515,
    "ัว": 9621,
    "วน": 9254,
    " กร": 781,
    "ีนอ": 9932,
    "นอิ": 8511,
    "อิก": 9516,
    "กัว": 7777,
    "ัวน": 9624,
    "วน่": 9255,
    " กรี": 783,
    "รีนอ": 9036,
    "ีนอิ": 9933,
    "นอิก": 8512,
    "อิกั": 9517,
    "ิกัว": 9828,
    "กัวน": 7778,
    "ัวน่": 9625,
    "วน่า": 9256,
    "น่า ": 8576,
    " can": 110,
    "bec": 1765,
    "com": 2134,
    "ome": 5325,
    "me ": 4605,
    " bec": 72,
    "beco": 1766,
    "ecom": 2560,
    "come": 2135,
    "ome ": 5326,
    "ad": 1188,
    "_c": 1091,
    "l_": 4153,
    "_o": 1105,
    "r_": 5934,
    "tra": 7014,
    "rad": 5951,
    "ade": 1197,
    "de_": 2302,
    "e_c": 2492,
    "_co": 1094,
    "ont": 5393,
    "ntr": 5107,
    "rol": 6282,
    "ol_": 5280,
    "l_o": 4154,
    "_or": 1106,
    "or_": 5460,
    "r_c": 5935,
    "_ci": 1092,
    "cit": 2072,
    "ite": 3978,
    "s_s": 6456,
    " tra": 721,
    "trad": 7016,
    "rade": 5953,
    "ade_": 1198,
    "de_c": 2303,
    "e_co": 2493,
    "_con": 1095,
    "cont": 2139,
    "ontr": 5396,
    "ntro": 5109,
    "trol": 7037,
    "rol_": 6283,
    "ol_o": 5281,
    "l_or": 4155,
    "_or_": 1107,
    "or_c": 5461,
    "r_ci": 5936,
    "_cit": 1093,
    "cite": 2073,
    "ites": 3983,
    "tes_": 6856,
    "es_s": 2929,
    "s_si": 6457,
    "cub": 2209,
    "uba": 7115,
    "ban": 1742,
    " cub": 155,
    "cuba": 2210,
    "uban": 7116,
    "ban ": 1743,
    "roc": 6264,
    "ock": 5190,
    "ck ": 2079,
    " roc": 608,
    "rock": 6268,
    "ock ": 5191,
    " ค": 790,
    "ิว": 9891,
    "วบ": 9257,
    "บั": 8623,
    "นร": 8492,
    "ร็": 9052,
    "็อ": 10480,
    " คิ": 794,
    "คิว": 7955,
    "ิวบ": 9894,
    "วบั": 9260,
    "บัน": 8626,
    "ันร": 9596,
    "นร็": 8493,
    "ร็อ": 9053,
    "็อก": 10481,
    "อกอ": 9409,
    "กอิ": 7763,
    " คิว": 796,
    "คิวบ": 7956,
    "ิวบั": 9895,
    "วบัน": 9261,
    "บันร": 8627,
    "ันร็": 9597,
    "นร็อ": 8494,
    "ร็อก": 9054,
    "็อกอ": 10485,
    "อกอิ": 9410,
    "กอิก": 7764,
    "cy": 2228,
    "yc": 7567,
    " cy": 159,
    "cyc": 2232,
    "ycl": 7573,
    "clu": 2108,
    "lur": 4504,
    " cyc": 161,
    "cycl": 2233,
    "yclu": 7574,
    "clur": 2109,
    "lura": 4505,
    " nu": 488,
    "nub": 5116,
    "ubi": 7119,
    "bil": 1792,
    "ila": 3740,
    "la ": 4159,
    " nub": 489,
    "nubi": 5117,
    "ubil": 7121,
    "bila": 1794,
    "ila ": 3741,
    "ham": 3356,
    "ame": 1381,
    "mel": 4613,
    "ele": 2675,
    "eon": 2805,
    " cha": 122,
    "cham": 2001,
    "hame": 3358,
    "amel": 1382,
    "mele": 4615,
    "eleo": 2678,
    "leon": 4274,
    "eon ": 2806,
    "แพ": 10300,
    "พน": 8697,
    "เธ": 10165,
    "์ค": 10616,
    "าเ": 9788,
    "เม": 10198,
    "มเ": 8866,
    "ลี": 9185,
    "ยน": 8907,
    " แพ": 952,
    "แพน": 10303,
    "พนเ": 8698,
    "นเธ": 8548,
    "เธอ": 10166,
    "ธอร": 8420,
    "ร์ค": 9067,
    "์คา": 10617,
    "คาเ": 7945,
    "าเม": 9791,
    "เมเ": 10205,
    "มเล": 8869,
    "เลี": 10231,
    "ลีย": 9187,
    "ียน": 9946,
    "ยน ": 8908,
    " แพน": 954,
    "แพนเ": 10304,
    "พนเธ": 8699,
    "นเธอ": 8549,
    "เธอร": 10167,
    "ธอร์": 8421,
    "อร์ค": 9466,
    "ร์คา": 9068,
    "์คาเ": 10618,
    "คาเม": 7947,
    "าเมเ": 9792,
    "เมเล": 10206,
    "มเลี": 8870,
    "เลีย": 10232,
    "ลียน": 9188,
    "ียน ": 9947,
    "rc": 6030,
    " fu": 269,
    "fur": 3138,
    "urc": 7288,
    "rci": 6035,
    "cif": 2054,
    " fur": 270,
    "furc": 3139,
    "urci": 7289,
    "rcif": 6036,
    "cife": 2055,
    "rda": 6044,
    "dal": 2274,
    "lis": 4351,
    " par": 527,
    "arda": 1529,
    "rdal": 6046,
    "dali": 2275,
    "alis": 1338,
    "lis ": 4352,
    "ei": 2651,
    " ve": 742,
    "vei": 7388,
    "eil": 2657,
    " vei": 743,
    "veil": 7389,
    "eile": 2658,
    " ว": 894,
    "วี": 9284,
    "ีล": 9952,
    "ลด": 9120,
    "ด์": 8248,
    " วี": 897,
    "วีล": 9285,
    "ีลด": 9953,
    "ลด์": 9123,
    "ด์ค": 8250,
    " วีล": 898,
    "วีลด": 9286,
    "ีลด์": 9954,
    "ลด์ค": 9124,
    "ด์คา": 8251,
    "mae": 4542,
    "ael": 1216,
    "eo ": 2796,
    "hama": 3357,
    "amae": 1370,
    "mael": 4543,
    "aele": 1217,
    "leo ": 4273,
    "yp": 7650,
    "aly": 1364,
    "lyp": 4523,
    "ypt": 7661,
    "ptr": 5876,
    "caly": 1920,
    "alyp": 1366,
    "lypt": 4524,
    "yptr": 7663,
    "ptra": 5877,
    "trat": 7019,
    "ratu": 6002,
    "rri": 6340,
    "rit": 6197,
    "ori": 5478,
    "erri": 2901,
    "rrit": 6343,
    "rito": 6200,
    "tori": 6997,
    "oria": 5479,
    "ks": 4124,
    "jac": 4036,
    "cks": 2092,
    "kso": 4127,
    "son": 6630,
    "on'": 5348,
    " jac": 363,
    "jack": 4038,
    "acks": 1168,
    "ckso": 2093,
    "kson": 4128,
    "son'": 6632,
    "on's": 5349,
    "แจ": 10282,
    "จ็": 8081,
    "็ค": 10453,
    "คส": 7915,
    "สั": 9329,
    "นค": 8436,
    " แจ": 950,
    "แจ็": 10283,
    "จ็ค": 8082,
    "็คส": 10458,
    "คสั": 7916,
    "สัน": 9330,
    "ันค": 9585,
    "นคา": 8439,
    " แจ็": 951,
    "แจ็ค": 10284,
    "จ็คส": 8083,
    "็คสั": 10459,
    "คสัน": 7917,
    "สันค": 9331,
    "ันคา": 9587,
    "นคาเ": 8441,
    "ioc": 3878,
    "oce": 5174,
    "cer": 1988,
    "os ": 5514,
    "trio": 7029,
    "rioc": 6184,
    "ioce": 3879,
    "ocer": 5177,
    "cero": 1991,
    "eros": 2894,
    "ros ": 6305,
    "ii": 3736,
    "nii": 4976,
    "ii ": 3737,
    "soni": 6634,
    "onii": 5381,
    "nii ": 4977,
    "lc": 4224,
    "sul": 6719,
    "ulc": 7211,
    "lca": 4225,
    " sul": 680,
    "sulc": 6720,
    "ulca": 7212,
    "lcat": 4226,
    "cata": 1950,
    "ort": 5499,
    "rto": 6382,
    "toi": 6971,
    "ois": 5271,
    "ise": 3951,
    " tor": 717,
    "tort": 7000,
    "orto": 5503,
    "rtoi": 6383,
    "tois": 6974,
    "oise": 5273,
    "ise ": 3952,
    "ซู": 8158,
    "ูล": 10056,
    "าต": 9679,
    "ต้": 8328,
    "้า": 10584,
    " ซู": 831,
    "ซูล": 8159,
    "ูลค": 10057,
    "ลคา": 9116,
    "คาต": 7934,
    "าต้": 9680,
    "ต้า": 8331,
    "้า ": 10585,
    " ซูล": 832,
    "ซูลค": 8160,
    "ูลคา": 10058,
    "ลคาต": 9117,
    "คาต้": 7935,
    "าต้า": 9681,
    "ต้า ": 8332,
    "ys": 7671,
    "och": 5178,
    "che": 2004,
    "ely": 2716,
    "lys": 4525,
    "ys ": 7672,
    "cent": 1984,
    "entr": 2792,
    "troc": 7036,
    "roch": 6266,
    "oche": 5180,
    "chel": 2008,
    "hely": 3395,
    "elys": 2717,
    "lys ": 4526,
    "ดท": 8196,
    "ทอ": 8370,
    "์ท": 10632,
    "ยส": 8920,
    "ส์": 9360,
    "์ดท": 10626,
    "ดทอ": 8197,
    "ทอร": 8373,
    "ร์ท": 9077,
    "์ทอ": 10637,
    "ทอย": 8371,
    "อยส": 9460,
    "ยส์": 8921,
    "ส์ ": 9361,
    "ร์ดท": 9074,
    "์ดทอ": 10627,
    "ดทอร": 8198,
    "ทอร์": 8374,
    "อร์ท": 9468,
    "ร์ทอ": 9079,
    "์ทอย": 10638,
    "ทอยส": 8372,
    "อยส์": 9461,
    "ยส์ ": 8922,
    "gm": 3251,
    "sti": 6686,
    "tig": 6906,
    "igm": 3725,
    "gmo": 3252,
    "moc": 4684,
    " sti": 675,
    "stig": 6688,
    "tigm": 6908,
    "igmo": 3726,
    "gmoc": 3253,
    "moch": 4685,
    "ss": 6658,
    " ru": 614,
    "uss": 7341,
    "ssi": 6662,
    " rus": 617,
    "russ": 6406,
    "ussi": 7342,
    "ssia": 6663,
    "sian": 6566,
    "ian ": 3595,
    " ร": 889,
    "รั": 9006,
    "ัส": 9632,
    "เซ": 10136,
    " รั": 890,
    "รัส": 9009,
    "ัสเ": 9634,
    "สเซ": 9345,
    "เซี": 10137,
    "ซีย": 8152,
    "ยนท": 8909,
    "นทอ": 8465,
    " รัส": 891,
    "รัสเ": 9010,
    "ัสเซ": 9636,
    "สเซี": 9346,
    "เซีย": 10138,
    "ซียน": 8153,
    "ียนท": 9948,
    "ยนทอ": 8910,
    "นทอร": 8466,
    "stu": 6705,
    "tud": 7070,
    "udo": 7155,
    "do ": 2394,
    " tes": 700,
    "test": 6857,
    "estu": 2951,
    "stud": 6706,
    "tudo": 7071,
    "udo ": 7156,
    "sf": 6543,
    "fi": 3078,
    "ors": 5496,
    "rsf": 6357,
    "sfi": 6544,
    "fie": 3081,
    "iel": 3675,
    "eld": 2673,
    "ldi": 4239,
    "dii": 2355,
    " hor": 334,
    "hors": 3496,
    "orsf": 5498,
    "rsfi": 6358,
    "sfie": 6545,
    "fiel": 3082,
    "ield": 3677,
    "eldi": 2674,
    "ldii": 4241,
    "dii ": 2356,
    "rma": 6229,
    "man": 4555,
    "nn'": 5008,
    "herm": 3412,
    "erma": 2881,
    "rman": 6232,
    "mann": 4559,
    "ann'": 1446,
    "nn's": 5009,
    "เฮ": 10256,
    "์แ": 10698,
    "แม": 10312,
    "มน": 8809,
    " เฮ": 944,
    "เฮอ": 10259,
    "ฮอร": 9552,
    "ร์แ": 9104,
    "์แม": 10702,
    "แมน": 10313,
    "มนท": 8810,
    " เฮอ": 946,
    "เฮอร": 10260,
    "ฮอร์": 9553,
    "อร์แ": 9476,
    "ร์แม": 9106,
    "์แมน": 10703,
    "แมนท": 10314,
    "มนทอ": 8811,
    "nni": 5015,
    "anni": 1448,
    "nni ": 5016,
    "-f": 1022,
    "red": 6068,
    "ed-": 2574,
    "d-f": 2255,
    "-fo": 1025,
    "foo": 3110,
    "oot": 5417,
    " red": 592,
    "red-": 6070,
    "ed-f": 2578,
    "d-fo": 2256,
    "-foo": 1026,
    "foot": 3112,
    "oote": 5418,
    "oted": 5554,
    "รด": 8958,
    "ดฟ": 8199,
    "ฟุ": 8780,
    "ุต": 9993,
    "ตท": 8265,
    " เร": 935,
    "เรด": 10212,
    "รดฟ": 8962,
    "ดฟุ": 8200,
    "ฟุต": 8781,
    "ุตท": 9994,
    "ตทอ": 8266,
    " เรด": 936,
    "เรดฟ": 10215,
    "รดฟุ": 8963,
    "ดฟุต": 8201,
    "ฟุตท": 8782,
    "ุตทอ": 9995,
    "ตทอร": 8267,
    "lon": 4425,
    "ono": 5386,
    "noi": 5032,
    " che": 123,
    "helo": 3392,
    "elon": 2706,
    "lono": 4429,
    "onoi": 5388,
    "noid": 5033,
    "oidi": 5270,
    "bon": 1830,
    "nar": 4801,
    "carb": 1941,
    "rbon": 6026,
    "bona": 1831,
    "onar": 5357,
    "nari": 4802,
    "ab": 1126,
    "ald": 1324,
    "lda": 4235,
    "dab": 2270,
    "abr": 1134,
    "bra": 1854,
    " ald": 19,
    "alda": 1326,
    "ldab": 4236,
    "dabr": 2271,
    "abra": 1135,
    "bra ": 1855,
    " อ": 908,
    "อั": 9499,
    "ัล": 9610,
    "ดา": 8218,
    "าบ": 9700,
    "บร": 8587,
    " อั": 911,
    "อัล": 9502,
    "ัลด": 9612,
    "ลดา": 9121,
    "ดาบ": 8219,
    "าบร": 9703,
    "บรา": 8592,
    "ายั": 9733,
    " อัล": 913,
    "อัลด": 9503,
    "ัลดา": 9613,
    "ลดาบ": 9122,
    "ดาบร": 8220,
    "าบรา": 9704,
    "บราย": 8594,
    "รายั": 9020,
    "ายัก": 9734,
    "rac": 5943,
    "ach": 1153,
    "brac": 1856,
    "rach": 5946,
    "ache": 1155,
    "gig": 3234,
    "iga": 3714,
    "gan": 3165,
    "tea": 6814,
    "ea ": 2497,
    " gig": 287,
    "giga": 3235,
    "igan": 3715,
    "gant": 3167,
    "ante": 1460,
    "ntea": 5084,
    "tea ": 6815,
    "-e": 1017,
    "d-e": 2252,
    "-ea": 1018,
    "ed-e": 2577,
    "d-ea": 2253,
    "-ear": 1019,
    "eare": 2516,
    "ared": 1536,
    "red ": 6069,
    "sl": 6605,
    " sl": 652,
    "sli": 6606,
    "lid": 4320,
    "der": 2328,
    " sli": 653,
    "slid": 6607,
    "lide": 4322,
    "ider": 3656,
    "der ": 2329,
    "ต่": 8322,
    "าแ": 9794,
    "มแ": 8873,
    "แด": 10290,
    "ดง": 8183,
    " เต": 925,
    "เต่": 10158,
    "ต่า": 8323,
    "่าแ": 10537,
    "าแก": 9795,
    "แก้": 10264,
    "ก้ม": 7830,
    "้มแ": 10574,
    "มแด": 8874,
    "แดง": 10291,
    "ดง ": 8184,
    " เต่": 926,
    "เต่า": 10159,
    "ต่าแ": 8327,
    "่าแก": 10538,
    "าแก้": 9796,
    "แก้ม": 10265,
    "ก้มแ": 7831,
    "้มแด": 10575,
    "มแดง": 8875,
    "แดง ": 10292,
    "my": 4751,
    "emy": 2739,
    "mys": 4764,
    "trac": 7015,
    "chem": 2009,
    "hemy": 3399,
    "emys": 2740,
    "mys ": 4765,
    "ip": 3904,
    "scr": 6500,
    "cri": 2168,
    "rip": 6188,
    "ipt": 3914,
    "pta": 5868,
    " scr": 631,
    "scri": 6501,
    "crip": 2171,
    "ript": 6191,
    "ipta": 3915,
    "pta ": 5869,
    "leg": 4262,
    "ega": 2636,
    "ans": 1455,
    "ns ": 5065,
    " ele": 214,
    "eleg": 2677,
    "lega": 4264,
    "egan": 2638,
    "gans": 3166,
    "ans ": 1456,
    "tl": 6939,
    " tu": 724,
    "tur": 7077,
    "urt": 7319,
    "rtl": 6380,
    "tle": 6943,
    " tur": 725,
    "turt": 7079,
    "urtl": 7320,
    "rtle": 6381,
    "tle ": 6944,
    "sh": 6546,
    "hw": 3542,
    "wa": 7453,
    "fre": 3121,
    "esh": 2936,
    "shw": 6559,
    "hwa": 3543,
    "wat": 7464,
    " fre": 266,
    "fres": 3122,
    "resh": 6100,
    "eshw": 2937,
    "shwa": 6560,
    "hwat": 3544,
    "wate": 7465,
    "ater": 1624,
    "ter ": 6843,
    " mat": 432,
    "mata": 4574,
    " ม": 880,
    "ทา": 8378,
    "ท่": 8405,
    " มา": 881,
    "มาท": 8844,
    "าทา": 9683,
    "ทาม": 8379,
    "ามา": 9725,
    "าท่": 9689,
    "ท่า": 8406,
    " มาท": 882,
    "มาทา": 8845,
    "าทาม": 9684,
    "ทามา": 8380,
    "ามาท": 9726,
    "มาท่": 8846,
    "าท่า": 9690,
    "ท่า ": 8407,
    "elu": 2714,
    "helu": 3394,
    "elus": 2715,
    "mb": 4583,
    " fi": 249,
    "fim": 3087,
    "imb": 3791,
    "mbr": 4596,
    " fim": 252,
    "fimb": 3088,
    "imbr": 3793,
    "mbri": 4598,
    "bria": 1864,
    "riat": 6146,
    "iata": 3601,
    " all": 21,
    "alli": 1345,
    "liga": 4332,
    "igat": 3717,
    "gato": 3178,
    "pp": 5828,
    "nap": 4799,
    "app": 1493,
    "ppi": 5835,
    "pin": 5773,
    "snap": 6616,
    "napp": 4800,
    "appi": 1496,
    "ppin": 5836,
    "ping": 5776,
    "สแ": 9352,
    "แน": 10294,
    "นป": 8480,
    "ปป": 8661,
    "ปิ": 8673,
    "งย": 7999,
    "่าส": 10530,
    "าสแ": 9775,
    "สแน": 9353,
    "แนป": 10295,
    "นปป": 8481,
    "ปปิ": 8662,
    "ปิ้": 8676,
    "้งย": 10557,
    "งยั": 8000,
    "ต่าส": 8326,
    "่าสแ": 10532,
    "าสแน": 9776,
    "สแนป": 9354,
    "แนปป": 10296,
    "นปปิ": 8482,
    "ปปิ้": 8663,
    "ปิ้ง": 8677,
    "ิ้งย": 9914,
    "้งยั": 10558,
    "งยัก": 8001,
    "acr": 1177,
    "cro": 2173,
    "macr": 4538,
    "acro": 1179,
    "croc": 2174,
    "mm": 4668,
    "tem": 6833,
    "emm": 2731,
    "mmi": 4671,
    "min": 4650,
    "nck": 4832,
    "kii": 4094,
    " tem": 697,
    "temm": 6834,
    "emmi": 2732,
    "mmin": 4672,
    "minc": 4652,
    "inck": 3821,
    "ncki": 4833,
    "ckii": 2088,
    "kii ": 4095,
    "dan": 2276,
    "rou": 6314,
    " dan": 167,
    "dang": 2277,
    "ange": 1431,
    "gero": 3212,
    "erou": 2895,
    "rous": 6317,
    "bit": 1801,
    "te ": 6809,
    " bit": 78,
    "bite": 1802,
    "ite ": 3979,
    "hin": 3437,
    "ine": 3828,
    "chin": 2015,
    "hine": 3440,
    "ines": 3835,
    "of": 5236,
    "ft": 3130,
    "ts": 7045,
    "sof": 6623,
    "oft": 5241,
    "fts": 3133,
    "tsh": 7046,
    "she": 6553,
    " sof": 660,
    "soft": 6624,
    "ofts": 5243,
    "ftsh": 3134,
    "tshe": 7047,
    "shel": 6554,
    "hell": 3390,
    "ell ": 2692,
    "าน": 9691,
    "ิ่": 9908,
    "่ม": 10502,
    "มจ": 8798,
    "จี": 8073,
    "่าน": 10522,
    "านิ": 9694,
    "นิ่": 8528,
    "ิ่ม": 9909,
    "่มจ": 10503,
    "มจี": 8799,
    "จีน": 8074,
    "ีน ": 9927,
    "ต่าน": 8325,
    "่านิ": 10523,
    "านิ่": 9695,
    "นิ่ม": 8529,
    "ิ่มจ": 9910,
    "่มจี": 10504,
    "มจีน": 8800,
    "จีน ": 8075,
    " pe": 529,
    "lod": 4418,
    "odi": 5214,
    "isc": 3948,
    "scu": 6502,
    " pel": 531,
    "pelo": 5699,
    "elod": 2704,
    "lodi": 4420,
    "odis": 5216,
    "disc": 2375,
    "iscu": 3950,
    "scus": 6505,
    " si": 644,
    "sin": 6581,
    "nen": 4898,
    "sis": 6588,
    " sin": 647,
    "sine": 6582,
    "inen": 3832,
    "nens": 4900,
    "nsis": 5073,
    "sis ": 6589,
    "g-": 3150,
    "-n": 1040,
    "pig": 5767,
    "ig-": 3712,
    "g-n": 3151,
    "-no": 1041,
    "sed": 6514,
    " pig": 540,
    "pig-": 5769,
    "ig-n": 3713,
    "g-no": 3152,
    "-nos": 1042,
    "osed": 5524,
    "sed ": 6515,
    "าจ": 9667,
    "จม": 8067,
    "มู": 8862,
    "กห": 7755,
    "หม": 9376,
    "ู ": 10010,
    "่าจ": 10518,
    "าจม": 9668,
    "จมู": 8068,
    "มูก": 8864,
    "ูกห": 10014,
    "กหม": 7756,
    "หมู": 9379,
    "มู ": 8863,
    "ต่าจ": 8324,
    "่าจม": 10519,
    "าจมู": 9669,
    "จมูก": 8069,
    "มูกห": 8865,
    "ูกหม": 10015,
    "กหมู": 7757,
    "หมู ": 9380,
    "ett": 2972,
    "tto": 7062,
    "toc": 6960,
    "care": 1942,
    "aret": 1538,
    "rett": 6107,
    "etto": 2975,
    "ttoc": 7063,
    "toch": 6963,
    "lp": 4458,
    "nsc": 5066,
    "ulp": 7223,
    "lpt": 4467,
    "insc": 3864,
    "nscu": 5067,
    "scul": 6503,
    "culp": 2214,
    "ulpt": 7226,
    "lpta": 4468,
    "cta": 2186,
    "tac": 6761,
    "acl": 1169,
    "cle": 2098,
    " spe": 666,
    "pect": 5693,
    "ecta": 2567,
    "ctac": 2188,
    "tacl": 6764,
    "acle": 1170,
    "cled": 2101,
    "cai": 1907,
    "aim": 1273,
    " cai": 107,
    "caim": 1908,
    "aima": 1274,
    "iman": 3789,
    "man ": 4556,
    " ไ": 976,
    "ไค": 10412,
    "คแ": 7966,
    "แว": 10321,
    "ว่": 9292,
    " ไค": 977,
    "ไคแ": 10415,
    "คแม": 7967,
    "มนแ": 8816,
    "นแว": 8559,
    "แว่": 10324,
    "ว่น": 9293,
    " ไคแ": 979,
    "ไคแม": 10416,
    "คแมน": 7968,
    "แมนแ": 10317,
    "มนแว": 8818,
    "นแว่": 8560,
    "แว่น": 10325,
    "ว่น ": 9294,
    "oco": 5193,
    "dil": 2357,
    "ilu": 3778,
    " cro": 151,
    "roco": 6269,
    "ocod": 5195,
    "codi": 2125,
    "odil": 5215,
    "dilu": 2361,
    "ilus": 3780,
    "dili": 2359,
    "lian": 4315,
    "aq": 1503,
    "-aq": 998,
    "aqu": 1504,
    "uat": 7112,
    "i-aq": 3579,
    "-aqu": 999,
    "aqua": 1505,
    "quat": 5912,
    "uati": 7113,
    "uv": 7363,
    "r'": 5919,
    "cuv": 2226,
    "uvi": 7364,
    "vie": 7415,
    "ier": 3683,
    "er'": 2838,
    "r's": 5920,
    " cuv": 158,
    "cuvi": 2227,
    "uvie": 7365,
    "vier": 7416,
    "ier'": 3684,
    "er's": 2839,
    "r's ": 5921,
    "dw": 2462,
    "f ": 3039,
    " dw": 197,
    "dwa": 2463,
    "war": 7461,
    "arf": 1539,
    "rf ": 6115,
    " dwa": 198,
    "dwar": 2464,
    "warf": 7462,
    "arf ": 1540,
    "ระ": 9002,
    "ะ ": 9557,
    "นแค": 8555,
    "แคร": 10276,
    "คระ": 7900,
    "ระ ": 9003,
    "มนแค": 8817,
    "นแคร": 8556,
    "แคระ": 10278,
    "คระ ": 7901,
    "uc": 7128,
    "pal": 5664,
    "eos": 2812,
    "osu": 5540,
    "suc": 6715,
    "uch": 7133,
    "chu": 2035,
    " pal": 525,
    "pale": 5665,
    "aleo": 1330,
    "leos": 4276,
    "eosu": 2814,
    "osuc": 5541,
    "such": 6716,
    "uchu": 7136,
    "chus": 2037,
    "eb": 2530,
    "alp": 1351,
    "lpe": 4459,
    "peb": 5689,
    "ebr": 2537,
    "sus": 6733,
    "palp": 5666,
    "alpe": 1352,
    "lpeb": 4460,
    "pebr": 5690,
    "ebro": 2539,
    "bros": 1872,
    "rosu": 6308,
    "osus": 5543,
    "sus ": 6734,
    "ax": 1702,
    "xo": 7524,
    " ax": 61,
    "axo": 1704,
    "xol": 7525,
    "otl": 5565,
    "tl ": 6940,
    " axo": 62,
    "axol": 1705,
    "xolo": 7526,
    "olot": 5307,
    "lotl": 4447,
    "otl ": 5566,
    "โซ": 10354,
    "ซล": 8121,
    "ลอ": 9152,
    "อเ": 9525,
    "ล ": 9112,
    "แอก": 10330,
    "กโซ": 7820,
    "โซล": 10355,
    "ซลอ": 8124,
    "ลอเ": 9155,
    "อเต": 9528,
    "เติ": 10154,
    "ติล": 8298,
    "ิล ": 9882,
    " แอก": 961,
    "แอกโ": 10331,
    "อกโซ": 9412,
    "กโซล": 7821,
    "โซลอ": 10356,
    "ซลอเ": 8125,
    "ลอเต": 9156,
    "อเติ": 9529,
    "เติล": 10155,
    "ติล ": 8299,
    "by": 1891,
    " am": 23,
    "amb": 1375,
    "mby": 4602,
    "bys": 1895,
    "yst": 7679,
    "sto": 6695,
    "tom": 6979,
    " amb": 25,
    "amby": 1380,
    "mbys": 4603,
    "byst": 1896,
    "ysto": 7681,
    "stom": 6697,
    "toma": 6980,
    "oma ": 5320,
    "mex": 4633,
    "exi": 3016,
    "num": 5118,
    " mex": 445,
    "mexi": 4634,
    "exic": 3017,
    "xica": 7518,
    "canu": 1929,
    "anum": 1468,
    "num ": 5119,
    "ib": 3603,
    "mph": 4718,
    "hib": 3422,
    "ibi": 3608,
    "bia": 1783,
    " amp": 27,
    "amph": 1397,
    "mphi": 4720,
    "phib": 5732,
    "hibi": 3423,
    "ibia": 3609,
    "bian": 1784,
    "sal": 6465,
    "nde": 4855,
    " sal": 622,
    "sala": 6466,
    "alam": 1316,
    "lama": 4175,
    "aman": 1371,
    "mand": 4558,
    "ande": 1422,
    "nder": 4859,
    " tig": 706,
    "tige": 6907,
    "iger": 3720,
    "ger ": 3208,
    "ไท": 10417,
    "์ซ": 10619,
    "าล": 9757,
    "ดอ": 8208,
    " ไท": 980,
    "ไทเ": 10420,
    "ทเก": 8393,
    "เกอ": 10102,
    "กอร": 7761,
    "ร์ซ": 9069,
    "์ซา": 10620,
    "ซาล": 8136,
    "าลา": 9758,
    "ลาแ": 9175,
    "าแม": 9801,
    "มนเ": 8814,
    "เดอ": 10146,
    "ดอร": 8209,
    " ไทเ": 981,
    "ไทเก": 10421,
    "ทเกอ": 8394,
    "เกอร": 10103,
    "กอร์": 7762,
    "อร์ซ": 9467,
    "ร์ซา": 9070,
    "์ซาล": 10621,
    "ซาลา": 8137,
    "าลาแ": 9760,
    "ลาแม": 9176,
    "าแมน": 9802,
    "แมนเ": 10316,
    "มนเด": 8815,
    "นเดอ": 8546,
    "เดอร": 10147,
    "ดอร์": 8210,
    "igr": 3729,
    "gri": 3301,
    "tigr": 6909,
    "igri": 3731,
    "grin": 3302,
    "inum": 3871,
    "c-": 1898,
    "-s": 1049,
    "ic-": 3615,
    "c-s": 1899,
    "-sk": 1050,
    "in ": 3807,
    " tox": 719,
    "xic-": 7517,
    "ic-s": 3616,
    "c-sk": 1900,
    "-ski": 1051,
    "kin ": 4099,
    "fir": 3094,
    " fir": 254,
    "fire": 3095,
    "ire ": 3931,
    "ไฟ": 10431,
    " ไฟ": 982,
    "ไฟร": 10436,
    "ฟร์": 8755,
    " ไฟร": 983,
    "ไฟร์": 10437,
    "ฟร์ซ": 8757,
    "ndr": 4871,
    "andr": 1424,
    "ndra": 4872,
    "dra ": 2430,
    "wh": 7479,
    "e'": 2470,
    " wh": 763,
    "whi": 7480,
    "te'": 6810,
    "e's": 2471,
    " whi": 764,
    "whit": 7481,
    "hite": 3454,
    "ite'": 3980,
    "te's": 6811,
    "e's ": 2472,
    "fro": 3127,
    "rog": 6278,
    "og ": 5247,
    " fro": 268,
    "frog": 3128,
    "rog ": 6279,
    "ไว": 10438,
    "วท": 9250,
    "ท์": 8411,
    "ีฟ": 9939,
    " ไว": 984,
    "ไวท": 10439,
    "วท์": 9251,
    "ท์ท": 8412,
    "์ทร": 10635,
    "รีฟ": 9037,
    "ีฟร": 9940,
    "ฟร็": 8753,
    "อก ": 9402,
    " ไวท": 985,
    "ไวท์": 10440,
    "วท์ท": 9252,
    "ท์ทร": 8413,
    "์ทรี": 10636,
    "ทรีฟ": 8362,
    "รีฟร": 9038,
    "ีฟร็": 9941,
    "ฟร็อ": 8754,
    "็อก ": 10482,
    " lit": 406,
    "lito": 4356,
    "cae": 1905,
    "aer": 1222,
    "eru": 2912,
    "rul": 6397,
    "ule": 7216,
    "lea": 4250,
    " cae": 106,
    "caer": 1906,
    "aeru": 1224,
    "erul": 2913,
    "rule": 6398,
    "ulea": 7217,
    "lea ": 4251,
    " sm": 654,
    " sma": 655,
    "smal": 6611,
    "mall": 4552,
    "up": 7269,
    "gro": 3304,
    "oup": 5596,
    "ups": 7278,
    " gro": 305,
    "grou": 3306,
    "roup": 6316,
    "oups": 5598,
    "ups ": 7279,
    "-ey": 1020,
    "eye": 3029,
    "yed": 7583,
    "d-ey": 2254,
    "-eye": 1021,
    "eyed": 3030,
    "yed ": 7584,
    "ยด": 8903,
    "รดอ": 8964,
    "ดอา": 8211,
    "อาย": 9511,
    "ายด": 9731,
    "ยด์": 8904,
    "ด์ท": 8252,
    "เรดอ": 10216,
    "รดอา": 8965,
    "ดอาย": 8212,
    "อายด": 9512,
    "ายด์": 9732,
    "ยด์ท": 8906,
    "ด์ทร": 8253,
    "hn": 3468,
    " ag": 14,
    "aga": 1235,
    "gal": 3157,
    "lyc": 4519,
    "ych": 7571,
    "chn": 2023,
    "hni": 3473,
    "nis": 4984,
    " aga": 15,
    "agal": 1237,
    "galy": 3162,
    "alyc": 1365,
    "lych": 4520,
    "ychn": 7572,
    "chni": 2025,
    "hnis": 3474,
    "nis ": 4985,
    "idr": 3665,
    "dry": 2443,
    "rya": 6422,
    "yas": 7559,
    "as ": 1583,
    "call": 1918,
    "llid": 4385,
    "lidr": 4323,
    "idry": 3666,
    "drya": 2444,
    "ryas": 6423,
    "yas ": 7560,
    "cm": 2110,
    "pac": 5654,
    "acm": 1171,
    "cma": 2111,
    " pac": 522,
    "pacm": 5656,
    "acma": 1172,
    "cman": 2112,
    "พค": 8691,
    "นฟ": 8486,
    "แพค": 10301,
    "พคแ": 8692,
    "มนฟ": 8812,
    "นฟร": 8487,
    " แพค": 953,
    "แพคแ": 10302,
    "พคแม": 8693,
    "แมนฟ": 10315,
    "มนฟร": 8813,
    "นฟร็": 8488,
    "top": 6991,
    "phr": 5744,
    "hry": 3525,
    "rys": 6430,
    " cer": 120,
    "cera": 1989,
    "atop": 1647,
    "toph": 6994,
    "ophr": 5433,
    "phry": 5748,
    "hrys": 3526,
    "rys ": 6431,
    " or": 508,
    "rna": 6245,
    "nat": 4808,
    " orn": 510,
    "orna": 5488,
    "rnat": 6248,
    "nata": 4809,
    "-w": 1065,
    "it-": 3966,
    "t-a": 6746,
    "-an": 996,
    "nd-": 4847,
    "d-w": 2263,
    "-wa": 1066,
    "wai": 7454,
    "ait": 1285,
    " sit": 648,
    "sit-": 6591,
    "it-a": 3967,
    "t-an": 6747,
    "-and": 997,
    "and-": 1420,
    "nd-w": 4849,
    "d-wa": 2264,
    "-wai": 1067,
    "wait": 7455,
    "ait ": 1286,
    "to ": 6957,
    " tom": 716,
    "omat": 5322,
    "mato": 4577,
    "ato ": 1645,
    " โ": 966,
    "ทม": 8353,
    "าโ": 9803,
    "โต": 10357,
    "้ฟ": 10567,
    " โท": 967,
    "โทม": 10369,
    "ทมา": 8354,
    "มาโ": 8852,
    "าโต": 9804,
    "โต้": 10363,
    "ต้ฟ": 8329,
    "้ฟร": 10568,
    " โทม": 968,
    "โทมา": 10370,
    "ทมาโ": 8355,
    "มาโต": 8853,
    "าโต้": 9805,
    "โต้ฟ": 10364,
    "ต้ฟร": 8330,
    "้ฟร็": 10569,
    "dy": 2465,
    " dy": 199,
    "dys": 2467,
    "ysc": 7673,
    "sco": 6498,
    " dys": 200,
    "dysc": 2468,
    "ysco": 7674,
    "scop": 6499,
    "ui": 7192,
    "gui": 3320,
    "uin": 7199,
    "net": 4913,
    "ti ": 6894,
    " gui": 307,
    "guin": 3322,
    "uine": 7200,
    "inet": 3836,
    "neti": 4915,
    "eti ": 2962,
    "hy": 3545,
    " sh": 639,
    "shy": 6561,
    "hy ": 3546,
    " shy": 643,
    "shy ": 6562,
    "lf": 4300,
    "bul": 1879,
    "ull": 7221,
    "llf": 4380,
    "lfr": 4306,
    " bul": 98,
    "bull": 1880,
    "ullf": 7222,
    "llfr": 4381,
    "lfro": 4307,
    "นบ": 8477,
    "บู": 8650,
    "ลฟ": 9134,
    "ันบ": 9594,
    "นบู": 8478,
    "บูล": 8653,
    "ูลฟ": 10059,
    "ลฟร": 9135,
    "กันบ": 7770,
    "ันบู": 9595,
    "นบูล": 8479,
    "บูลฟ": 8654,
    "ูลฟร": 10060,
    "ลฟร็": 9136,
    "pyx": 5905,
    "yxi": 7696,
    "hal": 3352,
    "alu": 1359,
    " pyx": 579,
    "pyxi": 5906,
    "yxic": 7697,
    "xice": 7519,
    "ceph": 1986,
    "phal": 5722,
    "halu": 3355,
    "alus": 1361,
    "ds": 2447,
    " ad": 7,
    "ads": 1206,
    "dsp": 2448,
    "rsu": 6364,
    " ads": 8,
    "adsp": 1207,
    "dspe": 2449,
    "sper": 6646,
    "pers": 5709,
    "ersu": 2907,
    "rsus": 6366,
    "gg": 3220,
    "agg": 1243,
    "ggr": 3221,
    "ess": 2944,
    " agg": 16,
    "aggr": 1244,
    "ggre": 3222,
    "gres": 3299,
    "ress": 6102,
    "essi": 2946,
    "ssiv": 6664,
    " fe": 245,
    "fee": 3060,
    "eed": 2606,
    "ede": 2586,
    " fee": 246,
    "feed": 3061,
    "eede": 2607,
    "eder": 2587,
    "poi": 5808,
    "iso": 3958,
    " poi": 552,
    "pois": 5810,
    "oiso": 5274,
    "ison": 3959,
    "son ": 6631,
    "dar": 2278,
    "art": 1573,
    " dar": 168,
    "dart": 2280,
    "art ": 1574,
    " พ": 870,
    "พอ": 8710,
    "ยซ": 8900,
    "ซั": 8129,
    "นด": 8452,
    "ทฟ": 8348,
    " พอ": 871,
    "พอย": 8711,
    "อยซ": 9454,
    "ยซั": 8901,
    "ซัน": 8130,
    "ันด": 9588,
    "นดา": 8453,
    "ดาร": 8221,
    "์ทฟ": 10633,
    "ทฟร": 8349,
    " พอย": 872,
    "พอยซ": 8712,
    "อยซั": 9455,
    "ยซัน": 8902,
    "ซันด": 8132,
    "ันดา": 9589,
    "นดาร": 8454,
    "ดาร์": 8222,
    "าร์ท": 9753,
    "ร์ทฟ": 9078,
    "์ทฟร": 10634,
    "ทฟร็": 8350,
    "ob": 5156,
    "den": 2320,
    "dro": 2439,
    "rob": 6261,
    "oba": 5159,
    "bat": 1751,
    " den": 176,
    "dend": 2322,
    "endr": 2758,
    "ndro": 4874,
    "drob": 2440,
    "roba": 6262,
    "obat": 5161,
    "bate": 1752,
    "tin": 6918,
    " tin": 708,
    "tinc": 6919,
    "ncto": 4841,
    "oriu": 5483,
    "del": 2312,
    " del": 174,
    "deli": 2315,
    "elic": 2689,
    "lica": 4318,
    "icat": 3623,
    "ate ": 1620,
    "s/": 6448,
    "/g": 1078,
    "pai": 5662,
    "air": 1280,
    "irs": 3943,
    "rs/": 6352,
    "s/g": 6451,
    "/gr": 1079,
    " pai": 524,
    "pair": 5663,
    "airs": 1284,
    "irs/": 3945,
    "rs/g": 6354,
    "s/gr": 6452,
    "/gro": 1080,
    "-b": 1002,
    "re-": 6058,
    "e-b": 2478,
    "-be": 1005,
    "bel": 1771,
    "lie": 4324,
    "ied": 3671,
    "ire-": 3932,
    "re-b": 6060,
    "e-be": 2479,
    "-bel": 1006,
    "bell": 1772,
    "llie": 4386,
    "lied": 4325,
    "ied ": 3672,
    "toa": 6958,
    "oad": 5150,
    "ad ": 1189,
    " toa": 713,
    "toad": 6959,
    "oad ": 5151,
    "ลล": 9141,
    "ีโ": 9958,
    "ทด": 8340,
    "ด ": 8174,
    "์เบ": 10687,
    "เบล": 10181,
    "บลล": 8600,
    "ลลี": 9146,
    "ลีโ": 9189,
    "ีโท": 9959,
    "โทด": 10367,
    "ทด ": 8341,
    "ฟร์เ": 8758,
    "ร์เบ": 9099,
    "์เบล": 10688,
    "เบลล": 10182,
    "บลลี": 8601,
    "ลลีโ": 9147,
    "ลีโท": 9190,
    "ีโทด": 9960,
    "โทด ": 10368,
    "bom": 1828,
    "omb": 5323,
    "mbi": 4589,
    "bin": 1796,
    "ina": 3810,
    " bom": 87,
    "bomb": 1829,
    "ombi": 5324,
    "mbin": 4591,
    "bina": 1797,
    "ina ": 3811,
    "tal": 6774,
    " ori": 509,
    "orie": 5481,
    "ient": 3682,
    "enta": 2788,
    "ntal": 5081,
    "tali": 6778,
    "dg": 2339,
    "t'": 6742,
    "bud": 1877,
    "udg": 7151,
    "dge": 2340,
    "get": 3216,
    "tt'": 7049,
    "t's": 6743,
    " bud": 97,
    "budg": 1878,
    "udge": 7152,
    "dget": 2343,
    "gett": 3217,
    "ett'": 2973,
    "tt's": 7050,
    "t's ": 6744,
    "เจ": 10126,
    "ตต": 8262,
    "ต์": 8333,
    "์ฟ": 10651,
    " บั": 858,
    "บัด": 8624,
    "ัดเ": 9576,
    "ดเจ": 8234,
    "เจ็": 10129,
    "จ็ต": 8084,
    "็ตต": 10468,
    "ตต์": 8263,
    "ต์ฟ": 8335,
    "์ฟร": 10652,
    " บัด": 859,
    "บัดเ": 8625,
    "ัดเจ": 9577,
    "ดเจ็": 8235,
    "เจ็ต": 10130,
    "จ็ตต": 8085,
    "็ตต์": 10469,
    "ตต์ฟ": 8264,
    "ต์ฟร": 8336,
    "์ฟร็": 10653,
    "pid": 5764,
    "ido": 3662,
    "dob": 2395,
    "atr": 1649,
    " lep": 398,
    "lepi": 4279,
    "epid": 2825,
    "pido": 5766,
    "idob": 3663,
    "doba": 2396,
    "batr": 1753,
    "atra": 1650,
    "achu": 1157,
    "ev": 2999,
    "lae": 4168,
    "aev": 1227,
    "evi": 3003,
    "vis": 7422,
    " lae": 389,
    "laev": 4169,
    "aevi": 1228,
    "evis": 3006,
    "vis ": 7423,
    "dd": 2295,
    " od": 496,
    "odd": 5208,
    "dd ": 2296,
    " odd": 497,
    "odd ": 5209,
    "rdy": 6054,
    "dy ": 2466,
    "ardy": 1532,
    "rdy ": 6055,
    "lly": 4397,
    " bel": 73,
    "elly": 2698,
    "lly ": 4398,
    "ew": 3009,
    "wt": 7500,
    " ne": 473,
    "new": 4919,
    "ewt": 3011,
    "wt ": 7501,
    " new": 478,
    "newt": 4920,
    "ewt ": 3012,
    " น": 846,
    "์ไ": 10720,
    "ฟท": 8737,
    "ท้": 8408,
    "อง": 9419,
    "ส้": 9357,
    "ม ": 8797,
    " นิ": 851,
    "นิว": 8524,
    "ิวท": 9892,
    "ท์ไ": 8414,
    "์ไฟ": 10723,
    "ไฟท": 10432,
    "ฟท้": 8738,
    "ท้อ": 8409,
    "้อง": 10580,
    "องส": 9420,
    "งส้": 8007,
    "ส้ม": 9358,
    "้ม ": 10571,
    " นิว": 852,
    "นิวท": 8525,
    "ิวท์": 9893,
    "วท์ไ": 9253,
    "ท์ไฟ": 8415,
    "์ไฟท": 10724,
    "ไฟท้": 10433,
    "ฟท้อ": 8739,
    "ท้อง": 8410,
    "้องส": 10581,
    "องส้": 9421,
    "งส้ม": 8008,
    "ส้ม ": 9359,
    "yn": 7630,
    "cyn": 2234,
    "yno": 7637,
    "ops": 5444,
    " cyn": 162,
    "cyno": 2235,
    "ynop": 7639,
    "nops": 5041,
    "ops ": 5445,
    "ill": 3765,
    "lla": 4371,
    "hinc": 3439,
    "inch": 3819,
    "nchi": 4826,
    "hill": 3435,
    "illa": 3767,
    "lla ": 4372,
    " ช": 812,
    "ชิ": 8099,
    "ิน": 9851,
    "นช": 8442,
    "ล่": 9227,
    " ชิ": 817,
    "ชิน": 8100,
    "ินช": 9855,
    "นชิ": 8443,
    "ชิล": 8103,
    "ิล่": 9889,
    "ล่า": 9228,
    " ชิน": 818,
    "ชินช": 8102,
    "ินชิ": 9856,
    "นชิล": 8444,
    "ชิล่": 8105,
    "ิล่า": 9890,
    "ล่า ": 9229,
    "lan": 4178,
    "ani": 1433,
    "nig": 4973,
    " lan": 391,
    "lani": 4181,
    "anig": 1436,
    "nige": 4974,
    "gera": 3209,
    "era ": 2844,
    "mam": 4553,
    "amm": 1388,
    "mma": 4669,
    " mam": 427,
    "mamm": 4554,
    "amma": 1389,
    "mmal": 4670,
    "mal ": 4549,
    "ode": 5210,
    " rod": 609,
    "rode": 6272,
    "oden": 5212,
    "dent": 2325,
    "pra": 5840,
    " pra": 560,
    "prai": 5841,
    "rair": 5964,
    "airi": 1283,
    "irie": 3939,
    "rie ": 6163,
    "dog": 2401,
    " dog": 186,
    "dog ": 2402,
    "พร": 8703,
    "่ด": 10489,
    "แพร": 10305,
    "พรี": 8704,
    "รี่": 9043,
    "ี่ด": 9966,
    "่ด็": 10490,
    "ด็อ": 8246,
    " แพร": 955,
    "แพรี": 10306,
    "พรี่": 8705,
    "รี่ด": 9045,
    "ี่ด็": 9967,
    "่ด็อ": 10491,
    "ด็อก": 8247,
    "nom": 5036,
    "omy": 5342,
    "ynom": 7638,
    "nomy": 5038,
    "omys": 5345,
    "ov": 5610,
    " lu": 418,
    "lud": 4491,
    "dov": 2423,
    "ovi": 5616,
    "vic": 7408,
    "cia": 2044,
    " lud": 419,
    "ludo": 4493,
    "udov": 7158,
    "dovi": 2425,
    "ovic": 5617,
    "vici": 7410,
    "icia": 3635,
    "cian": 2047,
    "ianu": 3599,
    "soc": 6618,
    " soc": 659,
    "soci": 6619,
    "ocia": 5185,
    "cial": 2046,
    "u ": 7097,
    "deg": 2310,
    "egu": 2643,
    "gu ": 3311,
    " deg": 173,
    "degu": 2311,
    "egu ": 2644,
    "ดก": 8175,
    "กู": 7796,
    "เดก": 10142,
    "ดกู": 8176,
    "กู ": 7797,
    " เดก": 923,
    "เดกู": 10143,
    "ดกู ": 8177,
    " oc": 493,
    "oct": 5198,
    "tod": 6965,
    " oct": 495,
    "octo": 5199,
    "ctod": 2198,
    "todo": 6966,
    "gus": 3328,
    "egus": 2645,
    "gus ": 3329,
    "fan": 3050,
    "anc": 1413,
    "ncy": 4843,
    "cy ": 2229,
    " fan": 242,
    "fanc": 3051,
    "ancy": 1417,
    "ncy ": 4844,
    " ห": 903,
    "ฟน": 8740,
    "นซ": 8449,
    "ี ": 9915,
    " หน": 906,
    "นูแ": 8540,
    "ูแฟ": 10081,
    "แฟน": 10310,
    "ฟนซ": 8741,
    "นซี": 8450,
    "ซี ": 8149,
    " หนู": 907,
    "หนูแ": 9375,
    "นูแฟ": 8541,
    "ูแฟน": 10082,
    "แฟนซ": 10311,
    "ฟนซี": 8742,
    "นซี ": 8451,
    "att": 1652,
    "ttu": 7065,
    "ratt": 6001,
    "attu": 1654,
    "ttus": 7066,
    "rv": 6410,
    "nor": 5044,
    "orv": 5508,
    "rve": 6413,
    "veg": 7386,
    "gic": 3232,
    " nor": 485,
    "norv": 5046,
    "orve": 5509,
    "rveg": 6414,
    "vegi": 7387,
    "egic": 2641,
    "gicu": 3233,
    "dom": 2407,
    "ca ": 1902,
    " dom": 188,
    "dome": 2408,
    "omes": 5329,
    "mest": 4628,
    "esti": 2949,
    "stic": 6687,
    "tica": 6900,
    "ica ": 3618,
    "ngo": 4946,
    "gol": 3268,
    "mong": 4693,
    "ongo": 5375,
    "ngol": 4947,
    "goli": 3270,
    "olia": 5295,
    "il ": 3739,
    " ger": 281,
    "gerb": 3210,
    "rbil": 6021,
    "bil ": 1793,
    "จอ": 8070,
    "์บ": 10645,
    "บิ": 8632,
    "นูเ": 8538,
    "ูเจ": 10072,
    "เจอ": 10127,
    "จอร": 8071,
    "ร์บ": 9083,
    "์บิ": 10646,
    "บิล": 8638,
    "หนูเ": 9374,
    "นูเจ": 8539,
    "ูเจอ": 10073,
    "เจอร": 10128,
    "จอร์": 8072,
    "อร์บ": 9470,
    "ร์บิ": 9084,
    "์บิล": 10647,
    "บิล ": 8639,
    "mer": 4622,
    "eri": 2865,
    "ion": 3887,
    "one": 5363,
    " mer": 442,
    "meri": 4624,
    "erio": 2872,
    "rion": 6185,
    "ione": 3889,
    "ones": 5366,
    "nes ": 4911,
    "ung": 7257,
    "uic": 7193,
    " ung": 733,
    "ungu": 7259,
    "ngui": 4955,
    "guic": 3321,
    "uicu": 7194,
    " sy": 683,
    "syr": 6739,
    " syr": 685,
    "syri": 6740,
    "yria": 7667,
    "ms": 4731,
    "ams": 1401,
    "mst": 4736,
    " ham": 316,
    "hams": 3360,
    "amst": 1403,
    "mste": 4737,
    "แฮ": 10338,
    "ฮม": 9542,
    "มส": 8830,
    "ีเ": 9955,
    " แฮ": 964,
    "แฮม": 10339,
    "ฮมส": 9543,
    "มสเ": 8831,
    "์ซี": 10622,
    "ซีเ": 8154,
    "ีเร": 9956,
    "เรี": 10224,
    "รีย": 9039,
    " แฮม": 965,
    "แฮมส": 10340,
    "ฮมสเ": 9544,
    "มสเต": 8832,
    "สเตอ": 9348,
    "ร์ซี": 9071,
    "์ซีเ": 10623,
    "ซีเร": 8155,
    "ีเรี": 9957,
    "เรีย": 10225,
    "รียน": 9040,
    "eso": 2942,
    "ocr": 5196,
    "cet": 1994,
    "etu": 2976,
    " mes": 443,
    "meso": 4627,
    "esoc": 2943,
    "socr": 6620,
    "ocri": 5197,
    "cric": 2169,
    "rice": 6155,
    "icet": 3627,
    "cetu": 1996,
    "etus": 2978,
    "aura": 1673,
    "urat": 7287,
    "vs": 7436,
    "obo": 5164,
    "oro": 5490,
    "rov": 6318,
    "ovs": 5618,
    "vsk": 7437,
    "ki ": 4091,
    " rob": 607,
    "robo": 6263,
    "obor": 5165,
    "boro": 1839,
    "orov": 5493,
    "rovs": 6319,
    "ovsk": 5619,
    "vski": 7438,
    "ski ": 6599,
    "รโ": 9049,
    "รอ": 8994,
    "ฟส": 8762,
    "้แ": 10602,
    " โร": 974,
    "โรโ": 10405,
    "รโบ": 9050,
    "โบร": 10381,
    "บรอ": 8590,
    "รอฟ": 9000,
    "อฟส": 9448,
    "ฟสก": 8763,
    "สกี": 9311,
    "ี้แ": 9979,
    "้แฮ": 10605,
    " โรโ": 975,
    "โรโบ": 10406,
    "รโบร": 9051,
    "โบรอ": 10382,
    "บรอฟ": 8591,
    "รอฟส": 9001,
    "อฟสก": 9449,
    "ฟสกี": 8764,
    "สกี้": 9312,
    "กี้แ": 7790,
    "ี้แฮ": 9981,
    "้แฮม": 10606,
    "pu": 5878,
    "hod": 3478,
    "dop": 2411,
    "opu": 5450,
    "pus": 5890,
    " pho": 536,
    "phod": 5741,
    "hodo": 3479,
    "odop": 5220,
    "dopu": 2412,
    "opus": 5452,
    "pus ": 5891,
    "skii": 6600,
    "fas": 3052,
    "st ": 6672,
    " fas": 243,
    "fast": 3054,
    "ast ": 1599,
    "y/": 7546,
    "/p": 1081,
    "ry/": 6419,
    "y/p": 7549,
    "/pa": 1082,
    "rs ": 6351,
    "ary/": 1581,
    "ry/p": 6421,
    "y/pa": 7550,
    "/pai": 1083,
    "irs ": 3944,
    "pb": 5681,
    "l'": 4138,
    "cam": 1921,
    "mpb": 4714,
    "pbe": 5682,
    "ll'": 4367,
    "l's": 4139,
    " cam": 109,
    "camp": 1923,
    "ampb": 1396,
    "mpbe": 4715,
    "pbel": 5683,
    "ell'": 2693,
    "ll's": 4368,
    "l's ": 4140,
    "คม": 7883,
    "มป": 8824,
    "ป์": 8684,
    " แค": 948,
    "แคม": 10273,
    "คมป": 7886,
    "มป์": 8825,
    "ป์เ": 8685,
    "ลล์": 9150,
    "ล์แ": 9242,
    "์แฮ": 10706,
    " แคม": 949,
    "แคมป": 10275,
    "คมป์": 7887,
    "มป์เ": 8826,
    "ป์เบ": 8686,
    "บลล์": 8602,
    "ลล์แ": 9151,
    "ล์แฮ": 9243,
    "์แฮม": 10707,
    "li ": 4312,
    "lli ": 4383,
    "yg": 7597,
    "pyg": 5898,
    "ygm": 7600,
    "gmy": 3254,
    "my ": 4752,
    " pyg": 576,
    "pygm": 5900,
    "ygmy": 7601,
    "gmy ": 3255,
    "dor": 2413,
    "orm": 5484,
    "rmo": 6239,
    "mou": 4709,
    "use": 7333,
    " dor": 189,
    "dorm": 2416,
    "ormo": 5485,
    "rmou": 6242,
    "mous": 4711,
    "ouse": 5607,
    "use ": 7334,
    " ด": 833,
    " ดอ": 834,
    "์เม": 10692,
    "เมา": 10201,
    "าส์": 9778,
    "ส์แ": 9364,
    "์แอ": 10704,
    "ัน ": 9584,
    " ดอร": 835,
    "ร์เม": 9101,
    "์เมา": 10693,
    "เมาส": 10202,
    "มาส์": 8851,
    "าส์แ": 9779,
    "ส์แอ": 9365,
    "์แอฟ": 10705,
    "กัน ": 7769,
    "rap": 5987,
    "hiu": 3456,
    "iur": 4008,
    "grap": 3295,
    "raph": 5988,
    "aphi": 1485,
    "phiu": 5738,
    "hiur": 3457,
    "iuru": 4011,
    "mu": 4738,
    " mu": 461,
    "mur": 4743,
    " mur": 462,
    "muri": 4745,
    "urin": 7297,
    "nea": 4882,
    "inea": 3831,
    "nea ": 4883,
    "ig ": 3711,
    "pig ": 5768,
    "่พ": 10499,
    " กิ": 786,
    "กิน": 7783,
    "ินน": 9862,
    "นนี": 8473,
    "นี่": 8533,
    "ี่พ": 9970,
    "่พิ": 10500,
    "พิก": 8721,
    "ิก ": 9823,
    " กิน": 787,
    "กินน": 7784,
    "ินนี": 9863,
    "นนี่": 8474,
    "นี่พ": 8534,
    "ี่พิ": 9971,
    "่พิก": 10501,
    "พิก ": 8722,
    "cav": 1958,
    "avi": 1687,
    "via": 7406,
    " cav": 116,
    "cavi": 1960,
    "avia": 1688,
    "via ": 7407,
    "por": 5815,
    "orc": 5469,
    "rce": 6031,
    "cel": 1977,
    "llu": 4394,
    " por": 555,
    "porc": 5816,
    "orce": 5470,
    "rcel": 6032,
    "cell": 1978,
    "ellu": 2697,
    "llus": 4396,
    "ntl": 5100,
    " gen": 279,
    "entl": 2791,
    "ntle": 5101,
    "fl": 3100,
    "yi": 7604,
    " fl": 256,
    "fly": 3105,
    "lyi": 4521,
    "yin": 7606,
    " fly": 259,
    "flyi": 3106,
    "lyin": 4522,
    "ying": 7607,
    "sq": 6655,
    " sq": 670,
    "squ": 6656,
    "qui": 5915,
    "uir": 7202,
    "irr": 3940,
    "el ": 2667,
    " squ": 671,
    "squi": 6657,
    "quir": 5917,
    "uirr": 7203,
    "irre": 3941,
    "rel ": 6087,
    "ะร": 9561,
    "กบ": 7734,
    "กระ": 7743,
    "ระร": 9004,
    "ะรอ": 9562,
    "รอก": 8995,
    "อกบ": 9407,
    "กบิ": 7735,
    "บิน": 8633,
    "ิน ": 9852,
    " กระ": 782,
    "กระร": 7744,
    "ระรอ": 9005,
    "ะรอก": 9563,
    "รอกบ": 8996,
    "อกบิ": 9408,
    "กบิน": 7736,
    "บิน ": 8634,
    " pt": 567,
    "pte": 5871,
    "myi": 4757,
    "ini": 3847,
    " pte": 568,
    "pter": 5873,
    "erom": 2890,
    "romy": 6289,
    "omyi": 5344,
    "myin": 4758,
    "yini": 7608,
    "ini ": 3848,
    "p.": 5650,
    ". ": 1070,
    "spp": 6651,
    "pp.": 5829,
    "p. ": 5651,
    " spp": 668,
    "spp.": 6652,
    "pp. ": 5830,
    "ner": 4906,
    "erv": 2916,
    "rvo": 6415,
    "vou": 7434,
    " ner": 477,
    "nerv": 4909,
    "ervo": 2918,
    "rvou": 6416,
    "vous": 7435,
    "n_": 4777,
    "_u": 1119,
    "_m": 1102,
    "_r": 1111,
    " ta": 687,
    "tax": 6803,
    "xon": 7527,
    "on_": 5352,
    "n_u": 4778,
    "_un": 1120,
    "unc": 7249,
    "ncl": 4834,
    "ar_": 1508,
    "r_m": 5937,
    "_ma": 1103,
    "nua": 5114,
    "ual": 7106,
    "al_": 1308,
    "l_r": 4156,
    "_re": 1112,
    "rev": 6110,
    "iew": 3694,
    "ew ": 3010,
    " tax": 693,
    "taxo": 6804,
    "axon": 1706,
    "xon_": 7528,
    "on_u": 5353,
    "n_un": 4779,
    "_unc": 1121,
    "uncl": 7250,
    "ncle": 4835,
    "clea": 2099,
    "lear": 4254,
    "ear_": 2514,
    "ar_m": 1509,
    "r_ma": 5938,
    "_man": 1104,
    "manu": 4560,
    "anua": 1467,
    "nual": 5115,
    "ual_": 7107,
    "al_r": 1309,
    "l_re": 4157,
    "_rev": 1113,
    "revi": 6111,
    "evie": 3005,
    "view": 7418,
    "iew ": 3695,
    " fer": 248,
    "ferr": 3070,
    "rret": 6336,
    "ret ": 6105,
    "รท": 8968,
    "ท ": 8339,
    " เฟ": 929,
    "ฟอเ": 8768,
    "อเร": 9530,
    "เรท": 10218,
    "รท ": 8969,
    " เฟอ": 931,
    "เฟอเ": 10197,
    "ฟอเร": 8769,
    "อเรท": 9531,
    "เรท ": 10219,
    "mus": 4746,
    "ust": 7343,
    " mus": 463,
    "must": 4750,
    "uste": 7346,
    "stel": 6682,
    "tela": 6829,
    "ela ": 2669,
    " pu": 569,
    "put": 5893,
    "uto": 7353,
    " put": 574,
    "puto": 5894,
    "utor": 7355,
    "ro ": 6258,
    "furo": 3140,
    "uro ": 7309,
    "exo": 3019,
    "xot": 7529,
    "oti": 5560,
    " exo": 235,
    "exot": 3020,
    "xoti": 7531,
    "otic": 5562,
    "pl": 5790,
    "yf": 7592,
    " pl": 545,
    "pla": 5791,
    "ayf": 1713,
    "yfu": 7595,
    " pla": 546,
    "play": 5793,
    "layf": 4212,
    "ayfu": 1715,
    "yful": 7596,
    "eh": 2646,
    "hed": 3382,
    "edg": 2588,
    "geh": 3191,
    "eho": 2649,
    " hed": 320,
    "hedg": 3384,
    "edge": 2589,
    "dgeh": 2341,
    "geho": 3192,
    "ehog": 2650,
    "hog ": 3483,
    "ฮด": 9539,
    "ดจ": 8187,
    "จ์": 8086,
    "์ฮ": 10670,
    "เฮด": 10257,
    "ฮดจ": 9540,
    "ดจ์": 8188,
    "จ์ฮ": 8087,
    "์ฮอ": 10671,
    " เฮด": 945,
    "เฮดจ": 10258,
    "ฮดจ์": 9541,
    "ดจ์ฮ": 8189,
    "จ์ฮอ": 8088,
    "์ฮอก": 10672,
    "ฮอก ": 9550,
    "ix": 4030,
    " at": 52,
    "rix": 6209,
    "ix ": 4031,
    " ate": 53,
    "atel": 1622,
    "tele": 6830,
    "eler": 2680,
    "leri": 4282,
    "erix": 2875,
    "rix ": 6210,
    "lb": 4214,
    "alb": 1320,
    "lbi": 4217,
    "ven": 7390,
    " alb": 18,
    "albi": 1322,
    "lbiv": 4219,
    "bive": 1804,
    "iven": 4019,
    "vent": 7393,
    "ntri": 5108,
    "tris": 7031,
    "ug": 7183,
    "sug": 6717,
    "uga": 7184,
    "ar ": 1507,
    " sug": 679,
    "suga": 6718,
    "ugar": 7185,
    "gar ": 3171,
    "gl": 3244,
    " gl": 289,
    "gli": 3247,
    " gli": 291,
    "glid": 3248,
    "ชู": 8113,
    "ไก": 10409,
    "กล": 7747,
    " ชู": 819,
    "ชูก": 8114,
    "ูกา": 10016,
    "ร์ไ": 9110,
    "์ไก": 10721,
    "ไกล": 10410,
    "กลเ": 7750,
    "ลเด": 9206,
    " ชูก": 820,
    "ชูกา": 8115,
    "ูการ": 10017,
    "าร์ไ": 9756,
    "ร์ไก": 9111,
    "์ไกล": 10722,
    "ไกลเ": 10411,
    "กลเด": 7751,
    "ลเดอ": 9207,
    "eta": 2954,
    "tau": 6801,
    " pet": 532,
    "peta": 5716,
    "etau": 2957,
    "taur": 6802,
    "auru": 1676,
    "bre": 1859,
    " bre": 93,
    "brev": 1862,
    "evic": 3004,
    "vice": 7409,
    "rk": 6211,
    "mee": 4611,
    "eer": 2617,
    "erk": 2876,
    "rka": 6213,
    "kat": 4069,
    " mee": 438,
    "meer": 4612,
    "eerk": 2618,
    "erka": 2877,
    "rkat": 6214,
    "kat ": 4070,
    "มี": 8857,
    "คต": 7864,
    "ต ": 8258,
    " เม": 932,
    "เมี": 10203,
    "มีย": 8860,
    "์แค": 10699,
    "แคต": 10267,
    "คต ": 7865,
    " เมี": 933,
    "เมีย": 10204,
    "มียร": 8861,
    "ยร์แ": 8916,
    "ร์แค": 9105,
    "์แคต": 10700,
    "แคต ": 10268,
    "sur": 6731,
    " sur": 682,
    "suri": 6732,
    "catt": 1954,
    "atta": 1653,
    "tta ": 7052,
    "xp": 7532,
    "exp": 3021,
    "xpe": 7533,
    " exp": 236,
    "expe": 3022,
    "xper": 7534,
    "pert": 5710,
    "enn": 2772,
    "nne": 5012,
    "nec": 4885,
    "ec ": 2543,
    " fen": 247,
    "fenn": 3065,
    "enne": 2773,
    "nnec": 5013,
    "nec ": 4886,
    " fo": 260,
    "fox": 3118,
    "ox ": 5636,
    " fox": 264,
    "fox ": 3119,
    "กฟ": 7737,
    "ฟ็": 8791,
    "เฟน": 10193,
    "ฟนเ": 8743,
    "นเน": 8550,
    "นกฟ": 8428,
    "กฟ็": 7738,
    "ฟ็อ": 8792,
    "อกซ": 9405,
    " เฟน": 930,
    "เฟนเ": 10194,
    "ฟนเน": 8744,
    "นเนก": 8551,
    "เนกฟ": 10171,
    "นกฟ็": 8429,
    "กฟ็อ": 7739,
    "ฟ็อก": 8793,
    "็อกซ": 10484,
    "อกซ์": 9406,
    "vu": 7439,
    " vu": 753,
    "vul": 7440,
    "pes": 5711,
    " vul": 754,
    "vulp": 7442,
    "ulpe": 7224,
    "lpes": 4461,
    "pes ": 5712,
    " z": 776,
    "ze": 7704,
    " ze": 777,
    "zer": 7709,
    "erd": 2854,
    "da ": 2269,
    " zer": 779,
    "zerd": 7710,
    "erda": 2855,
    "rda ": 6045,
    "cc": 1963,
    "acc": 1146,
    "cco": 1968,
    "coo": 2143,
    "oon": 5413,
    " rac": 585,
    "racc": 5945,
    "acco": 1148,
    "ccoo": 1969,
    "coon": 2144,
    "oon ": 5414,
    "แร": 10318,
    "รค": 8950,
    "คค": 7859,
    "คู": 7960,
    "ูน": 10039,
    " แร": 956,
    "แรค": 10319,
    "รคค": 8951,
    "คคู": 7862,
    "คูน": 7961,
    "ูน ": 10040,
    " แรค": 957,
    "แรคค": 10320,
    "รคคู": 8952,
    "คคูน": 7863,
    "คูน ": 7962,
    "ocy": 5200,
    "cyo": 2236,
    "yon": 7641,
    "proc": 5852,
    "rocy": 6270,
    "ocyo": 5201,
    "cyon": 2237,
    "yon ": 7642,
    "oto": 5567,
    " lot": 414,
    "loto": 4448,
    "otor": 5570,
    "mis": 4658,
    "sch": 6489,
    "hie": 3427,
    "iev": 3692,
    "evo": 3007,
    " mis": 451,
    "misc": 4660,
    "isch": 3949,
    "schi": 6490,
    "chie": 2013,
    "hiev": 3428,
    "ievo": 3693,
    "evou": 3008,
    "ipe": 3907,
    "ped": 5694,
    "trip": 7030,
    "ripe": 6189,
    "iped": 3908,
    "ped ": 5695,
    "ku": 4132,
    "sku": 6603,
    "kun": 4135,
    "unk": 7262,
    " sku": 651,
    "skun": 6604,
    "kunk": 4136,
    "unk ": 7263,
    " ส": 899,
    "งก": 7978,
    "ก์": 7836,
    " สก": 900,
    "สกั": 9305,
    "กัง": 7766,
    "ังก": 9571,
    "งก์": 7979,
    "ก์ ": 7837,
    " สกั": 901,
    "สกัง": 9306,
    "กังก": 7767,
    "ังก์": 9572,
    "งก์ ": 7980,
    "mep": 4620,
    " mep": 441,
    "meph": 4621,
    "ephi": 2820,
    "phit": 5737,
    "hiti": 3455,
    "itis": 3990,
    "y-": 7539,
    "-r": 1046,
    "spr": 6653,
    "ray": 6011,
    "ay-": 1709,
    "y-r": 7542,
    "-ri": 1047,
    "isk": 3956,
    "sk ": 6597,
    " spr": 669,
    "spra": 6654,
    "pray": 5843,
    "ray-": 6013,
    "ay-r": 1710,
    "y-ri": 7543,
    "-ris": 1048,
    "risk": 6195,
    "isk ": 3957,
    " wa": 756,
    "wal": 7456,
    "lab": 4160,
    "aby": 1136,
    "by ": 1892,
    " wal": 757,
    "wall": 7457,
    "alla": 1344,
    "llab": 4373,
    "laby": 4163,
    "aby ": 1137,
    "วอ": 9271,
    " วอ": 895,
    "วอล": 9274,
    "อลล": 9480,
    "ลลา": 9142,
    "ลาบ": 9161,
    "าบี": 9705,
    "บี ": 8643,
    " วอล": 896,
    "วอลล": 9275,
    "อลลา": 9481,
    "ลลาบ": 9143,
    "ลาบี": 9163,
    "าบี ": 9706,
    "crop": 2176,
    "ropu": 6300,
    "uf": 7172,
    "ruf": 6392,
    "ufo": 7181,
    "fog": 3108,
    "ogr": 5259,
    "seu": 6536,
    "eus": 2997,
    " ruf": 616,
    "rufo": 6396,
    "ufog": 7182,
    "fogr": 3109,
    "ogri": 5261,
    "gris": 3303,
    "rise": 6194,
    "iseu": 3953,
    "seus": 6538,
    "eus ": 2998,
    "omm": 5333,
    "mmo": 4673,
    " com": 143,
    "comm": 2136,
    "ommo": 5334,
    "mmon": 4674,
    "mon ": 4690,
    "mar": 4564,
    "arm": 1559,
    "mos": 4701,
    "set": 6534,
    " mar": 430,
    "marm": 4568,
    "armo": 1561,
    "rmos": 6241,
    "mose": 4702,
    "oset": 5528,
    "set ": 6535,
    "โม": 10392,
    "เส": 10239,
    "สท": 9327,
    "มาร": 8847,
    "ร์โ": 9107,
    "์โม": 10716,
    "โมเ": 10393,
    "มเส": 8871,
    "เสท": 10240,
    "สท ": 9328,
    " มาร": 883,
    "มาร์": 8848,
    "าร์โ": 9755,
    "ร์โม": 9108,
    "์โมเ": 10717,
    "โมเส": 10394,
    "มเสท": 8872,
    "เสท ": 10241,
    "thr": 6882,
    "llit": 4389,
    "lith": 4355,
    "ithr": 3987,
    "thri": 6884,
    "hrix": 3517,
    "cch": 1966,
    "jacc": 4037,
    "acch": 1147,
    "cchu": 1967,
    "cap": 1932,
    "apu": 1499,
    "puc": 5881,
    " cap": 111,
    "capu": 1936,
    "apuc": 1500,
    "puch": 5882,
    "uchi": 7135,
    "hin ": 3438,
    "onk": 5384,
    "nke": 5001,
    "key": 4087,
    "ey ": 3024,
    "monk": 4695,
    "onke": 5385,
    "nkey": 5002,
    "key ": 4088,
    "าป": 9707,
    "ปู": 8681,
    "ูช": 10025,
    " คา": 791,
    "คาป": 7940,
    "าปู": 9710,
    "ปูช": 8682,
    "ูชิ": 10026,
    " คาป": 793,
    "คาปู": 7942,
    "าปูช": 9711,
    "ปูชิ": 8683,
    "ูชิน": 10027,
    "ชิน ": 8101,
    "ceb": 1973,
    "ebu": 2540,
    "bus": 1886,
    " ceb": 118,
    "cebu": 1974,
    "ebus": 2541,
    "bus ": 1887,
    "uci": 7137,
    "puci": 5883,
    "ucin": 7139,
    "cinu": 2064,
    "civ": 2076,
    "vet": 7403,
    " civ": 132,
    "cive": 2077,
    "ivet": 4020,
    "vet ": 7404,
    "ชะ": 8096,
    "ะม": 9558,
    "มด": 8804,
    " ชะ": 815,
    "ชะม": 8097,
    "ะมด": 9559,
    "มด ": 8805,
    " ชะม": 816,
    "ชะมด": 8098,
    "ะมด ": 9560,
    "xu": 7535,
    "ado": 1202,
    "dox": 2426,
    "oxu": 5644,
    "xur": 7536,
    "para": 5674,
    "arad": 1513,
    "rado": 5954,
    "adox": 1203,
    "doxu": 2427,
    "oxur": 5645,
    "xuru": 7537,
    "map": 4561,
    "hro": 3518,
    "dit": 2376,
    "rmap": 6233,
    "maph": 4563,
    "aphr": 1486,
    "phro": 5746,
    "hrod": 3520,
    "rodi": 6273,
    "odit": 5217,
    "ditu": 2378,
    "itus": 4004,
    "ind": 3824,
    "dep": 2326,
    "epe": 2816,
    "pen": 5702,
    " ind": 357,
    "inde": 3825,
    "ndep": 4858,
    "depe": 2327,
    "epen": 2817,
    "pend": 5703,
    "ende": 2755,
    "nden": 4857,
    "aj": 1287,
    "jo": 4056,
    "nka": 4999,
    "kaj": 4067,
    "ajo": 1288,
    "jou": 4059,
    "ou ": 5585,
    "inka": 3853,
    "nkaj": 5000,
    "kajo": 4068,
    "ajou": 1290,
    "jou ": 4060,
    "จู": 8079,
    "คิน": 7953,
    "ินค": 9853,
    "คาจ": 7932,
    "าจู": 9670,
    "จู ": 8080,
    " คิน": 795,
    "คินค": 7954,
    "ินคา": 9854,
    "นคาจ": 8440,
    "คาจู": 7933,
    "าจู ": 9671,
    "pot": 5821,
    "tos": 7002,
    " pot": 556,
    "poto": 5823,
    "otos": 5571,
    "tos ": 7003,
    "fla": 3101,
    "lav": 4205,
    "avu": 1690,
    "vus": 7443,
    " fla": 257,
    "flav": 3102,
    "lavu": 4206,
    "avus": 1691,
    "vus ": 7444,
    "coc": 2119,
    "cka": 2082,
    "tie": 6904,
    " coc": 140,
    "cock": 2122,
    "ocka": 5192,
    "ckat": 2083,
    "kati": 4071,
    "atie": 1633,
    "tiel": 6905,
    "iel ": 3676,
    "ค็": 7969,
    "กค": 7724,
    " ค็": 797,
    "ค็อ": 7970,
    "อกค": 9403,
    "กคา": 7725,
    "าเท": 9789,
    "ทล ": 8365,
    " ค็อ": 798,
    "ค็อก": 7971,
    "็อกค": 10483,
    "อกคา": 9404,
    "กคาเ": 7727,
    "คาเท": 7946,
    "าเทล": 9790,
    "เทล ": 10162,
    "ym": 7625,
    " ny": 490,
    "nym": 5135,
    "ymp": 7628,
    "hic": 3424,
    " nym": 491,
    "nymp": 5136,
    "ymph": 7629,
    "phic": 5733,
    "hicu": 3426,
    "hol": 3486,
    "oll": 5300,
    " hol": 332,
    "holl": 3487,
    "olla": 5301,
    "llan": 4374,
    "land": 4180,
    "ndic": 4863,
    "dicu": 2354,
    "bir": 1799,
    "ird": 3926,
    " bir": 77,
    "bird": 1800,
    "ird ": 3927,
    "arr": 1569,
    "ot ": 5547,
    "parr": 5676,
    "arro": 1570,
    "rrot": 6346,
    "rot ": 6311,
    "rey": 6112,
    "grey": 3300,
    "rey ": 6113,
    "รย": 8978,
    "ันเ": 9600,
    "นเก": 8543,
    "เกร": 10100,
    "กรย": 7741,
    "รย์": 8979,
    "กันเ": 7772,
    "ันเก": 9601,
    "นเกร": 8544,
    "เกรย": 10101,
    "กรย์": 7742,
    "รย์ ": 8980,
    " ps": 564,
    "psi": 5864,
    " psi": 566,
    "psit": 5866,
    "sitt": 6593,
    "ttac": 7053,
    "tacu": 6765,
    "acus": 1187,
    "tha": 6867,
    " eri": 225,
    "erit": 2874,
    "rith": 6199,
    "itha": 3985,
    "thac": 6868,
    "hacu": 3339,
    "-g": 1031,
    "e-a": 2476,
    "d-g": 2257,
    "-go": 1032,
    "old": 5287,
    "ld ": 4231,
    "ue-a": 7162,
    "e-an": 2477,
    "nd-g": 4848,
    "d-go": 2258,
    "-gol": 1033,
    "gold": 3269,
    "old ": 5288,
    "aw": 1694,
    "caw": 1961,
    "aw ": 1695,
    "maca": 4536,
    "acaw": 1145,
    "caw ": 1962,
    "์ม": 10656,
    "อว": 9484,
    "ลูแ": 9199,
    "ูแอ": 10085,
    "แอน": 10334,
    "อนด": 9429,
    "นด์": 8455,
    "ด์โ": 8256,
    "์โก": 10709,
    "โกล": 10342,
    "กลด": 7748,
    "ด์ม": 8254,
    "์มา": 10657,
    "มาค": 8842,
    "คอว": 7924,
    "อว์": 9485,
    "ว์ ": 9296,
    "บลูแ": 8608,
    "ลูแอ": 9200,
    "ูแอน": 10086,
    "แอนด": 10335,
    "อนด์": 9430,
    "นด์โ": 8456,
    "ด์โก": 8257,
    "์โกล": 10710,
    "โกลด": 10343,
    "กลด์": 7749,
    "ลด์ม": 9125,
    "ด์มา": 8255,
    "์มาค": 10658,
    "มาคอ": 8843,
    "าคอว": 9662,
    "คอว์": 7925,
    "อว์ ": 9486,
    " ara": 41,
    "ara ": 1511,
    "rar": 5991,
    "rau": 6003,
    "aun": 1670,
    "una": 7245,
    "arar": 1518,
    "rara": 5992,
    "arau": 1520,
    "raun": 6004,
    "auna": 1671,
    "una ": 7246,
    "rl": 6219,
    "sca": 6484,
    "arl": 1556,
    "rle": 6220,
    "let": 4288,
    " sca": 627,
    "scar": 6486,
    "carl": 1944,
    "arle": 1557,
    "rlet": 6222,
    "let ": 4289,
    "ล็": 9220,
    "ตม": 8268,
    "สกา": 9307,
    "์เล": 10694,
    "เล็": 10233,
    "ล็ต": 9223,
    "็ตม": 10470,
    "ตมา": 8269,
    " สกา": 902,
    "สการ": 9308,
    "ร์เล": 9102,
    "์เล็": 10695,
    "เล็ต": 10234,
    "ล็ตม": 9224,
    "็ตมา": 10471,
    "ตมาค": 8270,
    "ao": 1471,
    "cao": 1930,
    "ao ": 1472,
    "acao": 1142,
    "cao ": 1931,
    "lou": 4449,
    "oud": 5589,
    "ud ": 7147,
    " lou": 415,
    "loud": 4450,
    "oud ": 5590,
    " hy": 339,
    "hya": 3547,
    "yac": 7553,
    "aci": 1159,
    "th ": 6866,
    " hya": 340,
    "hyac": 3548,
    "yaci": 7554,
    "acin": 1161,
    "cint": 2063,
    "inth": 3868,
    "nth ": 5090,
    "ไฮ": 10444,
    "ฮย": 9545,
    "าซ": 9672,
    "ซิ": 8140,
    "นธ": 8469,
    "ธ์": 8422,
    " ไฮ": 986,
    "ไฮย": 10445,
    "ฮยา": 9546,
    "ยาซ": 8928,
    "าซิ": 9673,
    "ซิน": 8143,
    "ินธ": 9860,
    "นธ์": 8470,
    "ธ์ม": 8423,
    " ไฮย": 987,
    "ไฮยา": 10446,
    "ฮยาซ": 9547,
    "ยาซิ": 8929,
    "าซิน": 9674,
    "ซินธ": 8144,
    "ินธ์": 9861,
    "นธ์ม": 8471,
    "ธ์มา": 8424,
    "ano": 1449,
    "nod": 5029,
    "orh": 5476,
    "rhy": 6138,
    "hyn": 3559,
    "ync": 7633,
    " ano": 32,
    "anod": 1451,
    "nodo": 5031,
    "odor": 5221,
    "dorh": 2415,
    "orhy": 5477,
    "rhyn": 6139,
    "hync": 3560,
    "ynch": 7634,
    "nchu": 4828,
    "thi": 6876,
    "nthi": 5092,
    "thin": 6877,
    "hinu": 3443,
    " hu": 336,
    "hug": 3534,
    "uge": 7186,
    "ge ": 3186,
    " hug": 338,
    "huge": 3535,
    "uge ": 7187,
    "un ": 7244,
    "sun ": 6726,
    "onu": 5397,
    "ure": 7290,
    "conu": 2140,
    "onur": 5399,
    "nure": 5122,
    "ure ": 7291,
    "นั": 8515,
    "วร": 9265,
    " ซั": 822,
    "นคอ": 8437,
    "อนั": 9437,
    "นัว": 8516,
    "ัวร": 9626,
    "วร์": 9266,
    " ซัน": 823,
    "ซันค": 8131,
    "ันคอ": 9586,
    "นคอน": 8438,
    "คอนั": 7921,
    "อนัว": 9438,
    "นัวร": 8517,
    "ัวร์": 9627,
    "วร์ ": 9267,
    "nga": 4932,
    "ga ": 3156,
    "arat": 1519,
    "rati": 5999,
    "atin": 1635,
    "ting": 6921,
    "inga": 3841,
    "nga ": 4933,
    "ols": 5308,
    "lst": 4472,
    "tit": 6931,
    "tia": 6895,
    "sols": 6627,
    "olst": 5309,
    "lsti": 4473,
    "stit": 6691,
    "titi": 6932,
    "itia": 3989,
    "tial": 6897,
    "iali": 3591,
    "ver": 7394,
    " ver": 745,
    "very": 7399,
    "ery ": 2920,
    "n-": 4770,
    "-c": 1007,
    "en-": 2745,
    "n-c": 4771,
    "-ch": 1010,
    "hee": 3385,
    "eek": 2610,
    "ek ": 2661,
    "een-": 2616,
    "en-c": 2746,
    "n-ch": 4772,
    "-che": 1011,
    "chee": 2006,
    "heek": 3386,
    "eek ": 2611,
    "ชี": 8106,
    "ีค": 9916,
    "ีนช": 9928,
    "นชี": 8445,
    "ชีค": 8107,
    "ีคค": 9917,
    "คคอ": 7860,
    "รีนช": 9034,
    "ีนชี": 9929,
    "นชีค": 8446,
    "ชีคค": 8108,
    "ีคคอ": 9918,
    "คคอน": 7861,
    "pyr": 5901,
    "yrr": 7669,
    "rrh": 6337,
    "rhu": 6136,
    " pyr": 577,
    "pyrr": 5902,
    "yrrh": 7670,
    "rrhu": 6339,
    "rhur": 6137,
    "hura": 3538,
    "mol": 4686,
    "lin": 4339,
    "nae": 4784,
    " mol": 455,
    "moli": 4687,
    "olin": 5297,
    "lina": 4340,
    "inae": 3812,
    "nae ": 4785,
    "lov": 4451,
    "ove": 5613,
    "veb": 7384,
    "ebi": 2535,
    " lov": 416,
    "love": 4452,
    "oveb": 5615,
    "vebi": 7385,
    "ebir": 2536,
    "ฟเ": 8783,
    "เลิ": 10229,
    "ิฟเ": 9876,
    "ฟเบ": 8784,
    "เบิ": 10183,
    "บิร": 8636,
    "์ด ": 10625,
    " เลิ": 939,
    "เลิฟ": 10230,
    "ลิฟเ": 9182,
    "ิฟเบ": 9877,
    "ฟเบิ": 8785,
    "เบิร": 10184,
    "บิร์": 8637,
    "ร์ด ": 9073,
    "gap": 3168,
    "apo": 1491,
    "agap": 1238,
    "gapo": 3169,
    "apor": 1492,
    "porn": 5817,
    "rnis": 6253,
    "sei": 6516,
    "eic": 2652,
    "rose": 6307,
    "osei": 5525,
    "seic": 6517,
    "eico": 2654,
    "coll": 2131,
    "olli": 5302,
    "llis": 4388,
    "rig": 6166,
    "dger": 2342,
    "geri": 3211,
    "erig": 2869,
    "riga": 6167,
    "igar": 3716,
    "หง": 9366,
    "์ห": 10662,
    "หย": 9381,
    "ยก": 8895,
    " หง": 904,
    "หงส": 9367,
    "งส์": 8009,
    "ส์ห": 9362,
    "์หย": 10663,
    "หยก": 9382,
    "ยก ": 8896,
    " หงส": 905,
    "หงส์": 9368,
    "งส์ห": 8010,
    "ส์หย": 9363,
    "์หยก": 10664,
    "หยก ": 9383,
    " mel": 439,
    "melo": 4616,
    "lops": 4436,
    "opsi": 5447,
    "du": 2453,
    "und": 7251,
    "ndu": 4875,
    "dul": 2456,
    " und": 732,
    "undu": 7254,
    "ndul": 4877,
    "dula": 2457,
    " ec": 205,
    "ecl": 2556,
    "lec": 4257,
    " ecl": 207,
    "ecle": 2557,
    "clec": 2100,
    "lect": 4259,
    "ectu": 2571,
    "เอ": 10245,
    "คเ": 7963,
    "ตั": 8283,
    " เอ": 940,
    "เอค": 10246,
    "อคเ": 9417,
    "คเค": 7964,
    "เคล": 10119,
    "คล็": 7910,
    "ล็ค": 9221,
    "็คต": 10454,
    "คตั": 7866,
    "ตัส": 8288,
    "ัส ": 9633,
    " เอค": 941,
    "เอคเ": 10247,
    "อคเค": 9418,
    "คเคล": 7965,
    "เคล็": 10120,
    "คล็ค": 7911,
    "ล็คต": 9222,
    "็คตั": 10455,
    "คตัส": 7867,
    "ตัส ": 8289,
    "ror": 6301,
    " ror": 611,
    "rora": 6303,
    "orat": 5466,
    "e-f": 2482,
    "-fr": 1027,
    "ue-f": 7163,
    "e-fr": 2483,
    "-fro": 1028,
    "fron": 3129,
    "ront": 6294,
    "onte": 5394,
    "nted": 5085,
    "az": 1720,
    "zo": 7717,
    "maz": 4581,
    "azo": 1723,
    "zon": 7718,
    " ama": 24,
    "amaz": 1374,
    "mazo": 4582,
    "azon": 1724,
    "zon ": 7719,
    "ูฟ": 10047,
    "นต": 8457,
    "์อ": 10665,
    "อะ": 9496,
    "ะเ": 9564,
    "มซ": 8801,
    "ซอ": 8126,
    "ลูฟ": 9197,
    "ูฟร": 10048,
    "ฟรอ": 8749,
    "รอน": 8997,
    "อนต": 9431,
    "นต์": 8460,
    "ต์อ": 8337,
    "์อะ": 10666,
    "อะเ": 9497,
    "ะเม": 9565,
    "เมซ": 10199,
    "มซอ": 8802,
    "ซอน": 8127,
    "บลูฟ": 8607,
    "ลูฟร": 9198,
    "ูฟรอ": 10049,
    "ฟรอน": 8750,
    "รอนต": 8998,
    "อนต์": 9432,
    "นต์อ": 8461,
    "ต์อะ": 8338,
    "์อะเ": 10667,
    "อะเม": 9498,
    "ะเมซ": 9566,
    "เมซอ": 10200,
    "มซอน": 8803,
    "ซอน ": 8128,
    "zona": 7720,
    " ae": 9,
    "aes": 1225,
    "iva": 4015,
    "va ": 7367,
    " aes": 11,
    "aest": 1226,
    "stiv": 6692,
    "tiva": 6935,
    "iva ": 4016,
    "alk": 1339,
    "lka": 4363,
    " tal": 690,
    "talk": 6779,
    "alka": 1340,
    "lkat": 4364,
    "ativ": 1638,
    " um": 729,
    "umb": 7236,
    " umb": 730,
    "umbr": 7238,
    "mbre": 4597,
    "brel": 1861,
    "rell": 6089,
    "ella": 2694,
    "too": 6989,
    "oo ": 5407,
    "kato": 4072,
    "atoo": 1646,
    "too ": 6990,
    "ัม": 9607,
    "รล": 8983,
    "ทู": 8386,
    "อัม": 9500,
    "ัมเ": 9608,
    "มเบ": 8867,
    "เบร": 10179,
    "บรล": 8588,
    "รลล": 8984,
    "ลล่": 9148,
    "่าค": 10516,
    "าค็": 9665,
    "คาท": 7936,
    "าทู": 9687,
    "ทู ": 8387,
    " อัม": 912,
    "อัมเ": 9501,
    "ัมเบ": 9609,
    "มเบร": 8868,
    "เบรล": 10180,
    "บรลล": 8589,
    "รลล่": 8985,
    "ลล่า": 9149,
    "ล่าค": 9232,
    "่าค็": 10517,
    "าค็อ": 9666,
    "กคาท": 7726,
    "คาทู": 7937,
    "าทู ": 9688,
    "cac": 1903,
    "tua": 7068,
    " cac": 105,
    "caca": 1904,
    "acat": 1144,
    "catu": 1955,
    "atua": 1656,
    "tua ": 7069,
    "lba": 4215,
    "ba ": 1731,
    "alba": 1321,
    "lba ": 4216,
    "dem": 2317,
    "din": 2362,
    " dem": 175,
    "dema": 2318,
    "eman": 2720,
    "ndin": 4864,
    "ding": 2365,
    "r-": 5922,
    "lph": 4462,
    "ur-": 7282,
    "r-c": 5925,
    "-cr": 1014,
    "sulp": 6721,
    "ulph": 7225,
    "lphu": 4464,
    "phur": 5752,
    "hur-": 3537,
    "ur-c": 7283,
    "r-cr": 5926,
    "-cre": 1015,
    "ดค": 8178,
    "ซัล": 8133,
    "ัลเ": 9618,
    "ลเฟ": 9208,
    "์เค": 10677,
    "็ดค": 10461,
    "ดค็": 8181,
    " ซัล": 824,
    "ซัลเ": 8134,
    "ัลเฟ": 9619,
    "ลเฟอ": 9209,
    "ร์เค": 9094,
    "์เคร": 10678,
    "ต็ดค": 8320,
    "็ดค็": 10462,
    "ดค็อ": 8182,
    " gal": 273,
    "gale": 3160,
    "rita": 6198,
    "ita ": 3971,
    "dia": 2346,
    "indi": 3826,
    "ndia": 4862,
    "dian": 2349,
    " ri": 602,
    "ngn": 4944,
    "gne": 3260,
    " rin": 604,
    "ring": 6180,
    "ingn": 3844,
    "ngne": 4945,
    "gnec": 3261,
    "neck": 4887,
    "eck ": 2554,
    "งเ": 8052,
    "น็": 8571,
    "คพ": 7880,
    "พา": 8716,
    "คี": 7957,
    "ีท": 9922,
    " ริ": 892,
    "ริง": 9026,
    "ิงเ": 9841,
    "งเน": 8053,
    "เน็": 10176,
    "น็ค": 8572,
    "็คพ": 10456,
    "คพา": 7881,
    "พาร": 8717,
    "ารา": 9743,
    "ราค": 9015,
    "าคี": 9663,
    "คีท": 7958,
    "ีท ": 9923,
    " ริง": 893,
    "ริงเ": 9027,
    "ิงเน": 9842,
    "งเน็": 8054,
    "เน็ค": 10177,
    "น็คพ": 8573,
    "็คพา": 10457,
    "คพาร": 7882,
    "พารา": 8718,
    "าราค": 9745,
    "ราคี": 9016,
    "าคีท": 9664,
    "คีท ": 7959,
    "ula ": 7207,
    "kr": 4121,
    " kr": 382,
    "kra": 4122,
    " kra": 383,
    "kram": 4123,
    "rame": 5973,
    "amer": 1384,
    "eri ": 2866,
    "k-": 4062,
    "-h": 1034,
    "bla": 1808,
    "lac": 4164,
    "ck-": 2080,
    "k-h": 4063,
    "-he": 1035,
    "hea": 3377,
    "ead": 2500,
    " bla": 81,
    "blac": 1809,
    "lack": 4165,
    "ack-": 1165,
    "ck-h": 2081,
    "k-he": 4064,
    "-hea": 1036,
    "head": 3378,
    "eade": 2502,
    "aded": 1199,
    "aiq": 1278,
    "que": 5913,
    "ue ": 7160,
    "caiq": 1909,
    "aiqu": 1279,
    "ique": 3921,
    "que ": 5914,
    "ิค": 9832,
    "ไคอ": 10413,
    "คอิ": 7926,
    "อิค": 9518,
    "ิค ": 9833,
    " ไคอ": 978,
    "ไคอิ": 10414,
    "คอิค": 7927,
    "อิค ": 9519,
    "pio": 5779,
    " pio": 542,
    "pion": 5780,
    "ioni": 3891,
    "nite": 4988,
    "noc": 5027,
    "mela": 4614,
    "elan": 2670,
    "lano": 4182,
    "anoc": 1450,
    "noce": 5028,
    "ocep": 5176,
    "wn": 7488,
    "clo": 2106,
    "own": 5631,
    "wni": 7492,
    "ish": 3954,
    "sh ": 6547,
    " clo": 136,
    "clow": 2107,
    "lown": 4457,
    "owni": 5634,
    "wnis": 7493,
    "nish": 4986,
    "ish ": 3955,
    "ene": 2759,
    "neg": 4892,
    "sene": 6523,
    "eneg": 2761,
    "nega": 4893,
    "egal": 2637,
    "gal ": 3158,
    "ซเ": 8161,
    "อต": 9422,
    " เซ": 920,
    "เซเ": 10139,
    "ซเน": 8162,
    "นกั": 8430,
    "กัล": 7774,
    "ัลพ": 9614,
    "ลพา": 9130,
    "าร็": 9748,
    "็อต": 10486,
    "อต ": 9423,
    " เซเ": 921,
    "เซเน": 10140,
    "ซเนก": 8163,
    "เนกั": 10172,
    "นกัล": 8431,
    "กัลพ": 7776,
    "ัลพา": 9615,
    "ลพาร": 9131,
    "พาร็": 8719,
    "าร็อ": 9749,
    "ร็อต": 9055,
    "็อต ": 10487,
    "oic": 5264,
    "poic": 5809,
    "oice": 5265,
    "galu": 3161,
    "ady": 1208,
    " ste": 674,
    "stea": 6680,
    "tead": 6816,
    "eady": 2503,
    "ady ": 1209,
    " q": 580,
    " qu": 581,
    "uak": 7104,
    "ker": 4085,
    " qua": 582,
    "quak": 5911,
    "uake": 7105,
    "aker": 1297,
    "ker ": 4086,
    "คว": 7912,
    "วก": 9244,
    "์พ": 10648,
    "เคว": 10121,
    "ควก": 7913,
    "วกเ": 9245,
    "กเก": 7801,
    "ร์พ": 9085,
    "์พา": 10649,
    " เคว": 919,
    "เควก": 10122,
    "ควกเ": 7914,
    "วกเก": 9246,
    "กเกอ": 7802,
    "อร์พ": 9471,
    "ร์พา": 9086,
    "์พาร": 10650,
    " my": 464,
    "yio": 7609,
    "iop": 3893,
    " myi": 465,
    "myio": 4759,
    "yiop": 7610,
    "iops": 3896,
    "nac": 4782,
    "mona": 4691,
    "onac": 5356,
    "nach": 4783,
    "zeb": 7705,
    " zeb": 778,
    "zebr": 7706,
    "ebra": 2538,
    "fin": 3089,
    "ch ": 1998,
    " fin": 253,
    "finc": 3092,
    "nch ": 4825,
    "ีบ": 9936,
    "ร้": 9059,
    "าฟ": 9717,
    "ฟิ": 8773,
    "ช์": 8116,
    " ซี": 829,
    "ซีบ": 8150,
    "ีบร": 9937,
    "บร้": 8595,
    "ร้า": 9060,
    "้าฟ": 10590,
    "าฟิ": 9718,
    "ฟิน": 8778,
    "นช์": 8447,
    "ช์ ": 8117,
    " ซีบ": 830,
    "ซีบร": 8151,
    "ีบร้": 9938,
    "บร้า": 8596,
    "ร้าฟ": 9061,
    "้าฟิ": 10591,
    "าฟิน": 9719,
    "ฟินช": 8779,
    "ินช์": 9857,
    "นช์ ": 8448,
    "tae": 6766,
    "aen": 1218,
    "nio": 4981,
    "ygi": 7598,
    " tae": 688,
    "taen": 6767,
    "aeni": 1219,
    "enio": 2770,
    "niop": 4983,
    "iopy": 3898,
    "opyg": 5454,
    "pygi": 5899,
    "ygia": 7599,
    "gia ": 3230,
    "tata": 6798,
    "jav": 4048,
    " jav": 368,
    "java": 4049,
    "ava ": 1683,
    "spa": 6640,
    " spa": 665,
    "spar": 6642,
    "row ": 6321,
    "ชว": 8090,
    "วา": 9279,
    "แป": 10297,
    "ปร": 8664,
    "รว": 8986,
    " ชว": 813,
    "ชวา": 8091,
    "วาส": 9282,
    "สแป": 9355,
    "แปร": 10298,
    "ปร์": 8665,
    "์โร": 10718,
    "โรว": 10402,
    "รว์": 8989,
    " ชวา": 814,
    "ชวาส": 8092,
    "วาสแ": 9283,
    "าสแป": 9777,
    "สแปร": 9356,
    "แปร์": 10299,
    "ปร์โ": 8666,
    "ร์โร": 9109,
    "์โรว": 10719,
    "โรว์": 10404,
    "รว์ ": 8990,
    "pad": 5657,
    "add": 1194,
    "dda": 2297,
    " pad": 523,
    "padd": 5658,
    "adda": 1195,
    "dda ": 2298,
    "yz": 7698,
    "zi": 7711,
    "ory": 5510,
    "ryz": 6437,
    "yzi": 7699,
    "ziv": 7715,
    " ory": 512,
    "oryz": 5512,
    "ryzi": 6438,
    "yziv": 7700,
    "zivo": 7716,
    "vora": 7432,
    "cana": 1926,
    "anar": 1412,
    "nary": 4804,
    "นา": 8518,
    "่ ": 10488,
    "คาน": 7938,
    "านา": 9692,
    "นาร": 8521,
    "ารี": 9746,
    "ี่ ": 9965,
    " คาน": 792,
    "คานา": 7939,
    "านาร": 9693,
    "นารี": 8522,
    "ารี่": 9747,
    "รี่ ": 9044,
    "ser": 6527,
    " ser": 637,
    "seri": 6529,
    "erin": 2871,
    "aria": 1545,
    "gb": 3179,
    "ngb": 4935,
    "gbi": 3180,
    " son": 662,
    "song": 6633,
    "ongb": 5373,
    "ngbi": 4936,
    "gbir": 3181,
    "co ": 2114,
    " toc": 714,
    "toco": 6964,
    "oco ": 5194,
    "tou": 7008,
    "ouc": 5586,
    "uca": 7129,
    " tou": 718,
    "touc": 7009,
    "ouca": 5587,
    "ucan": 7130,
    "ทโ": 8402,
    "คท": 7868,
    "โทโ": 10375,
    "ทโค": 8403,
    "โคท": 10348,
    "คทู": 7871,
    "ทูแ": 8390,
    "ูแค": 10079,
    "แคน": 10271,
    "คน ": 7874,
    " โทโ": 969,
    "โทโค": 10376,
    "ทโคท": 8404,
    "โคทู": 10349,
    "คทูแ": 7872,
    "ทูแค": 8391,
    "ูแคน": 10080,
    "แคน ": 10272,
    "has": 3370,
    " ram": 587,
    "ramp": 5975,
    "mpha": 4719,
    "phas": 5725,
    "hast": 3371,
    "asto": 1602,
    "stos": 6698,
    " hil": 328,
    "ill ": 3766,
    "myn": 4762,
    "yna": 7631,
    " myn": 467,
    "myna": 4763,
    "yna ": 7632,
    "อี": 9520,
    "้ย": 10576,
    "ยง": 8897,
    "งค": 7983,
    "คำ": 7948,
    "ำ ": 9809,
    " นก": 847,
    "นกเ": 8432,
    "กเอ": 7809,
    "เอี": 10250,
    "อี้": 9523,
    "ี้ย": 9977,
    "้ยง": 10577,
    "ยงค": 8898,
    "งคำ": 7986,
    "คำ ": 7949,
    " นกเ": 848,
    "นกเอ": 8433,
    "กเอี": 7810,
    "เอี้": 10251,
    "อี้ย": 9524,
    "ี้ยง": 9978,
    "้ยงค": 10578,
    "ยงคำ": 8899,
    "งคำ ": 7987,
    "grac": 3291,
    "racu": 5950,
    "igi": 3723,
    "gio": 3238,
    "ios": 3899,
    "osa": 5515,
    "sa ": 6459,
    " rel": 595,
    "elig": 2690,
    "ligi": 4334,
    "igio": 3724,
    "gios": 3239,
    "iosa": 3901,
    "osa ": 5516,
    "sta": 6673,
    "rli": 6224,
    " sta": 673,
    "star": 6677,
    "tarl": 6795,
    "arli": 1558,
    "rlin": 6225,
    "ling": 4342,
    " vo": 750,
    "voc": 7427,
    "oca": 5170,
    " voc": 751,
    "voca": 7428,
    "ocal": 5171,
    "cal ": 1913,
    " as": 47,
    " asi": 48,
    "asia": 1587,
    "aro": 1564,
    "owa": 5625,
    "wan": 7459,
    " aro": 46,
    "arow": 1565,
    "rowa": 6322,
    "owan": 5626,
    "wana": 7460,
    "เช": 10131,
    "อโ": 9533,
    "เอเ": 10252,
    "อเช": 9526,
    "เชี": 10134,
    "ชีย": 8109,
    "ยนอ": 8911,
    "นอโ": 8513,
    "อโร": 9534,
    "รวา": 8987,
    "วาน": 9280,
    "าน่": 9696,
    " เอเ": 942,
    "เอเช": 10253,
    "อเชี": 9527,
    "เชีย": 10135,
    "ชียน": 8111,
    "ียนอ": 9949,
    "ยนอโ": 8912,
    "นอโร": 8514,
    "อโรว": 9535,
    "โรวา": 10403,
    "รวาน": 8988,
    "วาน่": 9281,
    "าน่า": 9697,
    "scl": 6496,
    "pag": 5659,
    "age": 1241,
    "ges": 3214,
    " scl": 630,
    "scle": 6497,
    "cler": 2103,
    "lero": 4283,
    "ropa": 6296,
    "opag": 5423,
    "page": 5660,
    "ages": 1242,
    "ges ": 3215,
    " for": 262,
    "form": 3114,
    "mosu": 4705,
    " aq": 38,
    " aqu": 39,
    "fis": 3096,
    " fis": 255,
    "fish": 3097,
    "pre": 5844,
    "eda": 2582,
    "dat": 2281,
    " pre": 561,
    "pred": 5845,
    "reda": 6071,
    "edat": 2583,
    "dato": 2283,
    "tory": 7001,
    "ory ": 5511,
    "lv": 4510,
    "sil": 6576,
    "ilv": 3781,
    "lve": 4513,
    " sil": 646,
    "silv": 6579,
    "ilve": 3782,
    "lver": 4514,
    "ver ": 7395,
    "เว": 10236,
    " ซิ": 827,
    "ซิล": 8145,
    "ิลเ": 9887,
    "ลเว": 9212,
    "เวอ": 10237,
    "วอร": 9272,
    "ร์อ": 9089,
    "์อโ": 10668,
    " ซิล": 828,
    "ซิลเ": 8147,
    "ิลเว": 9888,
    "ลเวอ": 9213,
    "เวอร": 10238,
    "วอร์": 9273,
    "อร์อ": 9473,
    "ร์อโ": 9090,
    "์อโร": 10669,
    " os": 513,
    "ost": 5535,
    "teo": 6840,
    "eog": 2799,
    "ogl": 5253,
    "glo": 3249,
    "los": 4440,
    "oss": 5531,
    "ssu": 6667,
    " ost": 515,
    "oste": 5537,
    "steo": 6683,
    "teog": 6841,
    "eogl": 2800,
    "oglo": 5254,
    "glos": 3250,
    "loss": 4442,
    "ossu": 5533,
    "ssum": 6668,
    "sum ": 6723,
    "bic": 1786,
    "cir": 2068,
    "rho": 6132,
    "hos": 3498,
    " bic": 75,
    "bici": 1788,
    "icir": 3637,
    "cirr": 2069,
    "irrh": 3942,
    "rrho": 6338,
    "rhos": 6135,
    "hosu": 3501,
    "osum": 5542,
    " di": 179,
    " dis": 183,
    "ดิ": 8228,
    "ิส": 9896,
    "สค": 9313,
    "คั": 7928,
    " ดิ": 838,
    "ดิส": 8229,
    "ิสค": 9897,
    "สคั": 9314,
    "คัส": 7929,
    " ดิส": 839,
    "ดิสค": 8230,
    "ิสคั": 9898,
    "สคัส": 9315,
    "คัส ": 7930,
    "sym": 6737,
    "phy": 5754,
    "hys": 3567,
    "yso": 7677,
    "sod": 6621,
    " sym": 684,
    "symp": 6738,
    "mphy": 4722,
    "phys": 5756,
    "hyso": 3570,
    "ysod": 7678,
    "sodo": 6622,
    "eq": 2833,
    "aeq": 1220,
    "equ": 2834,
    "uif": 7195,
    "ifa": 3698,
    "asc": 1584,
    " aeq": 10,
    "aequ": 1221,
    "equi": 2835,
    "quif": 5916,
    "uifa": 7196,
    "ifas": 3699,
    "fasc": 3053,
    "asci": 1585,
    "scia": 6493,
    "ciat": 2048,
    "flo": 3103,
    "erh": 2863,
    " flo": 258,
    "flow": 3104,
    "lowe": 4456,
    "werh": 7476,
    "erho": 2864,
    "rhor": 6134,
    "horn": 3495,
    " ป": 867,
    "ปล": 8667,
    "าห": 9780,
    "อส": 9488,
    "สี": 9337,
    "ฟล": 8759,
    "วเ": 9287,
    " ปล": 868,
    "ปลา": 8668,
    "ลาห": 9173,
    "าหม": 9781,
    "หมอ": 9377,
    "มอส": 8837,
    "อสี": 9491,
    "สีฟ": 9340,
    "ีฟล": 9942,
    "ฟลา": 8760,
    "ลาว": 9169,
    "าวเ": 9766,
    "วเว": 9290,
    "ร์ฮ": 9091,
    "์น ": 10640,
    " ปลา": 869,
    "ปลาห": 8671,
    "ลาหม": 9174,
    "าหมอ": 9782,
    "หมอส": 9378,
    "มอสี": 8838,
    "อสีฟ": 9492,
    "สีฟล": 9341,
    "ีฟลา": 9943,
    "ฟลาว": 8761,
    "ลาวเ": 9170,
    "าวเว": 9767,
    "วเวอ": 9291,
    "อร์ฮ": 9474,
    "ร์ฮอ": 9092,
    "์ฮอร": 10673,
    "ร์น ": 9081,
    "hl": 3458,
    "cic": 2049,
    "chl": 2018,
    "hla": 3459,
    "las": 4192,
    "aso": 1592,
    "som": 6628,
    " cic": 128,
    "cich": 2050,
    "ichl": 3631,
    "chla": 2019,
    "hlas": 3461,
    "laso": 4195,
    "asom": 1593,
    "soma": 6629,
    "yb": 7561,
    "hyb": 3549,
    "ybr": 7565,
    "id ": 3653,
    " hyb": 341,
    "hybr": 3551,
    "ybri": 7566,
    "brid": 1865,
    "rid ": 6159,
    "osc": 5518,
    " osc": 514,
    "osca": 5519,
    "car ": 1939,
    "ออ": 9493,
    " ออ": 909,
    "ออส": 9494,
    "อสก": 9489,
    " ออส": 910,
    "ออสก": 9495,
    "อสกา": 9490,
    "าร์ ": 9751,
    "not": 5049,
    "otu": 5580,
    " ast": 51,
    "astr": 1603,
    "rono": 6292,
    "onot": 5389,
    "notu": 5053,
    "otus": 5581,
    " oce": 494,
    "ocel": 5175,
    "llat": 4376,
    "nter": 5088,
    "tera": 6846,
    "erac": 2845,
    "ract": 5949,
    "nto": 5104,
    "onto": 5395,
    "ntos": 5106,
    "tosa": 7004,
    " ฟ": 873,
    "ตซ": 8259,
    "ซ่": 8164,
    " ฟร": 874,
    "อนโ": 9443,
    "นโต": 8564,
    "โตซ": 10359,
    "ตซ่": 8260,
    "ซ่า": 8165,
    " ฟรอ": 875,
    "รอนโ": 8999,
    "อนโต": 9444,
    "นโตซ": 8565,
    "โตซ่": 10360,
    "ตซ่า": 8261,
    "ซ่า ": 8166,
    "cyp": 2238,
    "yph": 7653,
    "hot": 3502,
    "api": 1487,
    "pia": 5759,
    " cyp": 163,
    "cyph": 2239,
    "ypho": 7654,
    "phot": 5743,
    "hoti": 3503,
    "otil": 5563,
    "tila": 6911,
    "ilap": 3743,
    "lapi": 4186,
    "apia": 1488,
    "pia ": 5760,
    "mot": 4706,
    " mot": 459,
    "moto": 4707,
    "toro": 6999,
    "oro ": 5491,
    "ngr": 4949,
    "stin": 6690,
    "ingr": 3845,
    "ngra": 4950,
    "gray": 3296,
    "ray ": 6012,
    "มโ": 8876,
    "ตโ": 8312,
    "ร่": 9056,
    "่ส": 10505,
    " โม": 972,
    "โมโ": 10395,
    "มโต": 8877,
    "โตโ": 10361,
    "ตโร": 8313,
    "โร่": 10407,
    "ร่ส": 9057,
    "่สต": 10506,
    "ติง": 8296,
    "งเร": 8057,
    "เรย": 10222,
    " โมโ": 973,
    "โมโต": 10396,
    "มโตโ": 8878,
    "โตโร": 10362,
    "ตโร่": 8314,
    "โร่ส": 10408,
    "ร่สต": 9058,
    "่สติ": 10507,
    "สติง": 9326,
    "ติงเ": 8297,
    "ิงเร": 9843,
    "งเรย": 8058,
    "เรย์": 10223,
    "tam": 6781,
    "amo": 1391,
    "otr": 5573,
    "try": 7043,
    "ryg": 6424,
    "ygo": 7602,
    "pota": 5822,
    "otam": 5551,
    "tamo": 6783,
    "amot": 1394,
    "motr": 4708,
    "otry": 5575,
    "tryg": 7044,
    "rygo": 6425,
    "ygon": 7603,
    "s-": 6445,
    "omo": 5337,
    "us-": 7327,
    "s-s": 6446,
    "-sp": 1052,
    "ne ": 4879,
    " ven": 744,
    "veno": 7392,
    "enom": 2775,
    "nomo": 5037,
    "omou": 5339,
    "ous-": 5606,
    "us-s": 7328,
    "s-sp": 6447,
    "-spi": 1053,
    "spin": 6650,
    "pine": 5775,
    "ine ": 3829,
    " mb": 434,
    "mbu": 4599,
    "bu ": 1876,
    " mbu": 435,
    "mbu ": 4600,
    "ff": 3073,
    "puf": 5884,
    "uff": 7177,
    "ffe": 3074,
    " puf": 570,
    "puff": 5885,
    "uffe": 7178,
    "ffer": 3075,
    "อ็": 9536,
    "็ม": 10477,
    "มบ": 8819,
    "ูพ": 10044,
    "พั": 8713,
    "ัฟ": 9604,
    "เอ็": 10254,
    "อ็ม": 9537,
    "็มบ": 10478,
    "มบู": 8822,
    "บูพ": 8651,
    "ูพั": 10045,
    "พัฟ": 8714,
    "ัฟเ": 9605,
    "ฟเฟ": 8786,
    " เอ็": 943,
    "เอ็ม": 10255,
    "อ็มบ": 9538,
    "็มบู": 10479,
    "มบูพ": 8823,
    "บูพั": 8652,
    "ูพัฟ": 10046,
    "พัฟเ": 8715,
    "ัฟเฟ": 9606,
    "ฟเฟอ": 8787,
    "tet": 6858,
    "etr": 2970,
    "rao": 5985,
    "aod": 1473,
    " tet": 701,
    "tetr": 6859,
    "etra": 2971,
    "trao": 7018,
    "raod": 5986,
    "aodo": 1474,
    "fah": 3042,
    "aha": 1255,
    "hak": 3350,
    "aka": 1292,
    "ka ": 4066,
    " fah": 239,
    "faha": 3043,
    "ahak": 1256,
    "haka": 3351,
    "aka ": 1293,
    "ฟา": 8770,
    "าฮ": 9785,
    "ฮา": 9554,
    "าพ": 9712,
    " ฟา": 876,
    "ฟาฮ": 8771,
    "าฮา": 9786,
    "ฮาก": 9555,
    "ก้า": 7834,
    "้าพ": 10588,
    "าพั": 9713,
    " ฟาฮ": 877,
    "ฟาฮา": 8772,
    "าฮาก": 9787,
    "ฮาก้": 9556,
    "าก้า": 9650,
    "ก้าพ": 7835,
    "้าพั": 10589,
    "าพัฟ": 9714,
    "eat": 2522,
    " lin": 404,
    "line": 4341,
    "neat": 4884,
    "eatu": 2525,
    "-8": 991,
    "8 ": 1090,
    "fig": 3083,
    "gur": 3326,
    "e-8": 2474,
    "-8 ": 992,
    " fig": 250,
    "figu": 3084,
    "igur": 3735,
    "gure": 3327,
    "ure-": 7292,
    "re-8": 6059,
    "e-8 ": 2475,
    "อท": 9424,
    "ทพ": 8345,
    " ฟิ": 878,
    "ฟิก": 8774,
    "์เอ": 10696,
    "เอท": 10248,
    "อทพ": 9425,
    "ทพั": 8346,
    " ฟิก": 879,
    "ฟิกเ": 8775,
    "ิกเก": 9830,
    "ร์เอ": 9103,
    "์เอท": 10697,
    "เอทพ": 10249,
    "อทพั": 9426,
    "ทพัฟ": 8347,
    "cho": 2026,
    "myc": 4753,
    "yct": 7575,
    "ere": 2856,
    " dic": 181,
    "dich": 2351,
    "icho": 3632,
    "chot": 2028,
    "hoto": 3504,
    "otom": 5568,
    "tomy": 6983,
    "omyc": 5343,
    "myct": 4754,
    "ycte": 7576,
    "cter": 2191,
    "tere": 6847,
    "ere ": 2857,
    "kis": 4103,
    " bra": 92,
    "rack": 5948,
    "ckis": 2089,
    "kish": 4104,
    "arc": 1524,
    "rch": 6033,
    "rfi": 6116,
    " arc": 43,
    "arch": 1525,
    "rche": 6034,
    "cher": 2011,
    "herf": 3410,
    "erfi": 2861,
    "rfis": 6117,
    "ชอ": 8093,
    "ิช": 9846,
    "ช ": 8089,
    " อา": 914,
    "อาร": 9513,
    "์เช": 10679,
    "เชอ": 10132,
    "ชอร": 8094,
    "ร์ฟ": 9087,
    "์ฟิ": 10654,
    "ฟิช": 8776,
    "ิช ": 9847,
    " อาร": 915,
    "อาร์": 9514,
    "ร์เช": 9095,
    "์เชอ": 10680,
    "เชอร": 10133,
    "ชอร์": 8095,
    "อร์ฟ": 9472,
    "ร์ฟิ": 9088,
    "์ฟิช": 10655,
    "ฟิช ": 8777,
    "oxo": 5642,
    "toxo": 7012,
    "oxot": 5643,
    "xote": 7530,
    "otes": 5555,
    "jacu": 4039,
    "latr": 4200,
    "atri": 1651,
    "trix": 7034,
    "hir": 3446,
    "ir ": 3923,
    "bich": 1787,
    "ichi": 3630,
    "chir": 2016,
    "hir ": 3447,
    " บิ": 860,
    "บิเ": 8640,
    "ิเช": 9904,
    "์เซ": 10681,
    "ัล ": 9611,
    " บิเ": 862,
    "บิเช": 8641,
    "ิเชี": 9905,
    "ชียร": 8112,
    "ร์เซ": 9096,
    "์เซเ": 10682,
    "กัล ": 7775,
    "pol": 5811,
    "oly": 5315,
    " pol": 553,
    "poly": 5812,
    "olyp": 5316,
    "ypte": 7662,
    "teru": 6853,
    "erus": 2915,
    "ัลล": 9616,
    "ลลิ": 9144,
    "ลิเ": 9183,
    "ิเก": 9902,
    "เกเ": 10104,
    "์กา": 10614,
    "อัลล": 9504,
    "ัลลิ": 9617,
    "ลลิเ": 9145,
    "ลิเก": 9184,
    "ิเกเ": 9903,
    "เกเต": 10105,
    "อร์ก": 9465,
    "ร์กา": 9066,
    "์การ": 10615,
    "teu": 6860,
    " atr": 54,
    "acto": 1182,
    "ctos": 2201,
    "tost": 7005,
    "steu": 6685,
    "teus": 6861,
    "pat": 5677,
    "tul": 7072,
    "spat": 6643,
    "patu": 5680,
    "atul": 1657,
    "tula": 7073,
    "wn ": 7489,
    "own ": 5632,
    "kn": 4110,
    " kn": 377,
    "kni": 4113,
    "fef": 3062,
    "efi": 2628,
    " kni": 378,
    "knif": 4114,
    "ifef": 3702,
    "fefi": 3063,
    "efis": 2629,
    "ีด": 9919,
    "ดต": 8193,
    "วต": 9247,
    "ตล": 8277,
    "ลก": 9113,
    "ามี": 9727,
    "มีด": 8858,
    "ีดต": 9920,
    "ดตั": 8194,
    "ตัว": 8286,
    "ัวต": 9622,
    "วตล": 9248,
    "ตลก": 8278,
    "ลก ": 9114,
    "ปลาม": 8669,
    "ลามี": 9166,
    "ามีด": 9728,
    "มีดต": 8859,
    "ีดตั": 9921,
    "ดตัว": 8195,
    "ตัวต": 8287,
    "ัวตล": 9623,
    "วตลก": 9249,
    "ตลก ": 8279,
    "chit": 2017,
    "hita": 3453,
    "ital": 3972,
    "tala": 6776,
    "ala ": 1311,
    "tn": 6948,
    "atn": 1641,
    "tno": 6953,
    " dat": 169,
    "datn": 2282,
    "atno": 1643,
    "tnoi": 6954,
    "oid ": 5268,
    "ดั": 8215,
    "ัท": 9580,
    "ทน": 8342,
    " ดั": 836,
    "ดัท": 8216,
    "ัทน": 9581,
    "ทนอ": 8343,
    "นอย": 8509,
    "อยด": 9456,
    "ด์ ": 8249,
    " ดัท": 837,
    "ดัทน": 8217,
    "ัทนอ": 9582,
    "ทนอย": 8344,
    "นอยด": 8510,
    "อยด์": 9457,
    "ยด์ ": 8905,
    "tni": 6951,
    "ioi": 3883,
    "atni": 1642,
    "tnio": 6952,
    "nioi": 4982,
    "ioid": 3884,
    "mic": 4643,
    "ole": 5291,
    "pis": 5786,
    " mic": 448,
    "micr": 4644,
    "icro": 3642,
    "crol": 2175,
    "role": 6284,
    "olep": 5292,
    "epis": 2827,
    "pis ": 5787,
    "dt": 2450,
    "edt": 2600,
    "dta": 2451,
    "redt": 6075,
    "edta": 2601,
    "dtai": 2452,
    "ail ": 1268,
    "tf": 6862,
    "atf": 1626,
    "tfi": 6863,
    "catf": 1952,
    "atfi": 1627,
    "tfis": 6864,
    "ลแ": 9214,
    "รดเ": 8966,
    "ดเท": 8236,
    "ทลแ": 8368,
    "ลแค": 9215,
    "แคท": 10269,
    "คทฟ": 7869,
    "ทฟิ": 8351,
    "เรดเ": 10217,
    "รดเท": 8967,
    "ดเทล": 8237,
    "เทลแ": 10164,
    "ทลแค": 8369,
    "ลแคท": 9216,
    "แคทฟ": 10270,
    "คทฟิ": 7870,
    "ทฟิช": 8352,
    "hra": 3509,
    " phr": 537,
    "phra": 5745,
    "hrac": 3511,
    "ctoc": 2197,
    "toce": 6962,
    "mio": 4654,
    "iol": 3885,
    "lio": 4343,
    "opt": 5448,
    "emio": 2729,
    "miol": 4655,
    "ioli": 3886,
    "olio": 5298,
    "liop": 4346,
    "iopt": 3897,
    "opte": 5449,
    "mora": 4698,
    "oray": 5468,
    " ee": 208,
    "eel": 2612,
    " eel": 209,
    "eel ": 2613,
    "าไ": 9806,
    "ไห": 10441,
    "ลม": 9137,
    "น้": 8578,
    "้ำ": 10596,
    "ำจ": 9810,
    "จื": 8076,
    "ืด": 9988,
    "ลาไ": 9177,
    "าไห": 9807,
    "ไหล": 10442,
    "หลม": 9387,
    "ลมอ": 9138,
    "มอเ": 8839,
    "ย์น": 8944,
    "์น้": 10643,
    "น้ำ": 8579,
    "้ำจ": 10598,
    "ำจื": 9811,
    "จืด": 8077,
    "ืด ": 9989,
    "ปลาไ": 8672,
    "ลาไห": 9178,
    "าไหล": 9808,
    "ไหลม": 10443,
    "หลมอ": 9388,
    "ลมอเ": 9140,
    "มอเร": 8840,
    "อเรย": 9532,
    "รย์น": 8981,
    "ย์น้": 8945,
    "์น้ำ": 10644,
    "น้ำจ": 8581,
    "้ำจื": 10599,
    "ำจืด": 9812,
    "จืด ": 8078,
    "gy": 3332,
    " gy": 310,
    "gym": 3333,
    "ymn": 7626,
    "mno": 4679,
    "oth": 5557,
    "rax": 6009,
    "ax ": 1703,
    " gym": 311,
    "gymn": 3334,
    "ymno": 7627,
    "mnot": 4680,
    "noth": 5051,
    "otho": 5559,
    "thor": 6880,
    "orax": 5467,
    "rax ": 6010,
    "yu": 7691,
    "lyu": 4527,
    "yur": 7692,
    "olyu": 5317,
    "lyur": 4528,
    "yura": 7693,
    "uran": 7286,
    "rano": 5982,
    "te-": 6812,
    "e-r": 2486,
    "ite-": 3981,
    "te-r": 6813,
    "e-ri": 2487,
    "aus": 1677,
    "ral": 5967,
    " aus": 58,
    "aust": 1678,
    "ustr": 7347,
    "stra": 6700,
    "tral": 7017,
    "rali": 5969,
    "alia": 1335,
    "dc": 2292,
    "edc": 2584,
    "dcl": 2293,
    "cla": 2095,
    "law": 4207,
    "redc": 6072,
    "edcl": 2585,
    "dcla": 2294,
    "claw": 2097,
    "law ": 4208,
    "yfi": 7593,
    " cra": 148,
    "cray": 2164,
    "rayf": 6014,
    "ayfi": 1714,
    "yfis": 7594,
    "รดค": 8960,
    "ดคล": 8179,
    "คลอ": 7906,
    "ลอว": 9153,
    "ว์เ": 9297,
    "ครย": 7896,
    "ย์ฟ": 8946,
    "เรดค": 10214,
    "รดคล": 8961,
    "ดคลอ": 8180,
    "คลอว": 7907,
    "ลอว์": 9154,
    "อว์เ": 9487,
    "ว์เค": 9298,
    "เครย": 10117,
    "ครย์": 7897,
    "รย์ฟ": 8982,
    "ย์ฟิ": 8947,
    "hera": 3408,
    "erax": 2848,
    "uad": 7100,
    "adr": 1204,
    "dri": 2435,
    "quad": 5910,
    "uadr": 7101,
    "adri": 1205,
    "dric": 2436,
    "icar": 3622,
    "cari": 1943,
    "arin": 1550,
    "rina": 6178,
    "inat": 3814,
    "natu": 4813,
    "cru": 2178,
    "ace": 1149,
    "cea": 1971,
    "ean": 2511,
    " cru": 152,
    "crus": 2179,
    "rust": 6407,
    "usta": 7345,
    "stac": 6674,
    "tace": 6763,
    "acea": 1150,
    "cean": 1972,
    "ean ": 2512,
    "y/g": 7547,
    "ry/g": 6420,
    "y/gr": 7548,
    "mba": 4584,
    "bar": 1746,
    "aru": 1576,
    "roca": 6265,
    "ocam": 5172,
    "camb": 1922,
    "amba": 1376,
    "mbar": 4585,
    "baru": 1750,
    "arus": 1578,
    "โพ": 10389,
    "รแ": 9046,
    "บา": 8628,
    " โพ": 970,
    "โพร": 10390,
    "พรแ": 8706,
    "รแค": 9047,
    "คมบ": 7884,
    "มบา": 8820,
    "บาร": 8629,
    "ารั": 9740,
    "สเค": 9343,
    " โพร": 971,
    "โพรแ": 10391,
    "พรแค": 8707,
    "รแคม": 9048,
    "แคมบ": 10274,
    "คมบา": 7885,
    "มบาร": 8821,
    "บารั": 8630,
    "ารัส": 9742,
    "ัสเค": 9635,
    "สเคร": 9344,
    "ark": 1553,
    "rki": 6217,
    " cla": 134,
    "clar": 2096,
    "lark": 4191,
    "arki": 1555,
    "rkii": 6218,
    "bam": 1740,
    "mbo": 4594,
    "boo": 1832,
    " bam": 66,
    "bamb": 1741,
    "ambo": 1378,
    "mboo": 4595,
    "boo ": 1833,
    "p ": 5649,
    "shr": 6557,
    "rim": 6172,
    "mp ": 4713,
    " shr": 642,
    "shri": 6558,
    "hrim": 3515,
    "rimp": 6174,
    "imp ": 3799,
    "กุ": 7791,
    "ุ้": 10002,
    "งไ": 8062,
    "ไผ": 10422,
    "ผ่": 8687,
    " กุ": 788,
    "กุ้": 7794,
    "ุ้ง": 10003,
    "้งไ": 10561,
    "งไผ": 8063,
    "ไผ่": 10423,
    "ผ่ ": 8688,
    " กุ้": 789,
    "กุ้ง": 7795,
    "ุ้งไ": 10006,
    "้งไผ": 10562,
    "งไผ่": 8064,
    "ไผ่ ": 10424,
    "aty": 1659,
    "tyo": 7093,
    " aty": 55,
    "atyo": 1661,
    "tyop": 7094,
    "yops": 7645,
    "psis": 5865,
    "luc": 4489,
    "ucc": 7131,
    "cce": 1964,
    "molu": 4688,
    "oluc": 5314,
    "lucc": 4490,
    "ucce": 7132,
    "ccen": 1965,
    "cens": 1983,
    "fil": 3085,
    "ilt": 3775,
    "lte": 4478,
    "er-": 2840,
    "r-f": 5927,
    "-fe": 1023,
    " fil": 251,
    "filt": 3086,
    "ilte": 3776,
    "lter": 4479,
    "ter-": 6845,
    "er-f": 2841,
    "r-fe": 5928,
    "-fee": 1024,
    "pea": 5686,
    "eac": 2498,
    "cef": 1975,
    "efu": 2632,
    " pea": 530,
    "peac": 5688,
    "eace": 2499,
    "acef": 1151,
    "cefu": 1976,
    "eful": 2633,
    "cry": 2180,
    " cry": 153,
    "crys": 2181,
    "ryst": 6432,
    "ysta": 7680,
    "stal": 6675,
    "tal ": 6775,
    "้งค": 10549,
    "งคร": 7984,
    "คริ": 7902,
    "ริส": 9030,
    "ิสต": 9899,
    "สตั": 9322,
    "ตัล": 8284,
    "ลเร": 9210,
    "รด ": 8959,
    "ุ้งค": 10004,
    "้งคร": 10550,
    "งคริ": 7985,
    "คริส": 7904,
    "ริสต": 9031,
    "ิสตั": 9900,
    "สตัล": 9323,
    "ตัลเ": 8285,
    "ัลเร": 9620,
    "ลเรด": 9211,
    "เรด ": 10213,
    "arid": 1548,
    "idin": 3659,
    "dina": 2363,
    "anto": 1464,
    "nton": 5105,
    "tone": 6987,
    "onen": 5365,
    "nie": 4967,
    "olon": 5304,
    "loni": 4428,
    "onie": 5380,
    "nies": 4969,
    "ies ": 3687,
    "lue ": 4495,
    "bol": 1823,
    "olt": 5310,
    "lt ": 4477,
    " bol": 86,
    "bolt": 1827,
    "olt ": 5311,
    "งบ": 7993,
    "ลต": 9126,
    "้งบ": 10553,
    "งบล": 7994,
    "ลูโ": 9201,
    "โบล": 10383,
    "บลต": 8598,
    "ลต์": 9127,
    "ต์ ": 8334,
    "ุ้งบ": 10005,
    "้งบล": 10554,
    "งบลู": 7995,
    "บลูโ": 8609,
    "ลูโบ": 9202,
    "ูโบล": 10091,
    "โบลต": 10384,
    "บลต์": 8599,
    "ลต์ ": 9128,
    "log": 4421,
    "oge": 5250,
    "gem": 3197,
    " log": 411,
    "loge": 4422,
    "ogem": 5251,
    "gema": 3198,
    "vam": 7372,
    "mpi": 4723,
    "pir": 5784,
    " vam": 740,
    "vamp": 7373,
    "ampi": 1398,
    "mpir": 4724,
    "pire": 5785,
    "b ": 1726,
    "rab": 5941,
    "ab ": 1127,
    "crab": 2161,
    "rab ": 5942,
    "วม": 9262,
    "มไ": 8879,
    "รบ": 8973,
    "บ ": 8583,
    " แว": 958,
    "แวม": 10322,
    "วมไ": 9263,
    "มไพ": 8880,
    "ไพร": 10429,
    "พร์": 8708,
    "ครบ": 7894,
    "รบ ": 8974,
    " แวม": 959,
    "แวมไ": 10323,
    "วมไพ": 9264,
    "มไพร": 8881,
    "ไพร์": 10430,
    "พร์แ": 8709,
    "์แคร": 10701,
    "แครบ": 10277,
    "ครบ ": 7895,
    "geo": 3203,
    "ses": 6532,
    "esa": 2930,
    "sar": 6474,
    " geo": 280,
    "geos": 3206,
    "eose": 2813,
    "oses": 5527,
    "sesa": 6533,
    "esar": 2931,
    "sarm": 6475,
    "arma": 1560,
    "rma ": 6230,
    "erl": 2878,
    "denn": 2324,
    "nner": 5014,
    "nerl": 4908,
    "erle": 2879,
    "rle ": 6221,
    "uda": 7148,
    "palu": 5667,
    "alud": 1360,
    "luda": 4492,
    "udar": 7150,
    "dari": 2279,
    "rium": 6203,
    "i-t": 3581,
    "-te": 1059,
    "mi-t": 4642,
    "i-te": 3582,
    "-ter": 1060,
    "sea": 6508,
    "eah": 2504,
    "aho": 1261,
    "rse": 6355,
    " sea": 633,
    "seah": 6510,
    "eaho": 2505,
    "ahor": 1262,
    "orse": 5497,
    "rse ": 6356,
    "ม้": 8890,
    " ม้": 884,
    "ม้า": 8891,
    "้าน": 10586,
    "าน้": 9698,
    "้ำ ": 10597,
    " ม้า": 885,
    "ม้าน": 8892,
    "้าน้": 10587,
    "าน้ำ": 9699,
    "น้ำ ": 8580,
    "hip": 3444,
    "ipp": 3911,
    "ppo": 5837,
    "poc": 5801,
    "mpu": 4729,
    " hip": 329,
    "hipp": 3445,
    "ippo": 3913,
    "ppoc": 5838,
    "poca": 5802,
    "ampu": 1400,
    "mpus": 4730,
    " ku": 384,
    "kud": 4133,
    " kud": 385,
    "kuda": 4134,
    "uda ": 7149,
    "mari": 4567,
    "rine": 6179,
    "nf": 4921,
    "onf": 5367,
    "nfi": 4922,
    " lio": 405,
    "lion": 4345,
    "ionf": 3890,
    "onfi": 5368,
    "nfis": 4923,
    "สิ": 9334,
    "งโ": 8059,
    "ลาส": 9171,
    "าสิ": 9771,
    "สิง": 9335,
    "ิงโ": 9844,
    "งโต": 8060,
    "โต ": 10358,
    "ปลาส": 8670,
    "ลาสิ": 9172,
    "าสิง": 9772,
    "สิงโ": 9336,
    "ิงโต": 9845,
    "งโต ": 8061,
    "roi": 6280,
    "eroi": 2889,
    "rois": 6281,
    "ois ": 5272,
    "vol": 7429,
    "tan": 6784,
    " vol": 752,
    "voli": 7430,
    "itan": 3973,
    "tans": 6788,
    "xf": 7511,
    "box": 1851,
    "oxf": 5637,
    "xfi": 7512,
    " box": 90,
    "boxf": 1852,
    "oxfi": 5638,
    "xfis": 7513,
    "บ็": 8658,
    " บ็": 865,
    "บ็อ": 8659,
    "ซ์ฟ": 8169,
    " บ็อ": 866,
    "บ็อก": 8660,
    "กซ์ฟ": 7733,
    "ซ์ฟิ": 8170,
    "cio": 2065,
    "ostr": 5539,
    "raci": 5947,
    "acio": 1162,
    "cion": 2067,
    "ion ": 3888,
    "cubi": 2211,
    "ubic": 7120,
    "bicu": 1789,
    "hou": 3506,
    " hou": 335,
    "hous": 3507,
    "oae": 5152,
    "aed": 1214,
    "edo": 2598,
    "boae": 1822,
    "oaed": 5153,
    "aedo": 1215,
    "edon": 2599,
    "ape": 1481,
    "cape": 1933,
    "apen": 1482,
    "pens": 5704,
    "ack ": 1164,
    " ni": 479,
    " nig": 480,
    "nigr": 4975,
    "igra": 3730,
    "gra ": 3290,
    " pin": 541,
    "nol": 5034,
    "leu": 4291,
    "euc": 2985,
    "ucu": 7144,
    "anol": 1452,
    "nole": 5035,
    "oleu": 5293,
    "leuc": 4292,
    "eucu": 2987,
    "ucus": 7145,
    "eau": 2526,
    "aut": 1679,
    "uty": 7358,
    "ty ": 7084,
    "beau": 1764,
    "eaut": 2527,
    "auty": 1680,
    "uty ": 7359,
    "rth": 6373,
    " ort": 511,
    "orth": 5501,
    "rthr": 6375,
    "hrio": 3516,
    "riop": 6186,
    "ioph": 3895,
    "niu": 4990,
    "eniu": 2771,
    "niur": 4991,
    "l/": 4146,
    "/t": 1087,
    "al/": 1304,
    "l/t": 4151,
    "/te": 1088,
    "eal/": 2508,
    "al/t": 1307,
    "l/te": 4152,
    "/ter": 1089,
    "rhi": 6130,
    "ino": 3857,
    " rhi": 601,
    "rhin": 6131,
    "hino": 3442,
    "ino ": 3858,
    "nyo": 5137,
    "yos": 7647,
    "oso": 5529,
    " gon": 297,
    "gony": 3276,
    "onyo": 5404,
    "nyos": 5138,
    "yoso": 7649,
    "osom": 5530,
    "bou": 1846,
    "oul": 5593,
    "len": 4268,
    "eng": 2763,
    " bou": 89,
    "boul": 1847,
    "oule": 5595,
    "ulen": 7218,
    "leng": 4269,
    "enge": 2764,
    "nda": 4850,
    " man": 428,
    "anda": 1421,
    "ndar": 4851,
    "rin ": 6177,
    "eup": 2992,
    "upr": 7276,
    " eup": 231,
    "eupr": 2994,
    "upre": 7277,
    "prep": 5847,
    "repi": 6097,
    "epio": 2826,
    "piop": 5781,
    "edl": 2594,
    "dl'": 2382,
    "bred": 1860,
    "redl": 6074,
    "edl'": 2595,
    "dl's": 2383,
    "edli": 2597,
    "dli ": 2389,
    "wo": 7494,
    " wo": 767,
    "wom": 7495,
    " wom": 768,
    "woma": 7496,
    "asp": 1594,
    " asp": 49,
    "aspi": 1595,
    "spid": 6648,
    "pidi": 5765,
    "idit": 3661,
    "dite": 2377,
    "msa": 4732,
    "say": 6481,
    "ayi": 1716,
    "yi ": 7605,
    "rams": 5976,
    "amsa": 1402,
    "msay": 4733,
    "sayi": 6482,
    "ayi ": 1717,
    "tim": 6915,
    "ims": 3801,
    "mso": 4734,
    "stim": 6689,
    "tims": 6916,
    "imso": 3802,
    "mson": 4735,
    "oni ": 5378,
    "cora": 2149,
    "oral": 5464,
    "rall": 5970,
    "allu": 1346,
    "rtu": 6384,
    "hort": 3497,
    "ortu": 5504,
    "rtul": 6385,
    "ulan": 7208,
    "lana": 4179,
    " em": 216,
    "eme": 2724,
    " eme": 217,
    "emer": 2725,
    "mera": 4623,
    "eral": 2846,
    "rald": 5968,
    "ald ": 1325,
    "nin": 4978,
    "cani": 1927,
    "anin": 1437,
    "ninu": 4980,
    "oug": 5591,
    "ugh": 7188,
    " rou": 613,
    "roug": 6315,
    "ough": 5592,
    "ugh ": 7189,
    " op": 505,
    "heo": 3404,
    "eod": 2797,
    "odr": 5222,
    " oph": 506,
    "pheo": 5729,
    "heod": 3405,
    "eodr": 2798,
    "odry": 5223,
    "drys": 2446,
    "ivu": 4027,
    "tivu": 6938,
    "ivus": 4029,
    "g'": 3145,
    "ng'": 4926,
    "g's": 3146,
    "stan": 6676,
    "tand": 6785,
    "ing'": 3839,
    "ng's": 4927,
    "g's ": 3147,
    "ngi": 4941,
    "gi ": 3228,
    "ingi": 3843,
    "ngi ": 4942,
    "our": 5599,
    "urn": 7306,
    " mou": 460,
    "mour": 4710,
    "ourn": 5601,
    "urni": 7307,
    "rnin": 6252,
    "ning": 4979,
    "dod": 2399,
    "idod": 3664,
    "doda": 2400,
    "lug": 4497,
    "ugu": 7190,
    "gub": 3315,
    " lug": 420,
    "lugu": 4498,
    "ugub": 7191,
    "gubr": 3316,
    "bris": 1868,
    "kit": 4105,
    "skit": 6602,
    "kitt": 4106,
    "ttis": 7059,
    "tish": 6930,
    "up ": 7270,
    "oup ": 5597,
    "b-": 1727,
    "kno": 4115,
    "nob": 5024,
    "ob-": 5157,
    "b-t": 1728,
    " kno": 379,
    "knob": 4116,
    "nob-": 5025,
    "ob-t": 5158,
    "b-ta": 1729,
    "nep": 4904,
    "hru": 3523,
    "rur": 6401,
    " nep": 476,
    "neph": 4905,
    "ephr": 2822,
    "phru": 5747,
    "hrur": 3524,
    "ruru": 6403,
    "lev": 4294,
    " lev": 401,
    "levi": 4295,
    "ave": 1685,
    "cave": 1959,
    "ave ": 1686,
    "sau": 6476,
    "goni": 3274,
    "oniu": 5383,
    "iuro": 4010,
    "uros": 7314,
    "rosa": 6306,
    "osau": 5517,
    "saur": 6478,
    "lui": 4499,
    "uii": 7197,
    " lui": 421,
    "luii": 4500,
    "uii ": 7198,
    " gol": 296,
    " du": 195,
    "dus": 2458,
    " dus": 196,
    "dust": 2461,
    "ust ": 7344,
    " lat": 393,
    "lati": 4199,
    "icau": 3624,
    "auda": 1666,
    "ank": 1443,
    "nki": 5003,
    "in'": 3808,
    " ran": 588,
    "rank": 5981,
    "anki": 1444,
    "nkin": 5004,
    "kin'": 4100,
    "in's": 3809,
    "nr": 5059,
    "ws": 7497,
    "hen": 3400,
    "enr": 2778,
    "nry": 5062,
    "ryl": 6426,
    "yla": 7612,
    "aws": 1700,
    "wso": 7498,
    " hen": 323,
    "henr": 3402,
    "enry": 2780,
    "nryl": 5063,
    "ryla": 6427,
    "ylaw": 7614,
    "laws": 4210,
    "awso": 1701,
    "wson": 7499,
    "ril": 6170,
    "lle": 4377,
    "fril": 3126,
    "rill": 6171,
    "ille": 3768,
    "lled": 4378,
    "yd": 7577,
    "amy": 1404,
    "myd": 4755,
    "ydo": 7578,
    "dos": 2417,
    " chl": 125,
    "hlam": 3460,
    "lamy": 4177,
    "amyd": 1405,
    "mydo": 4756,
    "ydos": 7579,
    "dosa": 2418,
    "gii": 3236,
    "ngii": 4943,
    "gii ": 3237,
    " wat": 759,
    "ysi": 7675,
    "ath": 1628,
    " phy": 538,
    "hysi": 3569,
    "ysig": 7676,
    "gnat": 3259,
    "nath": 4811,
    "athu": 1630,
    "thus": 6889,
    "nci": 4829,
    "coci": 2121,
    "ocin": 5188,
    "inci": 3820,
    "ncin": 4830,
    "lip": 4347,
    " phi": 535,
    "phil": 5734,
    "hili": 3434,
    "ilip": 3759,
    "lipp": 4348,
    "ippi": 3912,
    "sai": 6462,
    "ilf": 3754,
    "lfi": 4303,
    " sai": 621,
    "sail": 6463,
    "ailf": 1271,
    "ilfi": 3755,
    "lfin": 4304,
    "fin ": 3090,
    "hyd": 3554,
    "ydr": 7580,
    " hyd": 342,
    "hydr": 3555,
    "ydro": 7581,
    "dros": 2442,
    " pus": 573,
    "pust": 5892,
    "ustu": 7348,
    "stul": 6707,
    "rge": 6123,
    "nti": 5095,
    " arg": 44,
    "arge": 1542,
    "rgen": 6124,
    "enti": 2790,
    "ntin": 5098,
    "tine": 6920,
    " and": 30,
    "teg": 6824,
    " teg": 695,
    "tegu": 6825,
    "alv": 1362,
    "lva": 4511,
    "vat": 7380,
    "salv": 6468,
    "alva": 1363,
    "lvat": 4512,
    "vato": 7381,
    "eria": 2867,
    "iana": 3596,
    "anae": 1410,
    "ufe": 7175,
    "fes": 3071,
    "esc": 2932,
    "sce": 6487,
    "rufe": 6394,
    "ufes": 7176,
    "fesc": 3072,
    "esce": 2933,
    "scen": 6488,
    "ens ": 2782,
    "prol": 5853,
    "gd": 3182,
    "agd": 1239,
    "gdi": 3183,
    "smar": 6612,
    "mara": 4565,
    "arag": 1514,
    "ragd": 5958,
    "agdi": 1240,
    "gdin": 3184,
    "hlu": 3466,
    " moc": 454,
    "ochl": 5181,
    "chlu": 2022,
    "hlus": 3467,
    "nan": 4797,
    "di ": 2345,
    "fern": 3069,
    "erna": 2885,
    "rnan": 6247,
    "nand": 4798,
    "ndi ": 4861,
    "hne": 3471,
    "nei": 4894,
    "eid": 2655,
    " sch": 628,
    "schn": 6491,
    "chne": 2024,
    "hnei": 3472,
    "neid": 4895,
    "eide": 2656,
    "der'": 2330,
    "eum": 2990,
    "ume": 7239,
    "mec": 4606,
    "ece": 2546,
    "ces": 1992,
    " eum": 230,
    "eume": 2991,
    "umec": 7240,
    "mece": 4607,
    "eces": 2547,
    "ces ": 1993,
    "rii": 6168,
    "deri": 2333,
    "erii": 2870,
    "rii ": 6169,
    "pete": 5717,
    "ter'": 6844,
    " ban": 67,
    "band": 1745,
    "nded": 4856,
    "ncop": 4838,
    "copu": 2147,
    "ey-": 3025,
    "y-t": 7544,
    "key-": 4089,
    "ey-t": 3026,
    "y-ta": 7545,
    "oru": 5505,
    "ruc": 6389,
    "coru": 2154,
    "oruc": 5506,
    "ruci": 6390,
    "ucia": 7138,
    "cia ": 2045,
    "brat": 1857,
    "rata": 5997,
    "mad": 4540,
    "adi": 1200,
    "llo": 4390,
    "lo ": 4412,
    " arm": 45,
    "rmad": 6231,
    "madi": 4541,
    "adil": 1201,
    "dill": 2360,
    "illo": 3769,
    "llo ": 4391,
    "gir": 3240,
    "rdl": 6052,
    "dle": 2384,
    " gir": 288,
    "gird": 3241,
    "irdl": 3929,
    "rdle": 6053,
    "dled": 2385,
    " ou": 518,
    " our": 519,
    "ouro": 5602,
    "urob": 7310,
    "boru": 1840,
    "orus": 5507,
    "tap": 6789,
    "atap": 1618,
    "taph": 6790,
    "actu": 1183,
    "mali": 4551,
    "ali ": 1334,
    "alie": 1336,
    "lien": 4327,
    "iens": 3681,
    "reek": 6079,
    "rae": 5955,
    "aec": 1212,
    "eca": 2544,
    "grae": 3292,
    "raec": 5956,
    "aeca": 1213,
    "eca ": 2545,
    "nca": 4822,
    "cak": 1910,
    "panc": 5669,
    "anca": 1414,
    "ncak": 4823,
    "cake": 1911,
    "alac": 1313,
    "laco": 4167,
    "acoc": 1174,
    "coch": 2120,
    "hers": 3415,
    "torn": 6998,
    "rnie": 6251,
    "nier": 4968,
    "ieri": 3685,
    "w-": 7448,
    "yel": 7585,
    "ow-": 5622,
    "w-f": 7451,
    " yel": 774,
    "yell": 7586,
    "ello": 2696,
    "llow": 4393,
    "low-": 4455,
    "ow-f": 5624,
    "w-fo": 7452,
    "ntic": 5096,
    " elo": 215,
    "long": 4427,
    "onga": 5372,
    "ngat": 4934,
    "gate": 3177,
    "ndo": 4868,
    "dot": 2419,
    "indo": 3827,
    "ndot": 4869,
    "dote": 2420,
    "sid": 6570,
    " sid": 645,
    "side": 6571,
    "iden": 3655,
    "dene": 2323,
    "enec": 2760,
    "usi": 7337,
    "sio": 6585,
    "pelu": 5701,
    "lusi": 4509,
    "usio": 7338,
    "sios": 6587,
    "ios ": 3900,
    "cas": 1947,
    "neu": 4917,
    " cas": 113,
    "cast": 1948,
    "asta": 1600,
    "tane": 6786,
    "aneu": 1429,
    "neus": 4918,
    "elm": 2699,
    "lme": 4403,
    "met": 4629,
    " hel": 321,
    "helm": 3391,
    "elme": 2701,
    "lmet": 4404,
    "mete": 4631,
    "eted": 2959,
    "lom": 4423,
    "edu": 2602,
    "usa": 7329,
    "elom": 2705,
    "lome": 4424,
    "omed": 5327,
    "medu": 4610,
    "edus": 2603,
    "dusa": 2460,
    "usa ": 7330,
    "sub": 6713,
    "bru": 1873,
    "ufa": 7173,
    "fa ": 3041,
    " sub": 678,
    "subr": 6714,
    "ubru": 7127,
    "bruf": 1874,
    "rufa": 6393,
    "ufa ": 7174,
    "ass": 1596,
    "sse": 6659,
    "rti": 6376,
    " ass": 50,
    "asse": 1597,
    "sser": 6661,
    "sert": 6530,
    "erti": 2911,
    "rtiv": 6379,
    "usk": 7339,
    "musk": 4749,
    "usk ": 7340,
    "rno": 6255,
    "erno": 2886,
    "rnot": 6256,
    "othe": 5558,
    "heru": 3416,
    " odo": 498,
    "dora": 2414,
    "ap ": 1478,
    " map": 429,
    "map ": 4562,
    "apt": 1497,
    "rapt": 5990,
    "apte": 1498,
    "ptem": 5872,
    "temy": 6835,
    "geog": 3204,
    "eogr": 2801,
    "ogra": 5260,
    "hica": 3425,
    "db": 2287,
    "iam": 3592,
    "ond": 5360,
    "ndb": 4853,
    "dba": 2288,
    "bac": 1734,
    " dia": 180,
    "diam": 2348,
    "iamo": 3593,
    "amon": 1392,
    "mond": 4692,
    "ondb": 5362,
    "ndba": 4854,
    "dbac": 2289,
    "back": 1735,
    "rra": 6330,
    "erra": 2899,
    "rrap": 6331,
    "rapi": 5989,
    "apin": 1490,
    "pin ": 5774,
    "lem": 4265,
    "lacl": 4166,
    "clem": 2102,
    "lemy": 4267,
    "raz": 6015,
    "zor": 7721,
    "or-": 5458,
    "r-b": 5923,
    "-ba": 1003,
    "cke": 2084,
    "ked": 4079,
    " raz": 590,
    "razo": 6017,
    "azor": 1725,
    "zor-": 7722,
    "or-b": 5459,
    "r-ba": 5924,
    "-bac": 1004,
    "acke": 1166,
    "cked": 2085,
    "ked ": 4080,
    "s'": 6440,
    "eev": 2621,
    "eve": 3000,
    "ves": 7400,
    "es'": 2925,
    "s's": 6441,
    " ree": 593,
    "reev": 6081,
    "eeve": 2622,
    "eves": 3002,
    "ves'": 7401,
    "es's": 2926,
    "s's ": 6442,
    "mau": 4579,
    "rem": 6091,
    " mau": 433,
    "maur": 4580,
    "aure": 1674,
    "urem": 7293,
    "remy": 6092,
    "sii": 6574,
    "vesi": 7402,
    "esii": 2940,
    "sii ": 6575,
    "fal": 3046,
    "als": 1354,
    "lse": 4470,
    " fal": 240,
    "fals": 3047,
    "alse": 1355,
    "lse ": 4471,
    "pse": 5860,
    "eud": 2988,
    " pse": 565,
    "pseu": 5862,
    "seud": 6537,
    "eudo": 2989,
    "udog": 7157,
    "doge": 2403,
    "ogeo": 5252,
    "ras": 5993,
    "pras": 5842,
    "rasi": 5994,
    "asin": 1590,
    "sinu": 6584,
    "dile": 2358,
    "rib": 6147,
    "ibo": 3611,
    "trib": 7027,
    "ribo": 6151,
    "ibol": 3612,
    "bolo": 1826,
    "acil": 1160,
    "ilis": 3761,
    "air ": 1281,
    "kim": 4096,
    "mbe": 4586,
    "ber": 1776,
    "ley": 4298,
    " kim": 375,
    "kimb": 4097,
    "imbe": 3792,
    "mber": 4588,
    "berl": 1778,
    "rley": 6223,
    "ley ": 4299,
    "gla": 3245,
    "lau": 4203,
    "aue": 1668,
    "uer": 7170,
    " gla": 290,
    "glau": 3246,
    "laue": 4204,
    "auer": 1669,
    "uert": 7171,
    "rti ": 6377,
    "/a": 1072,
    "l/a": 4147,
    "/ar": 1073,
    "ial/": 3590,
    "al/a": 1305,
    "l/ar": 4148,
    "/arb": 1074,
    "chy": 2038,
    "hyc": 3552,
    "yce": 7568,
    "achy": 1158,
    "chyc": 2039,
    "hyce": 3553,
    "ycep": 7569,
    "ifi": 3704,
    "fic": 3079,
    "ctr": 2202,
    " res": 597,
    "esin": 2941,
    "sini": 6583,
    "inif": 3850,
    "nifi": 4972,
    "ific": 3705,
    "fict": 3080,
    "ictr": 3648,
    "ctri": 2203,
    "iet": 3689,
    "etn": 2965,
    "tna": 6949,
    "nam": 4794,
    " vie": 747,
    "viet": 7417,
    "ietn": 3690,
    "etna": 2966,
    "tnam": 6950,
    "name": 4796,
    "ames": 1385,
    "ssy": 6669,
    " mos": 458,
    "moss": 4703,
    "ossy": 5534,
    "ssy ": 6670,
    " th": 702,
    " the": 704,
    "thel": 6873,
    "lode": 4419,
    "oder": 5213,
    "derm": 2334,
    "cort": 2153,
    "orti": 5502,
    "rtic": 6378,
    "ical": 3619,
    "cale": 1916,
    "ale ": 1328,
    " ame": 26,
    "eric": 2868,
    "hyl": 3556,
    " hyl": 343,
    "hyla": 3557,
    "yla ": 7613,
    " cin": 130,
    "cine": 2062,
    "iner": 3834,
    "nere": 4907,
    "erea": 2858,
    "rea ": 6063,
    "eef": 2608,
    "efr": 2630,
    "reef": 6078,
    "eefr": 2609,
    "efro": 2631,
    "ryo": 6428,
    "hyt": 3572,
    "yte": 7684,
    " dry": 194,
    "dryo": 2445,
    "ryop": 6429,
    "yoph": 7644,
    "ophy": 5436,
    "phyt": 5757,
    "hyte": 3573,
    "ytes": 7685,
    "rsi": 6359,
    "vers": 7396,
    "ersi": 2905,
    "rsic": 6360,
    "sico": 6568,
    "w-b": 7449,
    "ow-b": 5623,
    "w-be": 7450,
    "ieg": 3673,
    "vari": 7379,
    "arie": 1549,
    "rieg": 6164,
    "iega": 3674,
    "egat": 2639,
    "ild ": 3745,
    "xin": 7522,
    "oxin": 5641,
    "xins": 7523,
    "ins ": 3863,
    "inam": 3813,
    "nam ": 4795,
    "pip": 5782,
    "ipa": 3905,
    "pa ": 5653,
    " pip": 543,
    "pipa": 5783,
    "ipa ": 3906,
    "awe": 1698,
    "wed": 7472,
    "lawe": 4209,
    "awed": 1699,
    "wed ": 7473,
    "nopu": 5043,
    "wb": 7466,
    "raw": 6007,
    "awb": 1696,
    "wbe": 7467,
    "rry": 6348,
    "traw": 7021,
    "rawb": 6008,
    "awbe": 1697,
    "wber": 7468,
    "berr": 1779,
    "erry": 2903,
    "rry ": 6349,
    " oo": 503,
    "oop": 5415,
    "hag": 3342,
    " oop": 504,
    "ooph": 5416,
    "opha": 5429,
    "phag": 5721,
    "haga": 3343,
    "aga ": 1236,
    "pum": 5888,
    "umi": 7241,
    "io ": 3877,
    " pum": 572,
    "pumi": 5889,
    "umil": 7242,
    "mili": 4647,
    "ilio": 3758,
    "lio ": 4344,
    "r/": 5931,
    "ir/": 3924,
    "r/g": 5932,
    "air/": 1282,
    "ir/g": 3925,
    "r/gr": 5933,
    "imi": 3794,
    " imi": 354,
    "imit": 3796,
    "mita": 4663,
    "itat": 3975,
    "tato": 6799,
    "mey": 4635,
    "eya": 3027,
    "ya ": 7552,
    "rani": 5980,
    "anit": 1439,
    "itom": 3995,
    "tome": 6981,
    "omey": 5330,
    "meya": 4636,
    "eya ": 3028,
    "bold": 1825,
    "lde": 4237,
    "olde": 5290,
    "lden": 4238,
    "den ": 2321,
    "yll": 7617,
    "lob": 4415,
    "phyl": 5755,
    "hyll": 3558,
    "yllo": 7618,
    "llob": 4392,
    "loba": 4416,
    "rrib": 6342,
    "ribi": 6150,
    "ibil": 3610,
    "bili": 1795,
    "bum": 1881,
    "mbl": 4592,
    "leb": 4255,
    "ebe": 2533,
    "bee": 1769,
    " bum": 99,
    "bumb": 1882,
    "umbl": 7237,
    "mble": 4593,
    "bleb": 1812,
    "lebe": 4256,
    "ebee": 2534,
    "bee ": 1770,
    "uco": 7140,
    " leu": 400,
    "euco": 2986,
    "ucom": 7141,
    "omel": 5328,
    "elas": 2672,
    "las ": 4193,
    "span": 6641,
    "pani": 5671,
    "anis": 1438,
    "bb": 1754,
    "ibb": 3604,
    "bbe": 1755,
    "bed": 1767,
    " rib": 603,
    "ribb": 6148,
    "ibbe": 3605,
    "bbed": 1756,
    "bed ": 1768,
    "ple": 5794,
    "eur": 2995,
    "les": 4285,
    " ple": 547,
    "pleu": 5796,
    "leur": 4293,
    "euro": 2996,
    "urod": 7311,
    "odel": 5211,
    "dele": 2313,
    "eles": 2681,
    "les ": 4286,
    "alt": 1356,
    "ltl": 4482,
    "walt": 7458,
    "altl": 1358,
    "ltl ": 4483,
    "emp": 2733,
    " emp": 219,
    "empe": 2734,
    "pero": 5708,
    "eror": 2893,
    "ror ": 6302,
    " ty": 726,
    "ylo": 7620,
    "tot": 7006,
    " tyl": 727,
    "tylo": 7089,
    "ylot": 7622,
    "otot": 5572,
    "totr": 7007,
    "otri": 5574,
    "trit": 7032,
    "iton": 3996,
    "ton ": 6985,
    "nj": 4994,
    "ji": 4053,
    "sha": 6548,
    "anj": 1441,
    "nji": 4995,
    "jin": 4054,
    " sha": 640,
    "shan": 6549,
    "hanj": 3362,
    "anji": 1442,
    "njin": 4996,
    "jing": 4055,
    "/s": 1084,
    "l/s": 4149,
    "/se": 1085,
    "al/s": 1306,
    "l/se": 4150,
    "/sem": 1086,
    "lpi": 4465,
    " alp": 22,
    "alpi": 1353,
    "lpin": 4466,
    "ht": 3527,
    " ic": 347,
    "cht": 2033,
    "hth": 3528,
    "thy": 6890,
    "hyo": 3561,
    " ich": 348,
    "icht": 3633,
    "chth": 2034,
    "hthy": 3530,
    "thyo": 6891,
    "hyos": 3562,
    "yosa": 7648,
    "pest": 5713,
    "east": 2520,
    "aste": 1601,
    "pht": 5749,
    "lmu": 4409,
    " not": 486,
    "noto": 5052,
    "otop": 5569,
    "opht": 5434,
    "phth": 5750,
    "htha": 3529,
    "thal": 6870,
    "halm": 3354,
    "almu": 1350,
    "lmus": 4410,
    "mus ": 4747,
    "ride": 6160,
    "desc": 2337,
    "rbl": 6023,
    "marb": 4566,
    "arbl": 1522,
    "rble": 6024,
    "bled": 1813,
    "ritu": 6201,
    "itur": 4003,
    "turu": 7080,
    "rmor": 6240,
    "ddl": 2299,
    "addl": 1196,
    "ddle": 2300,
    "dlet": 2387,
    "leta": 4290,
    "etai": 2955,
    "ytr": 7689,
    "pach": 5655,
    "chyt": 2042,
    "hytr": 3574,
    "ytri": 7690,
    "abi": 1130,
    " lab": 388,
    "labi": 4162,
    "abia": 1131,
    "biat": 1785,
    "oga": 5248,
    "gas": 3173,
    "rhog": 6133,
    "hoga": 3484,
    "ogas": 5249,
    "gast": 3174,
    "usc": 7331,
    "musc": 4748,
    "uscu": 7332,
    "culu": 2215,
    "ulus": 7229,
    "ft-": 3131,
    "t-f": 6748,
    "-fu": 1029,
    "oft-": 5242,
    "ft-f": 3132,
    "t-fu": 6749,
    "-fur": 1030,
    "furr": 3141,
    "urre": 7316,
    "rred": 6333,
    " mas": 431,
    " nat": 472,
    "atal": 1616,
    "tale": 6777,
    "alen": 1329,
    "lens": 4271,
    " cri": 150,
    "etul": 2977,
    "tulu": 7074,
    " gri": 304,
    " wi": 765,
    " win": 766,
    "wint": 7487,
    "gor": 3282,
    "sung": 6728,
    "ungo": 7258,
    "ngor": 4948,
    "goru": 3283,
    "sho": 6555,
    "rt-": 6369,
    " sho": 641,
    "shor": 6556,
    "ort-": 5500,
    "rt-t": 6370,
    "opo": 5441,
    "pos": 5818,
    " opo": 507,
    "opos": 5443,
    "poss": 5819,
    "elp": 2708,
    "mono": 4696,
    "onod": 5387,
    "node": 5030,
    "delp": 2316,
    "elph": 2709,
    "lphi": 4463,
    "ars": 1571,
    "sup": 6729,
    "upi": 7273,
    "mars": 4569,
    "arsu": 1572,
    "rsup": 6365,
    "supi": 6730,
    "upia": 7274,
    "pial": 5761,
    "nut": 5125,
    " min": 450,
    "minu": 4653,
    "inut": 3873,
    "nuto": 5126,
    "utoi": 7354,
    "toid": 6973,
    "gam": 3163,
    " gam": 274,
    "gamb": 3164,
    "ambi": 1377,
    "mbia": 4590,
    "pou": 5824,
    " pou": 557,
    "pouc": 5825,
    "ouch": 5588,
    "uche": 7134,
    "ched": 2005,
    "hed ": 3383,
    "eto": 2967,
    "ceto": 1995,
    "etom": 2969,
    "coa": 2115,
    "oat": 5154,
    "imu": 3803,
    "mun": 4741,
    " coa": 138,
    "coat": 2116,
    "oati": 5155,
    "atim": 1634,
    "timu": 6917,
    "imun": 3805,
    "mund": 4742,
    "undi": 7253,
    "asu": 1605,
    "sua": 6711,
    "nasu": 4807,
    "asua": 1606,
    "sua ": 6712,
    "rva": 6411,
    "val": 7370,
    "serv": 6531,
    "erva": 2917,
    "rval": 6412,
    "val ": 7371,
    "lept": 4280,
    "epta": 2831,
    "ptai": 5870,
    "ailu": 1272,
    "ilur": 3779,
    "luru": 4506,
    "nten": 5087,
    "tens": 6839,
    "ense": 2783,
    "nse ": 5069,
    "mir": 4656,
    "saim": 6464,
    "aimi": 1275,
    "imir": 3795,
    "miri": 4657,
    "iri ": 3937,
    "ciu": 2074,
    "reu": 6108,
    "sciu": 6495,
    "ciur": 2075,
    "iure": 4009,
    "ureu": 7294,
    "reus": 6109,
    "pri": 5848,
    " pri": 562,
    "prim": 5849,
    "rima": 6173,
    "imat": 3790,
    "mate": 4575,
    "cot": 2157,
    "ott": 5576,
    "on-": 5350,
    "n-t": 4773,
    "op ": 5421,
    " cot": 146,
    "cott": 2158,
    "otto": 5579,
    "tton": 7064,
    "ton-": 6986,
    "on-t": 5351,
    "n-to": 4774,
    "-top": 1063,
    "top ": 6992,
    " tam": 691,
    "tama": 6782,
    "amar": 1372,
    "sag": 6460,
    "agu": 1249,
    " sag": 620,
    "sagu": 6461,
    "agui": 1252,
    "uinu": 7201,
    "oe": 5224,
    " oe": 499,
    "oed": 5228,
    "dip": 2369,
    "ipu": 3916,
    " oed": 500,
    "oedi": 5229,
    "edip": 2592,
    "dipu": 2370,
    "ipus": 3917,
    "ng-": 4930,
    "g-t": 3153,
    "ing-": 3840,
    "ng-t": 4931,
    "g-ta": 3154,
    "emu": 2736,
    "ur ": 7281,
    " lem": 396,
    "lemu": 4266,
    "emur": 2737,
    "mur ": 4744,
    "tag": 6768,
    " pat": 528,
    "pata": 5678,
    "atag": 1615,
    "tago": 6769,
    "onia": 5379,
    "nian": 4962,
    "dol": 2404,
    " dol": 187,
    "doli": 2405,
    "olic": 5296,
    "otis": 5564,
    "gonu": 3275,
    "onum": 5398,
    " les": 399,
    "less": 4287,
    "esse": 2945,
    "ser ": 6528,
    "nre": 5060,
    " ten": 698,
    "tenr": 6838,
    "enre": 2779,
    "nrec": 5061,
    "rec ": 6066,
    "ech": 2548,
    " ech": 206,
    "echi": 2549,
    "inop": 3860,
    "elf": 2682,
    "lfa": 4301,
    "fai": 3044,
    " tel": 696,
    "telf": 6831,
    "elfa": 2683,
    "lfai": 4302,
    "fair": 3045,
    "sou": 6637,
    "out": 5608,
    "uth": 7351,
    " sou": 663,
    "sout": 6638,
    "outh": 5609,
    "uthe": 7352,
    "hern": 3413,
    "dua": 2454,
    "andu": 1425,
    "ndua": 4876,
    "dua ": 2455,
    "ada": 1190,
    "rada": 5952,
    "adac": 1191,
    "tyla": 7088,
    "ena": 2748,
    "xena": 7509,
    "enar": 2750,
    "nart": 4803,
    "arth": 1575,
    "thra": 6883,
    "hran": 3512,
    "ran ": 5978,
    "gene": 3200,
    "enet": 2762,
    "net ": 4914,
    "nett": 4916,
    "etta": 2974,
    " war": 758,
    "wary": 7463,
    "hb": 3372,
    "ush": 7335,
    "shb": 6551,
    "hba": 3373,
    "bab": 1732,
    " bus": 101,
    "bush": 1888,
    "ushb": 7336,
    "shba": 6552,
    "hbab": 3374,
    "baby": 1733,
    "lag": 4170,
    "go ": 3265,
    "gala": 3159,
    "alag": 1314,
    "lago": 4171,
    "ago ": 1246,
    "reh": 6084,
    "ehe": 2647,
    "le-": 4248,
    "preh": 5846,
    "rehe": 6085,
    "ehen": 2648,
    "hens": 3403,
    "nsil": 5072,
    "sile": 6577,
    "ile-": 3751,
    "le-t": 4249,
    "e-ta": 2489,
    "rcu": 6039,
    "cup": 2218,
    "orcu": 5471,
    "rcup": 6040,
    "cupi": 2219,
    "upin": 7275,
    "coe": 2126,
    "oen": 5230,
    "dou": 2421,
    " coe": 141,
    "coen": 2127,
    "oend": 5231,
    "endo": 2757,
    "ndou": 4870,
    "dou ": 2422,
    "sili": 6578,
    "je": 4050,
    " je": 369,
    "jen": 4051,
    " jen": 370,
    "jend": 4052,
    "enda": 2754,
    "nday": 4852,
    "jan": 4042,
    "aya": 1711,
    " jan": 365,
    "jand": 4043,
    "daya": 2286,
    "aya ": 1712,
    " nan": 470,
    "rak": 5965,
    "kee": 4081,
    "eet": 2619,
    "arak": 1516,
    "rake": 5966,
    "akee": 1296,
    "keet": 4082,
    "eet ": 2620,
    " nen": 474,
    "nend": 4899,
    "d-c": 2249,
    "-ca": 1008,
    "ppe": 5831,
    "old-": 5289,
    "ld-c": 4233,
    "d-ca": 2250,
    "-cap": 1009,
    "capp": 1935,
    "appe": 1494,
    "pped": 5832,
    "icap": 3621,
    "capi": 1934,
    "apil": 1489,
    "pill": 5771,
    "illu": 3770,
    "crim": 2170,
    "rims": 6175,
    "sel": 6518,
    "osel": 5526,
    "sell": 6519,
    "tyc": 7085,
    "erc": 2852,
    "plat": 5792,
    "laty": 4202,
    "atyc": 1660,
    "tyce": 7086,
    "ycer": 7570,
    "cerc": 1990,
    "ercu": 2853,
    "rcus": 6041,
    "xim": 7520,
    "miu": 4666,
    " exi": 234,
    "exim": 3018,
    "ximi": 7521,
    "imiu": 3797,
    "mius": 4667,
    "urk": 7299,
    "rke": 6215,
    "ke'": 4077,
    "bour": 1848,
    "ourk": 5600,
    "urke": 7300,
    "rke'": 6216,
    "ke's": 4078,
    "neo": 4901,
    "sep": 6525,
    " neo": 475,
    "neop": 4903,
    "eops": 2810,
    "opse": 5446,
    "psep": 5861,
    "seph": 6526,
    "epho": 2821,
    "hotu": 3505,
    "urki": 7301,
    "aniv": 1440,
    "eol": 2802,
    "ola": 5282,
    "ineo": 3833,
    "neol": 4902,
    "eola": 2803,
    "olat": 5284,
    "olb": 5285,
    "lbo": 4220,
    "bolb": 1824,
    "olbo": 5286,
    "lbor": 4222,
    "borh": 1838,
    "ola ": 5283,
    "wne": 7490,
    "ned": 4888,
    "ed-c": 2576,
    "d-cr": 2251,
    "-cro": 1016,
    "crow": 2177,
    "rown": 6324,
    "owne": 5633,
    "wned": 7491,
    "ned ": 4889,
    "cya": 2230,
    " cya": 160,
    "cyan": 2231,
    "yano": 7558,
    "anor": 1454,
    "nora": 5045,
    "oram": 5465,
    "mphu": 4721,
    "ez": 3034,
    "nov": 5054,
    "ova": 5611,
    "vae": 7368,
    "aez": 1229,
    "eze": 3035,
    "zel": 7707,
    " nov": 487,
    "nova": 5055,
    "ovae": 5612,
    "vaez": 7369,
    "aeze": 1230,
    "ezel": 3036,
    "zela": 7708,
    "diae": 2347,
    "lex": 4296,
    "alex": 1332,
    "lexa": 4297,
    "xand": 7505,
    "ndri": 4873,
    "drin": 2437,
    "upa": 7271,
    "eupa": 2993,
    "upat": 7272,
    "patr": 5679,
    "mart": 4570,
    "m-": 4530,
    "plu": 5797,
    "um-": 7232,
    "m-h": 4531,
    " plu": 548,
    "plum": 5798,
    "lum-": 4503,
    "um-h": 7233,
    "m-he": 4532,
    "hala": 3353,
    "rby": 6028,
    "bya": 1893,
    " der": 177,
    "derb": 2332,
    "erby": 2851,
    "rbya": 6029,
    "byan": 1894,
    "rbia": 6020,
    "e-h": 2484,
    "ue-h": 7164,
    "e-he": 2485,
    "ionu": 3892,
    "onus": 5400,
    "uu": 7360,
    "men": 4617,
    "tru": 7039,
    "ruu": 6408,
    "uus": 7361,
    " men": 440,
    "mens": 4618,
    "enst": 2785,
    "stru": 6704,
    "truu": 7042,
    "ruus": 6409,
    "uus ": 7362,
    "yer": 7587,
    " mey": 446,
    "meye": 4637,
    "eyer": 3031,
    "yer'": 7588,
    "yeri": 7589,
    "jar": 4046,
    "rdi": 6050,
    "ne'": 4880,
    " jar": 367,
    "jard": 4047,
    "ardi": 1531,
    "rdin": 6051,
    "dine": 2364,
    "ine'": 3830,
    "ne's": 4881,
    "uli": 7219,
    "lmi": 4405,
    "mi ": 4639,
    " gul": 308,
    "guli": 3324,
    "ulie": 7220,
    "liel": 4326,
    "ielm": 3678,
    "elmi": 2702,
    "lmi ": 4406,
    "d-b": 2247,
    "ed-b": 2575,
    "d-be": 2248,
    "ufi": 7179,
    "fiv": 3098,
    "rufi": 6395,
    "ufiv": 7180,
    "five": 3099,
    "lah": 4172,
    "alah": 1315,
    "lah ": 4173,
    " eo": 220,
    " eol": 221,
    "eolo": 2804,
    "olop": 5305,
    "eica": 2653,
    "gof": 3266,
    "off": 5239,
    "ffi": 3076,
    " gof": 295,
    "goff": 3267,
    "offi": 5240,
    "ffin": 3077,
    "fin'": 3091,
    "fini": 3093,
    "inia": 3849,
    "maj": 4546,
    "jor": 4057,
    " maj": 425,
    "majo": 4547,
    "ajor": 1289,
    "jor ": 4058,
    "tc": 6805,
    "itc": 3976,
    "tch": 6806,
    " mit": 452,
    "mitc": 4664,
    "itch": 3977,
    "tche": 6807,
    "hoc": 3476,
    "roa": 6259,
    " lop": 413,
    "phoc": 5740,
    "hoch": 3477,
    "ochr": 5183,
    "chro": 2032,
    "hroa": 3519,
    "roa ": 6260,
    "adb": 1192,
    "dbe": 2290,
    " lea": 395,
    "lead": 4252,
    "eadb": 2501,
    "adbe": 1193,
    "dbea": 2291,
    "beat": 1763,
    "eate": 2524,
    "teri": 6848,
    "e-e": 2480,
    " bar": 68,
    "bare": 1748,
    "are-": 1535,
    "re-e": 6061,
    "e-ey": 2481,
    "sang": 6471,
    "hah": 3344,
    "ahn": 1259,
    "hn'": 3469,
    " hah": 314,
    "hahn": 3345,
    "ahn'": 1260,
    "hn's": 3470,
    "dio": 2367,
    " dio": 182,
    "diop": 2368,
    "taca": 6762,
    "aca ": 1140,
    "obi": 5162,
    " nob": 484,
    "nobi": 5026,
    "obil": 5163,
    "n-w": 4775,
    "-wi": 1068,
    "ged": 3189,
    "en-w": 2747,
    "n-wi": 4776,
    "-win": 1069,
    "inge": 3842,
    "nged": 4938,
    "ged ": 3190,
    "hlo": 3464,
    "chlo": 2021,
    "hlor": 3465,
    "loro": 4439,
    "orop": 5492,
    "ropt": 6299,
    "ilit": 3762,
    "tari": 6794,
    "gou": 3284,
    "uld": 7214,
    " gou": 300,
    "goul": 3285,
    "ould": 5594,
    "uldi": 7215,
    "ldia": 4240,
    "ryt": 6433,
    "eryt": 2921,
    "ryth": 6434,
    "ythr": 7688,
    "thru": 6886,
    "rura": 6402,
    "ety": 2979,
    "ocie": 5186,
    "ciet": 2053,
    "iety": 3691,
    "ety ": 2980,
    "onc": 5358,
    " lon": 412,
    "lonc": 4426,
    "onch": 5359,
    "chur": 2036,
    "ond ": 5361,
    " dov": 190,
    "dove": 2424,
    "ove ": 5614,
    "geop": 3205,
    "eope": 2809,
    "peli": 5697,
    "cun": 2216,
    "une": 7255,
    " cun": 156,
    "cune": 2217,
    "unea": 7256,
    "eata": 2523,
    "gel": 3195,
    " ang": 31,
    "ngel": 4939,
    "gelf": 3196,
    "elfi": 2684,
    "lfis": 4305,
    "yllu": 7619,
    "llum": 4395,
    "scal": 6485,
    "cala": 1915,
    "alar": 1318,
    "lare": 4189,
    "are ": 1534,
    "-ag": 994,
    "i-ag": 3578,
    "-agg": 995,
    "sev": 6539,
    "rum": 6399,
    " sev": 638,
    "seve": 6540,
    "ever": 3001,
    "veru": 7398,
    "erum": 2914,
    "rum ": 6400,
    " ef": 210,
    "efa": 2624,
    " efa": 211,
    "efas": 2625,
    "nv": 5127,
    "onv": 5401,
    "nvi": 5130,
    "ct ": 2183,
    "conv": 2141,
    "onvi": 5402,
    "nvic": 5131,
    "vict": 7411,
    "ict ": 3644,
    "hli": 3462,
    "chli": 2020,
    "hlid": 3463,
    "lid ": 4321,
    "itl": 3992,
    "tla": 6941,
    "atit": 1637,
    "titl": 6933,
    "itla": 3993,
    "tlan": 6942,
    "ania": 1434,
    "rof": 6275,
    "ofa": 5237,
    "igro": 3732,
    "grof": 3305,
    "rofa": 6276,
    "ofas": 5238,
    "erro": 2902,
    "rror": 6345,
    "noa": 5022,
    "oac": 5147,
    "dino": 2366,
    "inoa": 3859,
    "noac": 5023,
    "oaca": 5148,
    "acar": 1143,
    "cara": 1940,
    " riv": 605,
    "rivu": 6208,
    "ivul": 4028,
    "vula": 7441,
    "mps": 4727,
    "sey": 6541,
    "demp": 2319,
    "emps": 2735,
    "mpse": 4728,
    "psey": 5863,
    "sey ": 6542,
    "roci": 6267,
    "ocio": 5189,
    "cio ": 2066,
    "tof": 6969,
    "ctof": 2199,
    "tofa": 6970,
    "elec": 2676,
    "ectr": 2570,
    "ric ": 6153,
    "pul": 5886,
    "lch": 4227,
    " pul": 571,
    "pulc": 5887,
    "ulch": 7213,
    "lche": 4228,
    "jag": 4040,
    "uar": 7110,
    " jag": 364,
    "jagu": 4041,
    "agua": 1250,
    "guar": 3314,
    "uar ": 7111,
    "omi": 5331,
    "arac": 1512,
    "achr": 1156,
    "hrom": 3521,
    "romi": 6287,
    "omis": 5332,
    "mis ": 4659,
    "nag": 4786,
    "uen": 7168,
    "mana": 4557,
    "anag": 1411,
    "nagu": 4787,
    "ague": 1251,
    "guen": 3319,
    "uens": 7169,
    "loa": 4413,
    " loa": 410,
    "loac": 4414,
    "oach": 5149,
    "ach ": 1154,
    "mob": 4682,
    "bot": 1843,
    " chr": 126,
    "romo": 6288,
    "omob": 5338,
    "mobo": 4683,
    "obot": 5166,
    "boti": 1844,
    "otia": 5561,
    "tia ": 6896,
    "acra": 1178,
    "crac": 2162,
    "raca": 5944,
    "bala": 1737,
    "rk ": 6212,
    "shar": 6550,
    "hark": 3368,
    "ark ": 1554,
    "tio": 6922,
    "hei": 3387,
    "alan": 1317,
    "lant": 4183,
    "anti": 1462,
    "ntio": 5099,
    "tioc": 6923,
    "ioch": 3880,
    "chei": 2007,
    "heil": 3388,
    "eilo": 2659,
    "ilos": 3773,
    "los ": 4441,
    "anop": 1453,
    "nopt": 5042,
    "doll": 2406,
    "llar": 4375,
    "lar ": 4188,
    "tyn": 7091,
    "ynn": 7635,
    " met": 444,
    "mety": 4632,
    "etyn": 2981,
    "tynn": 7092,
    "ynni": 7636,
    "nnis": 5017,
    "hyp": 3563,
    "yps": 7659,
    "psa": 5858,
    "auc": 1663,
    " hyp": 344,
    "hyps": 3566,
    "ypsa": 7660,
    "psau": 5859,
    "sauc": 6477,
    "auch": 1664,
    "chen": 2010,
    "hen ": 3401,
    "hoo": 3491,
    "ook": 5411,
    "ok ": 5276,
    " hoo": 333,
    "hook": 3492,
    "ook ": 5412,
    "myl": 4760,
    "opl": 5439,
    " myl": 466,
    "mylo": 4761,
    "ylop": 7621,
    "lopl": 4434,
    "oplu": 5440,
    "plus": 5799,
    "rub": 6387,
    "ipi": 3909,
    "inn": 3855,
    " rub": 615,
    "rubr": 6388,
    "brip": 1867,
    "ripi": 6190,
    "ipin": 3910,
    "pinn": 5778,
    "inni": 3856,
    " gh": 283,
    "gho": 3225,
    " gho": 284,
    "ghos": 3226,
    "host": 3500,
    "ost ": 5536,
    " ap": 36,
    " apt": 37,
    "eron": 2891,
    "bif": 1790,
    "ifr": 3708,
    "lbif": 4218,
    "bifr": 1791,
    "ifro": 3709,
    "rons": 6293,
    "ons ": 5391,
    "ntn": 5102,
    "elep": 2679,
    "phan": 5723,
    "hant": 3363,
    "antn": 1463,
    "ntno": 5103,
    "tnos": 6955,
    " gn": 292,
    "nem": 4896,
    " gna": 293,
    "atho": 1629,
    "hone": 3490,
    "onem": 5364,
    "nemu": 4897,
    "emus": 2738,
    "ters": 6852,
    "rsii": 6361,
    "pe ": 5685,
    " rop": 610,
    "ope ": 5426,
    "erp": 2896,
    " erp": 226,
    "erpe": 2897,
    "peto": 5718,
    "etoi": 2968,
    "toic": 6972,
    "oich": 5266,
    "thys": 6892,
    "hys ": 3568,
    "aba": 1128,
    "alab": 1312,
    "laba": 4161,
    "abar": 1129,
    "bari": 1749,
    "aric": 1547,
    "cem": 1979,
    "emb": 2722,
    "acem": 1152,
    "cemb": 1980,
    "embe": 2723,
    "mbel": 4587,
    "belu": 1773,
    "thro": 6885,
    "hrot": 3522,
    "rota": 6312,
    "otae": 5550,
    "enia": 2767,
    "tir": 6926,
    " tir": 709,
    "tire": 6927,
    "rmat": 6234,
    "matu": 4578,
    "nate": 4810,
    "tip": 6924,
    "nati": 4812,
    "atip": 1636,
    "tipi": 6925,
    "lh": 4308,
    "elh": 2685,
    "lhe": 4309,
    "hez": 3419,
    "ezi": 3037,
    "zi ": 7712,
    "delh": 2314,
    "elhe": 2686,
    "lhez": 4310,
    "hezi": 3420,
    "ezi ": 3038,
    "plec": 5795,
    "leco": 4258,
    "eco ": 2559,
    "ypo": 7655,
    "omu": 5340,
    "hypo": 3565,
    "ypos": 7656,
    "post": 5820,
    "osto": 5538,
    "tomu": 6982,
    "omus": 5341,
    "cos": 2155,
    "ecos": 2562,
    "cost": 2156,
    "ist": 3960,
    "stl": 6693,
    " bri": 94,
    "rist": 6196,
    "istl": 3962,
    "stle": 6694,
    "tlen": 6945,
    "leno": 4270,
    "enos": 2777,
    "cis": 2070,
    " anc": 29,
    "anci": 1415,
    "ncis": 4831,
    "cist": 2071,
    "istr": 3963,
    "trus": 7041,
    " cir": 131,
    "pea ": 5687,
    "rino": 6181,
    "inot": 3861,
    "note": 5050,
    "otet": 5556,
    "rav": 6005,
    "trav": 7020,
    "rava": 6006,
    "vanc": 7375,
    "anco": 1416,
    "ncor": 4839,
    "cori": 2150,
    "oric": 5480,
    " ko": 380,
    "koi": 4119,
    "oi ": 5263,
    " koi": 381,
    "koi ": 4120,
    "rp ": 6326,
    "arp ": 1567,
    "ypr": 7657,
    "cypr": 2240,
    "ypri": 7658,
    "prin": 5850,
    "ofu": 5244,
    "fus": 3142,
    "ubro": 7126,
    "brof": 1870,
    "rofu": 6277,
    "ofus": 5245,
    "fusc": 3143,
    "pon": 5813,
    " pon": 554,
    "pond": 5814,
    "-k": 1037,
    "d-k": 2259,
    "-kn": 1038,
    "kne": 4111,
    "nee": 4890,
    "ed-k": 2579,
    "d-kn": 2260,
    "-kne": 1039,
    "knee": 4112,
    "nee ": 4891,
    "ntu": 5110,
    " tar": 692,
    "tara": 6792,
    "rant": 5983,
    "antu": 1465,
    "ntul": 5111,
    " ท": 843,
    "ม็": 8882,
    "นห": 8501,
    "หั": 9394,
    "เข": 10108,
    " ทา": 844,
    "ทาร": 8381,
    "รัน": 9007,
    "ันท": 9590,
    "นทู": 8467,
    "ทูล": 8388,
    "ูล่": 10061,
    "่าเ": 10535,
    "เม็": 10207,
    "ม็ก": 8883,
    "็กซ": 10449,
    "กซิ": 7729,
    "ซิก": 8141,
    "ันห": 9598,
    "นหั": 8506,
    "หัว": 9395,
    "ัวเ": 9630,
    "วเข": 9288,
    "เข่": 10109,
    "าแด": 9799,
    " ทาร": 845,
    "ทารั": 8382,
    "ารัน": 9741,
    "รันท": 9008,
    "ันทู": 9591,
    "นทูล": 8468,
    "ทูล่": 8389,
    "ูล่า": 10062,
    "ล่าเ": 9237,
    "่าเม": 10536,
    "าเม็": 9793,
    "เม็ก": 10208,
    "ม็กซ": 8884,
    "็กซิ": 10450,
    "กซิก": 7730,
    "ซิกั": 8142,
    "กันห": 7771,
    "ันหั": 9599,
    "นหัว": 8507,
    "หัวเ": 9397,
    "ัวเข": 9631,
    "วเข่": 9289,
    "เข่า": 10110,
    "ข่าแ": 7854,
    "่าแด": 10540,
    "าแดง": 9800,
    "ype": 7651,
    "lma": 4401,
    "chyp": 2040,
    "hype": 3564,
    "ypel": 7652,
    "pelm": 5698,
    "elma": 2700,
    "lma ": 4402,
    "hamo": 3359,
    "amor": 1393,
    "mori": 4700,
    "orii": 5482,
    "inv": 3874,
    "nve": 5128,
    "rte": 6371,
    "teb": 6817,
    " inv": 360,
    "inve": 3875,
    "nver": 5129,
    "vert": 7397,
    "erte": 2910,
    "rteb": 6372,
    "tebr": 6818,
    "hile": 3433,
    "ilea": 3752,
    "lean": 4253,
    "ุห": 9996,
    "บช": 8584,
    "่าก": 10510,
    "ากุ": 9642,
    "กุห": 7792,
    "ุหล": 9997,
    "าบช": 9701,
    "บชิ": 8585,
    "ิลี": 9885,
    "ลี ": 9186,
    "ล่าก": 9230,
    "่ากุ": 10511,
    "ากุห": 9643,
    "กุหล": 7793,
    "ุหลา": 9998,
    "หลาบ": 9390,
    "ลาบช": 9162,
    "าบชิ": 9702,
    "บชิล": 8586,
    "ชิลี": 8104,
    "ิลี ": 9886,
    "tol": 6977,
    "gram": 3293,
    "ramm": 5974,
    "ammo": 1390,
    "mmos": 4675,
    "most": 4704,
    "stol": 6696,
    "tola": 6978,
    "osea": 5523,
    "sea ": 6509,
    "azi": 1721,
    "zil": 7713,
    "braz": 1858,
    "razi": 6016,
    "azil": 1722,
    "zili": 7714,
    "าด": 9676,
    "ดำ": 8223,
    "ำบ": 9813,
    "่าด": 10520,
    "าดำ": 9677,
    "ดำบ": 8224,
    "ำบร": 9814,
    "ราซ": 9017,
    "ล่าด": 9233,
    "่าดำ": 10521,
    "าดำบ": 9678,
    "ดำบร": 8225,
    "ำบรา": 9815,
    "บราซ": 8593,
    "ราซิ": 9018,
    "าซิล": 9675,
    "ซิล ": 8146,
    "lchr": 4229,
    "chra": 2030,
    "hra ": 3510,
    "url": 7302,
    "rly": 6226,
    "curl": 2222,
    "urly": 7303,
    "rly ": 6227,
    "hai": 3346,
    " hai": 315,
    "hair": 3349,
    "ขน": 7842,
    "ยิ": 8930,
    "่าข": 10513,
    "าขน": 9652,
    "ขนห": 7843,
    "นหย": 8504,
    "หยิ": 9384,
    "ยิก": 8931,
    "ล่าข": 9231,
    "่าขน": 10514,
    "าขนห": 9653,
    "ขนหย": 7844,
    "นหยิ": 8505,
    "หยิก": 9385,
    "ยิก ": 8932,
    " tl": 710,
    "tli": 6946,
    "lil": 4335,
    "lto": 4484,
    "atl": 1639,
    " tli": 711,
    "tlil": 6947,
    "lilt": 4336,
    "ilto": 3777,
    "ltoc": 4485,
    "toca": 6961,
    "ocat": 5173,
    "catl": 1953,
    "atl ": 1640,
    "bop": 1834,
    "opi": 5437,
    "albo": 1323,
    "lbop": 4221,
    "bopi": 1835,
    "opil": 5438,
    "losu": 4443,
    "ttl": 7060,
    " bot": 88,
    "bott": 1845,
    "ottl": 5578,
    "ttle": 7061,
    "tope": 6993,
    "pub": 5879,
    "ube": 7117,
    "bes": 1780,
    "yane": 7557,
    "aneo": 1427,
    "eopu": 2811,
    "opub": 5451,
    "pube": 5880,
    "ubes": 7118,
    "besc": 1781,
    " /": 0,
    "/ ": 1071,
    " / ": 1,
    "vy": 7445,
    "eav": 2528,
    "avy": 1692,
    "vy ": 7446,
    " hea": 319,
    "heav": 3379,
    "eavy": 2529,
    "avy ": 1693,
    "web": 7470,
    "ebb": 2531,
    " web": 761,
    "webb": 7471,
    "ebbe": 2532,
    "bber": 1757,
    "ber ": 1777,
    "kt": 4129,
    "nkt": 5005,
    "kto": 4130,
    "toe": 6967,
    "oe ": 5225,
    "pink": 5777,
    "inkt": 3854,
    "nkto": 5006,
    "ktoe": 4131,
    "toe ": 6968,
    "่าพ": 10524,
    "าพิ": 9715,
    "พิง": 8723,
    "ิงค": 9837,
    "งค์": 7988,
    "ค์โ": 7975,
    "์โท": 10711,
    "โท ": 10366,
    "ล่าพ": 9234,
    "่าพิ": 10525,
    "าพิง": 9716,
    "พิงค": 8725,
    "ิงค์": 9838,
    "งค์โ": 7989,
    "ค์โท": 7976,
    "์โท ": 10712,
    " av": 59,
    " avi": 60,
    "avic": 1689,
    "vicu": 7412,
    "cob": 2117,
    " cob": 139,
    "coba": 2118,
    "obal": 5160,
    "balt": 1739,
    "alt ": 1357,
    "ำเ": 9816,
    "เง": 10123,
    "งิ": 8019,
    "คบ": 7877,
    "าสี": 9773,
    "สีน": 9338,
    "ีน้": 9934,
    "้ำเ": 10600,
    "ำเง": 9817,
    "เงิ": 10124,
    "งิน": 8020,
    "ินโ": 9864,
    "นโค": 8562,
    "โคบ": 10350,
    "คบอ": 7878,
    "อลต": 9478,
    "ล่าส": 9235,
    "่าสี": 10531,
    "าสีน": 9774,
    "สีน้": 9339,
    "ีน้ำ": 9935,
    "น้ำเ": 8582,
    "้ำเง": 10601,
    "ำเงิ": 9818,
    "เงิน": 10125,
    "งินโ": 8021,
    "ินโค": 9865,
    "นโคบ": 8563,
    "โคบอ": 10351,
    "คบอล": 7879,
    "บอลต": 8618,
    "อลต์": 9479,
    "cyr": 2241,
    " cyr": 164,
    "cyri": 2242,
    "yrio": 7668,
    "iopa": 3894,
    "pago": 5661,
    "agop": 1248,
    "gopu": 3281,
    "liv": 4357,
    "vid": 7413,
    "idu": 3667,
    " liv": 407,
    "livi": 4358,
    "ivid": 4022,
    "vidu": 7414,
    "idus": 3668,
    "dus ": 2459,
    "fos": 3116,
    "sso": 6665,
    "sor": 6635,
    " fos": 263,
    "foss": 3117,
    "osso": 5532,
    "ssor": 6666,
    "sori": 6636,
    "goo": 3277,
    "oty": 5582,
    " goo": 298,
    "goot": 3278,
    "ooty": 5419,
    "oty ": 5583,
    "sap": 6472,
    "pph": 5833,
    " sap": 624,
    "sapp": 6473,
    "apph": 1495,
    "pphi": 5834,
    "phir": 5735,
    "hire": 3448,
    "rnam": 6246,
    "amen": 1383,
    "ment": 4619,
    "ูต": 10031,
    "ตี": 8300,
    "แซ": 10285,
    "ซฟ": 8118,
    "ฟไ": 8788,
    "ากู": 9644,
    "กูต": 7798,
    "ูตี": 10032,
    "ตี้": 8301,
    "้แซ": 10603,
    "แซฟ": 10286,
    "ซฟไ": 8119,
    "ฟไฟ": 8789,
    "่ากู": 10512,
    "ากูต": 9645,
    "กูตี": 7799,
    "ูตี้": 10033,
    "ตี้แ": 8302,
    "ี้แซ": 9980,
    "้แซฟ": 10604,
    "แซฟไ": 10287,
    "ซฟไฟ": 8120,
    "ฟไฟร": 8790,
    "ฟร์ ": 8756,
    "poe": 5803,
    "oec": 5226,
    " poe": 550,
    "poec": 5804,
    "oeci": 5227,
    "ecil": 2552,
    "cilo": 2059,
    "loth": 4446,
    "heri": 3411,
    "meta": 4630,
    "etal": 2956,
    "tall": 6780,
    "llic": 4384,
    "lmo": 4407,
    "salm": 6467,
    "almo": 1349,
    "lmon": 4408,
    "dea": 2304,
    "irde": 3928,
    "rdea": 6048,
    "deat": 2305,
    "นพ": 8483,
    "าแซ": 9797,
    "แซล": 10288,
    "ซลม": 8122,
    "อนพ": 9433,
    "นพิ": 8484,
    "ิงก": 9835,
    "ก์เ": 7838,
    "์ดอ": 10628,
    "ดอี": 8213,
    "อีท": 9521,
    "ีทเ": 9924,
    "ทเต": 8397,
    "ล่าแ": 9238,
    "่าแซ": 10539,
    "าแซล": 9798,
    "แซลม": 10289,
    "ซลมอ": 8123,
    "ลมอน": 9139,
    "มอนพ": 8835,
    "อนพิ": 9434,
    "นพิง": 8485,
    "พิงก": 8724,
    "ิงก์": 9836,
    "งก์เ": 7981,
    "ก์เบ": 7839,
    "์เบิ": 10689,
    "ร์ดอ": 9075,
    "์ดอี": 10629,
    "ดอีท": 8214,
    "อีทเ": 9522,
    "ีทเต": 9925,
    "ทเตอ": 8398,
    "iod": 3881,
    " las": 392,
    "lasi": 4194,
    "asio": 1591,
    "siod": 6586,
    "iodo": 3882,
    "rah": 5960,
    "ahy": 1263,
    "yba": 7562,
    "arah": 1515,
    "rahy": 5961,
    "ahyb": 1264,
    "hyba": 3550,
    "yban": 7563,
    "bana": 1744,
    " foo": 261,
    "food": 3111,
    " dri": 193,
    "driv": 2438,
    "rive": 6206,
    "ven ": 7391,
    " tha": 703,
    "thai": 6869,
    "hai ": 3347,
    "บึ": 8647,
    "ึ้": 9982,
    "งม": 7996,
    "ยไ": 8939,
    "ทย": 8356,
    " บึ": 863,
    "บึ้": 8648,
    "ึ้ง": 9983,
    "้งม": 10555,
    "งม้": 7997,
    "้าล": 10592,
    "ลาย": 9167,
    "ายไ": 9737,
    "ยไท": 8940,
    "ไทย": 10418,
    "ทย ": 8357,
    " บึ้": 864,
    "บึ้ง": 8649,
    "ึ้งม": 9985,
    "้งม้": 10556,
    "งม้า": 7998,
    "ม้าล": 8893,
    "้าลา": 10593,
    "าลาย": 9759,
    "ลายไ": 9168,
    "ายไท": 9738,
    "ยไทย": 8941,
    "ไทย ": 10419,
    "oeu": 5234,
    "lopo": 4435,
    "opoe": 5442,
    "poeu": 5805,
    "oeus": 5235,
    "bos": 1841,
    "lbos": 4223,
    "bost": 1842,
    "hail": 3348,
    "aila": 1269,
    "ilan": 3742,
    "งด": 7990,
    "ำไ": 9819,
    "้งด": 10551,
    "งดำ": 7991,
    "ดำไ": 8226,
    "ำไท": 9820,
    "ึ้งด": 9984,
    "้งดำ": 10552,
    "งดำไ": 7992,
    "ดำไท": 8227,
    "ำไทย": 9821,
    "nax": 4814,
    "mina": 4651,
    "inax": 3815,
    "nax ": 4815,
    "hua": 3532,
    "uah": 7102,
    "ahi": 1257,
    " hua": 337,
    "huah": 3533,
    "uahi": 7103,
    "ahin": 1258,
    " ear": 203,
    "eart": 2517,
    "rth ": 6374,
    "งห": 8011,
    "วห": 9268,
    "หิ": 9398,
    "้งห": 10559,
    "งหั": 8012,
    "ัวห": 9628,
    "วหิ": 9269,
    "หิน": 9399,
    "ึ้งห": 9986,
    "้งหั": 10560,
    "งหัว": 8013,
    "หัวห": 9396,
    "ัวหิ": 9629,
    "วหิน": 9270,
    "หิน ": 9400,
    "obr": 5167,
    "hilo": 3436,
    "ilob": 3772,
    "lobr": 4417,
    "obra": 5168,
    "chys": 2041,
    "hini": 3441,
    "่ไ": 10544,
    "ผ่ไ": 8689,
    "่ไท": 10545,
    "ึ้งไ": 9987,
    "ไผ่ไ": 10425,
    "ผ่ไท": 8690,
    "่ไทย": 10546,
    "tak": 6772,
    "aks": 1298,
    "ksi": 4125,
    " tak": 689,
    "taks": 6773,
    "aksi": 1299,
    "ksin": 4126,
    "ambu": 1379,
    "mbus": 4601,
    "ฟฟ": 8745,
    "ฟ้": 8794,
    "นไ": 8568,
    "งไฟ": 8065,
    "ไฟฟ": 10434,
    "ฟฟ้": 8746,
    "ฟ้า": 8795,
    "้าส": 10594,
    "ินไ": 9866,
    "นไท": 8569,
    "้งไฟ": 10563,
    "งไฟฟ": 8066,
    "ไฟฟ้": 10435,
    "ฟฟ้า": 8747,
    "ฟ้าส": 8796,
    "้าสี": 10595,
    "งินไ": 8022,
    "ินไท": 9867,
    "นไทย": 8570,
    "atan": 1617,
    "tani": 6787,
    "anic": 1435,
    "nich": 4964,
    "char": 2003,
    "haru": 3369,
    "arum": 1577,
    "ntil": 5097,
    "till": 6914,
    "lles": 4379,
    "ทแ": 8399,
    "ิบ": 9868,
    "บเ": 8655,
    "ก์โ": 7840,
    "โทแ": 10373,
    "ทแค": 8400,
    "ริบ": 9028,
    "ิบเ": 9871,
    "บเบ": 8656,
    "งก์โ": 7982,
    "ก์โท": 7841,
    "์โทแ": 10713,
    "โทแค": 10374,
    "ทแคร": 8401,
    "แคริ": 10279,
    "คริบ": 7903,
    "ริบเ": 9029,
    "ิบเบ": 9872,
    "บเบี": 8657,
    "บียน": 8645,
    "ibe": 3606,
    "ben": 1774,
    "arib": 1546,
    "ribe": 6149,
    "iben": 3607,
    "bena": 1775,
    "ena ": 2749,
    "tek": 6826,
    "ekn": 2664,
    "itek": 3982,
    "tekn": 6827,
    "ekne": 2665,
    "ขา": 7845,
    "่าห": 10533,
    "าหั": 9783,
    "าขา": 9654,
    "ขาว": 7846,
    "าวบ": 9762,
    "วบร": 9258,
    "ล่าห": 9236,
    "่าหั": 10534,
    "าหัว": 9784,
    "ข่าข": 7852,
    "่าขา": 10515,
    "าขาว": 9655,
    "ขาวบ": 7847,
    "าวบร": 9763,
    "วบรา": 9259,
    "ntho": 5093,
    "thos": 6881,
    "hosc": 3499,
    "oscu": 5520,
    "scur": 6504,
    "curr": 2223,
    "urri": 7317,
    "rria": 6341,
    "geni": 3201,
    "enic": 2768,
    "nicu": 4966,
    "lata": 4197,
    "od-": 5204,
    "d-a": 2245,
    "ood-": 5410,
    "od-a": 5205,
    "d-ag": 2246,
    "eg ": 2635,
    "edle": 2596,
    "dleg": 2386,
    "leg ": 4263,
    "ขาแ": 7848,
    "ดงเ": 8185,
    "งเม": 8055,
    "าขาแ": 9656,
    "ขาแด": 7849,
    "แดงเ": 10293,
    "ดงเม": 8186,
    "งเม็": 8056,
    " emi": 218,
    "emil": 2728,
    "apy": 1501,
    "pyb": 5896,
    "capy": 1937,
    "apyb": 1502,
    "pyba": 5897,
    "ybar": 7564,
    "bara": 1747,
    "าปิ": 9708,
    "ปิบ": 8674,
    "ิบา": 9869,
    "รา ": 9012,
    "คาปิ": 7941,
    "าปิบ": 9709,
    "ปิบา": 8675,
    "ิบาร": 9870,
    "บารา": 8631,
    "ารา ": 9744,
    "hoe": 3480,
    "oer": 5232,
    "droc": 2441,
    "ocho": 5182,
    "choe": 2027,
    "hoer": 3481,
    "oeru": 5233,
    "hae": 3340,
    "ocha": 5179,
    "chae": 2000,
    "haer": 3341,
    "aeri": 1223,
    "eris": 2873,
    "ily": 3783,
    "easi": 2519,
    "asil": 1589,
    "sily": 6580,
    "ily ": 3784,
    "stre": 6701,
    "tres": 7024,
    "ssed": 6660,
    " bin": 76,
    "bint": 1798,
    "intu": 3869,
    "ntur": 5112,
    "turo": 7078,
    "uron": 7313,
    "ตู": 8306,
    "ูร": 10053,
    "รง": 8953,
    "ินต": 9858,
    "นตู": 8458,
    "ตูร": 8307,
    "ูรง": 10054,
    "รง ": 8954,
    " บิน": 861,
    "บินต": 8635,
    "ินตู": 9859,
    "นตูร": 8459,
    "ตูรง": 8308,
    "ูรง ": 10055,
    "rct": 6037,
    "arct": 1526,
    "rcti": 6038,
    "ctic": 2193,
    "tict": 6902,
    "icti": 3646,
    "ctis": 2194,
    "g,": 3148,
    ", ": 990,
    "ng,": 4928,
    "g, ": 3149,
    "ong,": 5371,
    "ng, ": 4929,
    "s,": 6443,
    "us,": 7325,
    "s, ": 6444,
    "ous,": 5605,
    "us, ": 7326,
    "be ": 1759,
    " be ": 70,
    "np": 5056,
    "unp": 7264,
    "npr": 5057,
    "tab": 6759,
    "abl": 1132,
    " unp": 735,
    "unpr": 7265,
    "npre": 5058,
    "redi": 6073,
    "edic": 2591,
    "dict": 2353,
    "icta": 3645,
    "ctab": 2187,
    "tabl": 6760,
    "able": 1133,
    "ble ": 1811,
    "l-": 4143,
    "ll-": 4369,
    "l-c": 4144,
    "-cl": 1012,
    "all-": 1343,
    "ll-c": 4370,
    "l-cl": 4145,
    "-cla": 1013,
    " ot": 516,
    "tte": 7055,
    " ott": 517,
    "otte": 5577,
    "tter": 7056,
    "็บ": 10474,
    "บส": 8613,
    "ั้": 9637,
    "้น": 10564,
    " นา": 849,
    "นาก": 8519,
    "ากเ": 9646,
    "กเล": 7807,
    "ล็บ": 9225,
    "็บส": 10475,
    "บสั": 8614,
    "สั้": 9332,
    "ั้น": 9638,
    "้นเ": 10565,
    "นเอ": 8552,
    " นาก": 850,
    "นากเ": 8520,
    "ากเล": 9647,
    "กเล็": 7808,
    "เล็บ": 10235,
    "ล็บส": 9226,
    "็บสั": 10476,
    "บสั้": 8615,
    "สั้น": 9333,
    "ั้นเ": 9639,
    "้นเอ": 10566,
    "นเอเ": 8553,
    "ชีย ": 8110,
    " ao": 34,
    "aon": 1475,
    " aon": 35,
    "aony": 1476,
    "ereu": 2859,
    "l,": 4141,
    "al,": 1302,
    "l, ": 4142,
    "ial,": 3589,
    "al, ": 1303,
    "cal,": 1914,
    "uct": 7142,
    " des": 178,
    "dest": 2338,
    "truc": 7040,
    "ruct": 6391,
    "ucti": 7143,
    " if": 349,
    "if ": 3697,
    " if ": 350,
    "r-s": 5929,
    "-st": 1054,
    "mul": 4739,
    "unde": 7252,
    "der-": 2331,
    "er-s": 2842,
    "r-st": 5930,
    "-sti": 1055,
    "imul": 3804,
    "mula": 4740,
    "fam": 3048,
    "ami": 1386,
    " fam": 241,
    "fami": 3049,
    "amil": 1387,
    "mily": 4649,
    "เม่": 10209,
    "ม่น": 8886,
    "่นห": 10494,
    "นหง": 8502,
    "หงอ": 9369,
    "งอน": 8015,
    " เม่": 934,
    "เม่น": 10210,
    "ม่นห": 8887,
    "่นหง": 10495,
    "นหงอ": 8503,
    "หงอน": 9370,
    "งอน ": 8016,
    " hys": 345,
    "hyst": 3571,
    "ystr": 7682,
    "cris": 2172,
    "ista": 3961,
    "stat": 6678,
    "-o": 1043,
    "ly-": 4517,
    "y-o": 7540,
    "-or": 1044,
    "ily-": 3785,
    "ly-o": 4518,
    "y-or": 7541,
    "-ori": 1045,
    "ente": 2789,
    "/f": 1075,
    "s/f": 6449,
    "/fa": 1076,
    "rs/f": 6353,
    "s/fa": 6450,
    "/fam": 1077
  },
  "idf": [
    5.941642422609304,
    5.941642422609304,
    1.3069134343796684,
    3.05127066471314,
    5.248495242049359,
    5.941642422609304,
    3.1382820417027695,
    5.941642422609304,
    5.941642422609304,
    5.248495242049359,
    5.941642422609304,
    5.53617731450114,
    4.236894330370879,
    4.236894330370879,
    4.332204510175204,
    5.53617731450114,
    4.555348061489413,
    3.4159137783010487,
    4.843030133941195,
    5.941642422609304,
    3.8622008809294686,
    5.53617731450114,
    5.941642422609304,
    3.108429078553088,
    5.02535169073515,
    5.53617731450114,
    5.941642422609304,
    3.2008023986841034,
    4.332204510175204,
    5.941642422609304,
    5.248495242049359,
    5.941642422609304,
    5.941642422609304,
    5.248495242049359,
    5.941642422609304,
    5.941642422609304,
    5.941642422609304,
    5.941642422609304,
    2.57434659262283,
    2.57434659262283,
    2.0396697530346595,
    4.43756502583303,
    2.102190110015994,
    5.53617731450114,
    5.941642422609304,
    5.53617731450114,
    5.53617731450114,
    4.843030133941195,
    5.53617731450114,
    5.941642422609304,
    5.941642422609304,
    5.941642422609304,
    5.248495242049359,
    5.941642422609304,
    5.941642422609304,
    5.941642422609304,
    5.02535169073515,
    5.248495242049359,
    5.941642422609304,
    5.941642422609304,
    5.941642422609304,
    5.941642422609304,
    5.941642422609304,
    1.9619607687073435,
    4.688879454113936,
    5.53617731450114,
    5.53617731450114,
    5.941642422609304,
    5.941642422609304,
    4.843030133941195,
    5.941642422609304,
    5.53617731450114,
    5.941642422609304,
    5.941642422609304,
    2.5917383353346994,
    5.02535169073515,
    5.941642422609304,
    2.7429693050586232,
    5.53617731450114,
    5.941642422609304,
    3.8015762591130335,
    4.688879454113936,
    5.941642422609304,
    4.332204510175204,
    3.8015762591130335,
    4.555348061489413,
    5.248495242049359,
    5.53617731450114,
    5.941642422609304,
    5.53617731450114,
    5.941642422609304,
    4.149882953381249,
    4.555348061489413,
    5.53617731450114,
    5.941642422609304,
    5.941642422609304,
    4.069840245707713,
    5.53617731450114,
    5.941642422609304,
    5.941642422609304,
    5.02535169073515,
    5.941642422609304,
    4.843030133941195,
    1.3669314441059215,
    1.6443570163905132,
    5.02535169073515,
    5.941642422609304,
    5.248495242049359,
    2.4006830985719905,
    5.941642422609304,
    4.843030133941195,
    5.248495242049359,
    2.1239300966523995,
    5.941642422609304,
    5.02535169073515,
    5.941642422609304,
    5.53617731450114,
    5.02535169073515,
    5.941642422609304,
    5.53617731450114,
    5.941642422609304,
    3.4992953872401,
    5.248495242049359,
    5.02535169073515,
    4.149882953381249,
    5.53617731450114,
    5.53617731450114,
    4.43756502583303,
    5.248495242049359,
    5.941642422609304,
    5.53617731450114,
    5.941642422609304,
    5.941642422609304,
    4.688879454113936,
    5.53617731450114,
    5.941642422609304,
    5.248495242049359,
    3.0794415416798357,
    5.941642422609304,
    5.941642422609304,
    4.43756502583303,
    5.941642422609304,
    5.248495242049359,
    4.688879454113936,
    4.555348061489413,
    4.688879454113936,
    5.941642422609304,
    3.9267394020670396,
    5.248495242049359,
    5.53617731450114,
    5.02535169073515,
    5.248495242049359,
    4.843030133941195,
    5.941642422609304,
    4.069840245707713,
    5.53617731450114,
    5.941642422609304,
    4.332204510175204,
    5.941642422609304,
    4.149882953381249,
    5.248495242049359,
    5.941642422609304,
    5.248495242049359,
    5.53617731450114,
    5.53617731450114,
    2.5076552181241585,
    4.332204510175204,
    5.53617731450114,
    5.248495242049359,
    5.941642422609304,
    5.248495242049359,
    3.3766930651477676,
    4.149882953381249,
    5.941642422609304,
    4.688879454113936,
    5.53617731450114,
    5.02535169073515,
    5.941642422609304,
    5.941642422609304,
    4.843030133941195,
    5.53617731450114,
    5.941642422609304,
    5.941642422609304,
    5.941642422609304,
    3.8622008809294686,
    5.02535169073515,
    5.941642422609304,
    5.248495242049359,
    4.843030133941195,
    5.941642422609304,
    5.941642422609304,
    4.555348061489413,
    4.843030133941195,
    5.941642422609304,
    5.941642422609304,
    5.941642422609304,
    5.941642422609304,
    5.248495242049359,
    5.248495242049359,
    5.941642422609304,
    5.941642422609304,
    1.9343092373768334,
    2.33072450996508,
    5.53617731450114,
    2.3581234841531944,
    5.53617731450114,
    5.941642422609304,
    5.941642422609304,
    5.248495242049359,
    5.248495242049359,
    5.941642422609304,
    5.941642422609304,
    4.555348061489413,
    5.941642422609304,
    4.843030133941195,
    5.941642422609304,
    5.02535169073515,
    5.53617731450114,
    5.941642422609304,
    5.941642422609304,
    5.941642422609304,
    5.941642422609304,
    5.941642422609304,
    5.941642422609304,
    4.843030133941195,
    5.941642422609304,
    5.941642422609304,
    5.248495242049359,
    5.02535169073515,
    5.941642422609304,
    5.941642422609304,
    5.53617731450114,
    3.5902671654458267,
    5.941642422609304,
    5.941642422609304,
    3.9267394020670396,
    4.149882953381249,
    1.990398704027877,
    4.236894330370879,
    5.941642422609304,
    5.941642422609304,
    5.53617731450114,
    5.53617731450114,
    5.248495242049359,
    5.941642422609304,
    4.843030133941195,
    5.53617731450114,
    5.941642422609304,
    5.53617731450114,
    2.645805556604975,
    5.941642422609304,
    5.941642422609304,
    5.941642422609304,
    5.02535169073515,
    4.688879454113936,
    2.8735894874756873,
    5.248495242049359,
    5.941642422609304,
    5.941642422609304,
    5.941642422609304,
    4.332204510175204,
    5.53617731450114,
    5.941642422609304,
    4.843030133941195,
    5.941642422609304,
    2.4006830985719905,
    2.7429693050586232,
    5.02535169073515,
    3.7444178452730847,
    5.53617731450114,
    5.53617731450114,
    1.990398704027877,
    4.688879454113936,
    5.248495242049359,
    5.941642422609304,
    5.53617731450114,
    3.3766930651477676,
    4.149882953381249,
    5.941642422609304,
    4.236894330370879,
    5.248495242049359,
    5.941642422609304,
    5.941642422609304,
    5.941642422609304,
    5.941642422609304,
    5.02535169073515,
    5.248495242049359,
    5.941642422609304,
    5.941642422609304,
    5.53617731450114,
    5.941642422609304,
    5.941642422609304,
    5.941642422609304,
    5.941642422609304,
    4.332204510175204,
    5.941642422609304,
    5.248495242049359,
    5.53617731450114,
    5.941642422609304,
    5.941642422609304,
    5.941642422609304,
    2.4006830985719905,
    3.9267394020670396,
    4.149882953381249,
    5.941642422609304,
    2.7635885922613586,
    4.843030133941195,
    5.53617731450114,
    5.941642422609304,
    5.53617731450114,
    5.941642422609304,
    5.941642422609304,
    1.7444404749474958,
    2.049822124498678,
    5.941642422609304,
    5.941642422609304,
    4.688879454113936,
    2.1349799328389842,
    3.0794415416798357,
    5.941642422609304,
    5.53617731450114,
    5.941642422609304,
    5.53617731450114,
    5.941642422609304,
    3.3389527371649206,
    5.941642422609304,
    3.690350624002809,
    3.8015762591130335,
    5.941642422609304,
    5.941642422609304,
    4.688879454113936,
    5.941642422609304,
    5.941642422609304,
    5.941642422609304,
    5.53617731450114,
    5.941642422609304,
    5.53617731450114,
    5.941642422609304,
    5.941642422609304,
    4.43756502583303,
    5.941642422609304,
    5.941642422609304,
    5.53617731450114,
    5.941642422609304,
    5.53617731450114,
    5.941642422609304,
    2.445134861142824,
    5.941642422609304,
    5.941642422609304,
    5.941642422609304,
    5.941642422609304,
    5.53617731450114,
    5.53617731450114,
    5.53617731450114,
    5.941642422609304,
    5.941642422609304,
    2.5239157389959384,
    5.248495242049359,
    2.7227665977411037,
    4.43756502583303,
    3.7444178452730847,
    4.236894330370879,
    4.236894330370879,
    5.02535169073515,
    5.941642422609304,
    5.941642422609304,
    5.53617731450114,
    5.941642422609304,
    5.941642422609304,
    5.941642422609304,
    5.941642422609304,
    4.069840245707713,
    5.941642422609304,
    5.941642422609304,
    4.843030133941195,
    5.941642422609304,
    5.02535169073515,
    5.248495242049359,
    5.53617731450114,
    5.941642422609304,
    5.941642422609304,
    5.941642422609304,
    5.941642422609304,
    5.941642422609304,
    5.941642422609304,
    5.941642422609304,
    1.282931469693183,
    4.236894330370879,
    5.941642422609304,
    5.53617731450114,
    5.02535169073515,
    5.941642422609304,
    5.941642422609304,
    5.941642422609304,
    4.236894330370879,
    5.941642422609304,
    5.941642422609304,
    5.53617731450114,
    5.248495242049359,
    5.941642422609304,
    5.941642422609304,
    5.941642422609304,
    3.0238716905250254,
    5.941642422609304,
    5.53617731450114,
    5.941642422609304,
    5.941642422609304,
    5.941642422609304,
    3.2008023986841034,
    1.372099414264364,
    5.941642422609304,
    5.941642422609304,
    5.941642422609304,
    5.941642422609304,
    5.941642422609304,
    5.02535169073515,
    5.941642422609304,
    1.3877655310087635,
    5.248495242049359,
    5.941642422609304,
    5.941642422609304,
    5.941642422609304,
    1.2641515750415868,
    2.3581234841531944,
    4.236894330370879,
    5.941642422609304,
    5.02535169073515,
    2.8061482066801546,
    5.53617731450114,
    5.53617731450114,
    4.555348061489413,
    5.248495242049359,
    5.941642422609304,
    5.941642422609304,
    5.941642422609304,
    5.941642422609304,
    1.464305608131098,
    1.5167957907524945,
    5.941642422609304,
    4.843030133941195,
    5.941642422609304,
    5.941642422609304,
    5.53617731450114,
    5.941642422609304,
    5.53617731450114,
    5.248495242049359,
    5.941642422609304,
    3.8015762591130335,
    5.941642422609304,
    4.149882953381249,
    5.53617731450114,
    5.941642422609304,
    5.941642422609304,
    3.4992953872401,
    5.941642422609304,
    5.53617731450114,
    4.236894330370879,
    5.02535169073515,
    5.941642422609304,
    5.941642422609304,
    5.248495242049359,
    4.688879454113936,
    5.941642422609304,
    4.843030133941195,
    5.248495242049359,
    5.941642422609304,
    5.941642422609304,
    5.941642422609304,
    1.0071684894786126,
    4.843030133941195,
    5.941642422609304,
    5.53617731450114,
    5.53617731450114,
    4.069840245707713,
    5.941642422609304,
    5.941642422609304,
    5.941642422609304,
    5.941642422609304,
    4.43756502583303,
    5.53617731450114,
    5.53617731450114,
    1.0071684894786126,
    1.047540944769,
    1.4418327522790393,
    5.941642422609304,
    5.941642422609304,
    5.941642422609304,
    5.941642422609304,
    5.941642422609304,
    5.941642422609304,
    5.941642422609304,
    5.941642422609304,
    1.7148086773411246,
    5.02535169073515,
    5.53617731450114,
    5.53617731450114,
    5.53617731450114,
    5.941642422609304,
    5.941642422609304,
    5.941642422609304,
    5.941642422609304,
    1.8389990575725084,
    1.8389990575725084,
    5.941642422609304,
    5.941642422609304,
    5.53617731450114,
    5.941642422609304,
    5.941642422609304,
    4.43756502583303,
    5.53617731450114,
    5.02535169073515,
    5.941642422609304,
    5.941642422609304,
    5.248495242049359,
    5.941642422609304,
    5.53617731450114,
    5.941642422609304,
    5.941642422609304,
    5.941642422609304,
    5.941642422609304,
    1.5721945701422828,
    2.240340448496811,
    5.53617731450114,
    5.53617731450114,
    2.386294361119891,
    5.53617731450114,
    5.248495242049359,
    3.05127066471314,
    5.941642422609304,
    3.9267394020670396,
    4.43756502583303,
    5.248495242049359,
    5.248495242049359,
    4.236894330370879,
    5.248495242049359,
    5.941642422609304,
    5.248495242049359,
    5.941642422609304,
    5.53617731450114,
    4.236894330370879,
    5.53617731450114,
    5.02535169073515,
    5.53617731450114,
    5.941642422609304,
    5.53617731450114,
    4.332204510175204,
    4.843030133941195,
    5.248495242049359,
    5.941642422609304,
    3.4159137783010487,
    5.941642422609304,
    5.53617731450114,
    4.332204510175204,
    5.02535169073515,
    5.941642422609304,
    5.248495242049359,
    5.53617731450114,
    5.941642422609304,
    5.941642422609304,
    3.2674937731827756,
    5.53617731450114,
    3.9267394020670396,
    5.02535169073515,
    4.332204510175204,
    4.688879454113936,
    5.941642422609304,
    4.843030133941195,
    5.248495242049359,
    5.248495242049359,
    4.332204510175204,
    5.02535169073515,
    5.53617731450114,
    5.941642422609304,
    5.941642422609304,
    5.941642422609304,
    3.8622008809294686,
[...]
